{"version":"1.0","truncation":null,"padding":null,"added_tokens":[{"id":0,"special":true,"content":"[PAD]","single_word":false,"lstrip":false,"rstrip":false,"normalized":false},{"id":1,"special":true,"content":"[UNK]","single_word":false,"lstrip":false,"rstrip":false,"normalized":false},{"id":2,"special":true,"content":"[CLS]","single_word":false,"lstrip":false,"rstrip":false,"normalized":false},{"id":3,"special":true,"content":"[SEP]","single_word":false,"lstrip":false,"rstrip":false,"normalized":false},{"id":4,"special":true,"content":"[MASK]","single_word":false,"lstrip":false,"rstrip":false,"normalized":false}],"normalizer":{"type":"BertNormalizer","clean_text":true,"handle_chinese_chars":true,"strip_accents":null,"lowercase":true},"pre_tokenizer":{"type":"BertPreTokenizer"},"post_processor":null,"decoder":{"type":"WordPiece","prefix":"##","cleanup":true},"model":{"unk_token":"[UNK]","continuing_subword_prefix":"##","max_input_chars_per_word":100,"vocab":{"[PAD]":0,"[UNK]":1,"[CLS]":2,"[SEP]":3,"[MASK]":4,"!":5,"\"":6,"#":7,"$":8,"%":9,"&":10,"'":11,"(":12,")":13,"*":14,"+":15,",":16,"-":17,".":18,"/":19,"0":20,"1":21,"2":22,"3":23,"4":24,"5":25,"6":26,"7":27,"8":28,"9":29,":":30,";":31,"<":32,"=":33,">":34,"?":35,"@":36,"[":37,"\\":38,"]":39,"^":40,"_":41,"`":42,"a":43,"b":44,"c":45,"d":46,"e":47,"f":48,"g":49,"h":50,"i":51,"j":52,"k":53,"l":54,"m":55,"n":56,"o":57,"p":58,"q":59,"r":60,"s":61,"t":62,"u":63,"v":64,"w":65,"x":66,"y":67,"z":68,"{":69,"|":70,"}":71,"~":72,"¡":73,"¢":74,"£":75,"¥":76,"§":77,"©":78,"ª":79,"«":80,"¬":81,"®":82,"°":83,"±":84,"²":85,"³":86,"´":87,"µ":88,"·":89,"¹":90,"º":91,"»":92,"¼":93,"½":94,"¾":95,"¿":96,"×":97,"ß":98,"æ":99,"ð":100,"ø":101,"þ":102,"đ":103,"ħ":104,"ı":105,"ł":106,"ŋ":107,"œ":108,"ƒ":109,"ɑ":110,"ɔ":111,"ə":112,"ɛ":113,"ɣ":114,"ɨ":115,"ɪ":116,"ʀ":117,"ʃ":118,"ʔ":119,"ʰ":120,"ʷ":121,"ʻ":122,"ʼ":123,"ʾ":124,"ʿ":125,"ˈ":126,"ː":127,"α":128,"β":129,"γ":130,"δ":131,"ε":132,"ζ":133,"η":134,"θ":135,"ι":136,"κ":137,"λ":138,"μ":139,"ν":140,"ξ":141,"ο":142,"π":143,"ρ":144,"ς":145,"σ":146,"τ":147,"υ":148,"φ":149,"χ":150,"ψ":151,"ω":152,"а":153,"б":154,"в":155,"г":156,"д":157,"е":158,"ж":159,"з":160,"и":161,"к":162,"л":163,"м":164,"н":165,"о":166,"п":167,"р":168,"с":169,"т":170,"у":171,"ф":172,"х":173,"ц":174,"ч":175,"ш":176,"щ":177,"ъ":178,"ы":179,"ь":180,"э":181,"ю":182,"я":183,"є":184,"і":185,"ј":186,"њ":187,"ћ":188,"ӏ":189,"ա":190,"բ":191,"գ":192,"ե":193,"թ":194,"ի":195,"լ":196,"կ":197,"հ":198,"մ":199,"յ":200,"ն":201,"ո":202,"պ":203,"ս":204,"վ":205,"տ":206,"ր":207,"ց":208,"ւ":209,"ք":210,"א":211,"ב":212,"ג":213,"ד":214,"ה":215,"ו":216,"ז":217,"ח":218,"ט":219,"י":220,"כ":221,"ל":222,"ם":223,"מ":224,"ן":225,"נ":226,"ס":227,"ע":228,"פ":229,"צ":230,"ק":231,"ר":232,"ש":233,"ת":234,"״":235,"،":236,"ء":237,"ا":238,"ب":239,"ة":240,"ت":241,"ث":242,"ج":243,"ح":244,"خ":245,"د":246,"ذ":247,"ر":248,"ز":249,"س":250,"ش":251,"ص":252,"ض":253,"ط":254,"ع":255,"غ":256,"ف":257,"ق":258,"ك":259,"ل":260,"م":261,"ن":262,"ه":263,"و":264,"ى":265,"ي":266,"پ":267,"چ":268,"ک":269,"گ":270,"ہ":271,"ی":272,"ः":273,"अ":274,"आ":275,"क":276,"ख":277,"ग":278,"च":279,"ज":280,"ट":281,"ठ":282,"ड":283,"ण":284,"त":285,"थ":286,"द":287,"ध":288,"न":289,"प":290,"फ":291,"ब":292,"भ":293,"म":294,"य":295,"र":296,"ल":297,"व":298,"श":299,"ष":300,"स":301,"ह":302,"ा":303,"ि":304,"ी":305,"ो":306,"ौ":307,"।":308,"ক":309,"গ":310,"জ":311,"ত":312,"দ":313,"ন":314,"প":315,"ব":316,"ম":317,"য":318,"র":319,"ল":320,"শ":321,"স":322,"হ":323,"া":324,"ি":325,"ী":326,"ে":327,"ਰ":328,"ਾ":329,"ા":330,"க":331,"ச":332,"ட":333,"ண":334,"த":335,"ந":336,"ன":337,"ப":338,"ம":339,"ய":340,"ர":341,"ற":342,"ல":343,"ள":344,"வ":345,"ா":346,"ி":347,"ு":348,"ெ":349,"ே":350,"ை":351,"న":352,"ర":353,"ల":354,"ు":355,"ಂ":356,"ಕ":357,"ಗ":358,"ತ":359,"ದ":360,"ನ":361,"ಮ":362,"ರ":363,"ಲ":364,"ವ":365,"ಸ":366,"ಾ":367,"ು":368,"ೕ":369,"ം":370,"ക":371,"ട":372,"ത":373,"ന":374,"പ":375,"മ":376,"യ":377,"ര":378,"ല":379,"വ":380,"ാ":381,"ി":382,"െ":383,"േ":384,"ක":385,"ත":386,"ද":387,"න":388,"ප":389,"ම":390,"ය":391,"ර":392,"ල":393,"ව":394,"ස":395,"ා":396,"ෙ":397,"ก":398,"ข":399,"ค":400,"ง":401,"จ":402,"ช":403,"ด":404,"ต":405,"ท":406,"ธ":407,"น":408,"บ":409,"ป":410,"พ":411,"ม":412,"ย":413,"ร":414,"ล":415,"ว":416,"ศ":417,"ส":418,"ห":419,"อ":420,"ะ":421,"า":422,"ำ":423,"เ":424,"แ":425,"โ":426,"ไ":427,"་":428,"မ":429,"ာ":430,"ေ":431,"း":432,"ა":433,"ბ":434,"დ":435,"ე":436,"ვ":437,"თ":438,"ი":439,"ლ":440,"მ":441,"ნ":442,"ო":443,"რ":444,"ს":445,"ტ":446,"უ":447,"ᄀ":448,"ᄁ":449,"ᄂ":450,"ᄃ":451,"ᄅ":452,"ᄆ":453,"ᄇ":454,"ᄉ":455,"ᄊ":456,"ᄋ":457,"ᄌ":458,"ᄎ":459,"ᄏ":460,"ᄐ":461,"ᄑ":462,"ᄒ":463,"ᅡ":464,"ᅢ":465,"ᅣ":466,"ᅥ":467,"ᅦ":468,"ᅧ":469,"ᅨ":470,"ᅩ":471,"ᅪ":472,"ᅬ":473,"ᅭ":474,"ᅮ":475,"ᅯ":476,"ᅱ":477,"ᅲ":478,"ᅳ":479,"ᅴ":480,"ᅵ":481,"ᆨ":482,"ᆫ":483,"ᆯ":484,"ᆷ":485,"ᆸ":486,"ᆺ":487,"ᆼ":488,"ក":489,"ន":490,"រ":491,"ស":492,"ា":493,"‐":494,"‑":495,"‒":496,"–":497,"—":498,"―":499,"‘":500,"’":501,"‚":502,"“":503,"”":504,"„":505,"†":506,"‡":507,"•":508,"…":509,"‰":510,"′":511,"″":512,"€":513,"₱":514,"₹":515,"ℓ":516,"№":517,"™":518,"⅓":519,"⅔":520,"←":521,"↑":522,"→":523,"↔":524,"⇒":525,"∈":526,"−":527,"∗":528,"∞":529,"∧":530,"∨":531,"∪":532,"≈":533,"≡":534,"≤":535,"≥":536,"⊆":537,"⋅":538,"─":539,"━":540,"│":541,"●":542,"★":543,"☆":544,"♠":545,"♦":546,"♭":547,"⟨":548,"⟩":549,"、":550,"。":551,"《":552,"》":553,"「":554,"」":555,"『":556,"』":557,"〜":558,"あ":559,"い":560,"う":561,"え":562,"お":563,"か":564,"き":565,"く":566,"け":567,"こ":568,"さ":569,"し":570,"す":571,"せ":572,"そ":573,"た":574,"ち":575,"っ":576,"つ":577,"て":578,"と":579,"な":580,"に":581,"の":582,"は":583,"ひ":584,"ふ":585,"へ":586,"ほ":587,"ま":588,"み":589,"む":590,"め":591,"も":592,"や":593,"よ":594,"ら":595,"り":596,"る":597,"れ":598,"ろ":599,"を":600,"ん":601,"ア":602,"ィ":603,"イ":604,"ウ":605,"エ":606,"オ":607,"カ":608,"キ":609,"ク":610,"ケ":611,"コ":612,"サ":613,"シ":614,"ス":615,"セ":616,"ソ":617,"タ":618,"チ":619,"ッ":620,"ツ":621,"テ":622,"ト":623,"ナ":624,"ニ":625,"ネ":626,"ノ":627,"ハ":628,"ヒ":629,"フ":630,"ヘ":631,"ホ":632,"マ":633,"ミ":634,"ム":635,"メ":636,"モ":637,"ャ":638,"ヤ":639,"ュ":640,"ョ":641,"ラ":642,"リ":643,"ル":644,"レ":645,"ロ":646,"ワ":647,"ン":648,"・":649,"ー":650,"一":651,"七":652,"三":653,"上":654,"下":655,"不":656,"世":657,"东":658,"中":659,"主":660,"之":661,"乐":662,"九":663,"乡":664,"事":665,"二":666,"五":667,"井":668,"交":669,"京":670,"人":671,"亻":672,"仁":673,"代":674,"伊":675,"会":676,"何":677,"作":678,"你":679,"使":680,"侍":681,"侯":682,"保":683,"信":684,"傳":685,"元":686,"光":687,"克":688,"全":689,"八":690,"公":691,"六":692,"兵":693,"典":694,"内":695,"出":696,"分":697,"利":698,"前":699,"劉":700,"力":701,"加":702,"動":703,"化":704,"北":705,"区":706,"十":707,"千":708,"华":709,"南":710,"博":711,"原":712,"县":713,"友":714,"口":715,"古":716,"台":717,"史":718,"司":719,"合":720,"吉":721,"同":722,"名":723,"后":724,"君":725,"吳":726,"周":727,"命":728,"和":729,"唐":730,"嘉":731,"四":732,"回":733,"国":734,"國":735,"園":736,"土":737,"在":738,"地":739,"城":740,"基":741,"堂":742,"報":743,"塘":744,"士":745,"夏":746,"外":747,"多":748,"夜":749,"大":750,"天":751,"太":752,"夫":753,"奇":754,"女":755,"好":756,"如":757,"子":758,"字":759,"学":760,"學":761,"守":762,"安":763,"宗":764,"官":765,"定":766,"宮":767,"家":768,"宿":769,"寶":770,"寺":771,"將":772,"小":773,"少":774,"尚":775,"山":776,"島":777,"川":778,"州":779,"工":780,"市":781,"帝":782,"師":783,"常":784,"平":785,"年":786,"广":787,"庄":788,"店":789,"府":790,"度":791,"康":792,"建":793,"式":794,"张":795,"張":796,"影":797,"後":798,"徐":799,"德":800,"心":801,"志":802,"忠":803,"思":804,"情":805,"想":806,"愛":807,"成":808,"我":809,"戦":810,"戸":811,"所":812,"手":813,"政":814,"教":815,"文":816,"新":817,"方":818,"族":819,"日":820,"昌":821,"明":822,"星":823,"春":824,"昭":825,"是":826,"時":827,"景":828,"曲":829,"書":830,"最":831,"會":832,"月":833,"有":834,"朝":835,"木":836,"本":837,"朱":838,"李":839,"村":840,"来":841,"杨":842,"東":843,"松":844,"林":845,"校":846,"桥":847,"梁":848,"楊":849,"業":850,"樂":851,"歌":852,"正":853,"武":854,"比":855,"氏":856,"民":857,"水":858,"氵":859,"永":860,"江":861,"沙":862,"河":863,"治":864,"泉":865,"法":866,"波":867,"洋":868,"津":869,"流":870,"海":871,"清":872,"港":873,"湖":874,"源":875,"溪":876,"漢":877,"火":878,"無":879,"版":880,"物":881,"特":882,"犬":883,"玉":884,"王":885,"球":886,"理":887,"生":888,"田":889,"男":890,"界":891,"白":892,"百":893,"的":894,"皇":895,"目":896,"相":897,"省":898,"真":899,"知":900,"石":901,"研":902,"社":903,"神":904,"福":905,"秀":906,"秋":907,"科":908,"究":909,"空":910,"立":911,"章":912,"竹":913,"第":914,"紀":915,"經":916,"縣":917,"羅":918,"美":919,"義":920,"老":921,"者":922,"聖":923,"育":924,"胡":925,"自":926,"興":927,"良":928,"色":929,"花":930,"英":931,"華":932,"葉":933,"藤":934,"行":935,"街":936,"衛":937,"西":938,"要":939,"見":940,"親":941,"解":942,"言":943,"記":944,"語":945,"语":946,"谷":947,"路":948,"車":949,"軍":950,"通":951,"道":952,"那":953,"郎":954,"郡":955,"部":956,"都":957,"里":958,"重":959,"野":960,"金":961,"鉄":962,"镇":963,"長":964,"长":965,"門":966,"間":967,"阳":968,"阿":969,"陈":970,"限":971,"院":972,"陳":973,"陵":974,"陽":975,"雄":976,"集":977,"雲":978,"電":979,"青":980,"音":981,"頭":982,"風":983,"飛":984,"食":985,"館":986,"香":987,"馬":988,"駅":989,"马":990,"高":991,"魔":992,"黃":993,"黄":994,"龍":995,"龙":996,"龸":997,"！":998,"（":999,"）":1000,"，":1001,"－":1002,"：":1003,"～":1004,"##s":1005,"##e":1006,"##u":1007,"##d":1008,"##o":1009,"##p":1010,"##h":1011,"##y":1012,"##c":1013,"##i":1014,"##t":1015,"##a":1016,"##b":1017,"##n":1018,"##g":1019,"##r":1020,"##3":1021,"##4":1022,"##5":1023,"##6":1024,"##m":1025,"##z":1026,"##9":1027,"##0":1028,"##k":1029,"##l":1030,"##7":1031,"##2":1032,"##w":1033,"##j":1034,"##8":1035,"##v":1036,"##1":1037,"##°":1038,"##ర":1039,"##q":1040,"##x":1041,"##f":1042,"##р":1043,"##а":1044,"##ч":1045,"##е":1046,"##в":1047,"##ا":1048,"##ل":1049,"##س":1050,"##ي":1051,"##ة":1052,"##ᅢ":1053,"##ᄌ":1054,"##ᅮ":1055,"##τ":1056,"##−":1057,"##у":1058,"##ш":1059,"##с":1060,"##т":1061,"##и":1062,"##н":1063,"##х":1064,"##ʷ":1065,"##π":1066,"##ο":1067,"##ε":1068,"##ι":1069,"##ν":1070,"##υ":1071,"##σ":1072,"##α":1073,"##ு":1074,"##வ":1075,"##ை":1076,"##®":1077,"##ß":1078,"##ん":1079,"##を":1080,"##ł":1081,"##ج":1082,"##ᅵ":1083,"##ᆨ":1084,"##ᄒ":1085,"##ᅭ":1086,"##ᄋ":1087,"##ᅧ":1088,"##ᆼ":1089,"##ʻ":1090,"##л":1091,"##я":1092,"##ว":1093,"##ร":1094,"##ค":1095,"##ム":1096,"##ラ":1097,"##イ":1098,"##マ":1099,"##ン":1100,"##ア":1101,"##メ":1102,"##リ":1103,"##カ":1104,"##ट":1105,"##र":1106,"##व":1107,"##य":1108,"##ᅡ":1109,"##ᅳ":1110,"##ᆷ":1111,"##ᄅ":1112,"##و":1113,"##ъ":1114,"##ʼ":1115,"##क":1116,"##ा":1117,"##प":1118,"##त":1119,"##ि":1120,"##भ":1121,"##ज":1122,"##न":1123,"##ξ":1124,"##ρ":1125,"##ς":1126,"##ด":1127,"##б":1128,"##о":1129,"##м":1130,"##æ":1131,"##щ":1132,"##ы":1133,"##า":1134,"##ย":1135,"##д":1136,"##і":1137,"##ь":1138,"##ะ":1139,"##ท":1140,"##น":1141,"##ง":1142,"##จ":1143,"##ก":1144,"##ม":1145,"##ห":1146,"##ป":1147,"##ส":1148,"##×":1149,"##ᄎ":1150,"##ᅩ":1151,"##ر":1152,"##د":1153,"##ت":1154,"##ن":1155,"##к":1156,"##ュ":1157,"##ー":1158,"##シ":1159,"##ル":1160,"##ᆫ":1161,"##ב":1162,"##ר":1163,"##י":1164,"##א":1165,"##ת":1166,"##⋅":1167,"##ı":1168,"##ა":1169,"##დ":1170,"##რ":1171,"##ი":1172,"##ნ":1173,"##ს":1174,"##г":1175,"##ж":1176,"##ᅬ":1177,"##พ":1178,"##ช":1179,"##ら":1180,"##り":1181,"##ಾ":1182,"##ರ":1183,"##ಗ":1184,"##ವ":1185,"##φ":1186,"##エ":1187,"##テ":1188,"##へ":1189,"##ᄀ":1190,"##ᅪ":1191,"##ल":1192,"##´":1193,"##μ":1194,"##מ":1195,"##ک":1196,"##ლ":1197,"##ᄇ":1198,"##ᄐ":1199,"##ᆯ":1200,"##さ":1201,"##る":1202,"##ð":1203,"##ю":1204,"##є":1205,"##स":1206,"##ʰ":1207,"##γ":1208,"##κ":1209,"##ω":1210,"##з":1211,"##म":1212,"##ब":1213,"##ो":1214,"##п":1215,"##ᅥ":1216,"##セ":1217,"##ツ":1218,"##ナ":1219,"##™":1220,"##ف":1221,"##ह":1222,"##द":1223,"##ø":1224,"##ب":1225,"##ه":1226,"##ʔ":1227,"##ə":1228,"##λ":1229,"##ธ":1230,"##ᄉ":1231,"##ാ":1232,"##ി":1233,"##ര":1234,"##ം":1235,"##ф":1236,"##β":1237,"##η":1238,"##ਾ":1239,"##±":1240,"##ネ":1241,"##ヘ":1242,"##ᄆ":1243,"##ᅲ":1244,"##േ":1245,"##ィ":1246,"##フ":1247,"##ス":1248,"##ד":1249,"##ו":1250,"##נ":1251,"##া":1252,"##র":1253,"##ি":1254,"##ক":1255,"##ে":1256,"##ন":1257,"##ද":1258,"##න":1259,"##ෙ":1260,"##ש":1261,"##³":1262,"##ك":1263,"##э":1264,"##ದ":1265,"##♦":1266,"##ζ":1267,"##ಲ":1268,"##ה":1269,"##ා":1270,"##ක":1271,"##ح":1272,"##ศ":1273,"##บ":1274,"##ล":1275,"##ต":1276,"##ำ":1277,"##ல":1278,"##ா":1279,"##ய":1280,"##த":1281,"##ம":1282,"##م":1283,"##ع":1284,"##ग":1285,"##ड":1286,"##ા":1287,"##ն":1288,"##ք":1289,"##ա":1290,"##թ":1291,"##ի":1292,"##ק":1293,"##ր":1294,"##ᄃ":1295,"##δ":1296,"##ട":1297,"##ന":1298,"##ɨ":1299,"##ე":1300,"##ბ":1301,"##യ":1302,"##െ":1303,"##ウ":1304,"##コ":1305,"##レ":1306,"##ク":1307,"##タ":1308,"##ᅴ":1309,"##ی":1310,"##ข":1311,"##ᄂ":1312,"##ᅯ":1313,"##サ":1314,"##ெ":1315,"##ட":1316,"##ர":1317,"##ச":1318,"##ி":1319,"##ᄏ":1320,"##เ":1321,"##อ":1322,"##ע":1323,"##ל":1324,"##²":1325,"##յ":1326,"##ʿ":1327,"##ミ":1328,"##キ":1329,"##χ":1330,"##ノ":1331,"##ワ":1332,"##¹":1333,"##ध":1334,"##ŋ":1335,"##ش":1336,"##گ":1337,"##ز":1338,"##ᅦ":1339,"##ط":1340,"##→":1341,"##ტ":1342,"##ष":1343,"##ذ":1344,"##─":1345,"##গ":1346,"##ח":1347,"##ケ":1348,"##ト":1349,"##☆":1350,"##ц":1351,"##ј":1352,"##モ":1353,"##チ":1354,"##ヒ":1355,"##ম":1356,"##ী":1357,"##¥":1358,"##ן":1359,"##श":1360,"##ी":1361,"##լ":1362,"##θ":1363,"##º":1364,"##ɔ":1365,"##ª":1366,"##ヤ":1367,"##న":1368,"##ు":1369,"##း":1370,"##မ":1371,"##ေ":1372,"##ာ":1373,"##ʃ":1374,"##ख":1375,"##ण":1376,"##צ":1377,"##կ":1378,"##հ":1379,"##ս":1380,"##տ":1381,"##फ":1382,"##♭":1383,"##थ":1384,"##す":1385,"##オ":1386,"##ロ":1387,"##മ":1388,"##വ":1389,"##ホ":1390,"##ャ":1391,"##œ":1392,"##đ":1393,"##ッ":1394,"##の":1395,"##¼":1396,"##च":1397,"##♠":1398,"##£":1399,"##โ":1400,"##แ":1401,"##ក":1402,"##ᅣ":1403,"##ස":1404,"##ල":1405,"##ව":1406,"##ɛ":1407,"##പ":1408,"##ക":1409,"##ג":1410,"##ם":1411,"##ത":1412,"##ق":1413,"##ى":1414,"##ು":1415,"##ර":1416,"##ソ":1417,"##よ":1418,"##ひ":1419,"##ւ":1420,"##ո":1421,"##ե":1422,"##ː":1423,"##ء":1424,"##µ":1425,"##ே":1426,"##ப":1427,"##க":1428,"##な":1429,"##い":1430,"##ᆸ":1431,"##ט":1432,"##ま":1433,"##خ":1434,"##פ":1435,"##ʀ":1436,"##れ":1437,"##ᄑ":1438,"##ಸ":1439,"##њ":1440,"##ಕ":1441,"##⅓":1442,"##て":1443,"##մ":1444,"##ハ":1445,"##ន":1446,"##ស":1447,"##រ":1448,"##ា":1449,"##ந":1450,"##½":1451,"##ħ":1452,"##ˈ":1453,"##～":1454,"##か":1455,"##য":1456,"##ല":1457,"##ল":1458,"##প":1459,"##ث":1460,"##ʾ":1461,"##ص":1462,"##ז":1463,"##ס":1464,"##ன":1465,"##দ":1466,"##ض":1467,"##ల":1468,"##く":1469,"##え":1470,"##ہ":1471,"##þ":1472,"##ψ":1473,"##め":1474,"##せ":1475,"##ᄁ":1476,"##ց":1477,"##ত":1478,"##う":1479,"##し":1480,"##と":1481,"##は":1482,"##や":1483,"##գ":1484,"##պ":1485,"##ತ":1486,"##そ":1487,"##স":1488,"##ɣ":1489,"##ᅨ":1490,"##ත":1491,"##জ":1492,"##ः":1493,"##ᅱ":1494,"##た":1495,"##پ":1496,"##★":1497,"##უ":1498,"##ற":1499,"##ள":1500,"##ɪ":1501,"##ண":1502,"##მ":1503,"##き":1504,"##け":1505,"##つ":1506,"##ვ":1507,"##ᆺ":1508,"##ɑ":1509,"##ニ":1510,"##ನ":1511,"##ौ":1512,"##に":1513,"##ほ":1514,"##↑":1515,"##¾":1516,"##ო":1517,"##ち":1518,"##ћ":1519,"##€":1520,"##ಂ":1521,"##ೕ":1522,"##غ":1523,"##ব":1524,"##¬":1525,"##≡":1526,"##ठ":1527,"##ふ":1528,"##み":1529,"##ය":1530,"##あ":1531,"##お":1532,"##ӏ":1533,"##っ":1534,"##শ":1535,"##բ":1536,"##∈":1537,"##こ":1538,"##ප":1539,"##≥":1540,"##վ":1541,"##হ":1542,"##ම":1543,"##¢":1544,"##ᄊ":1545,"##چ":1546,"##№":1547,"##თ":1548,"##כ":1549,"##ョ":1550,"##≤":1551,"##₱":1552,"##│":1553,"##©":1554,"##∧":1555,"##ℓ":1556,"##ಮ":1557,"##⊆":1558,"##⅔":1559,"##も":1560,"##⇒":1561,"##む":1562,"##ƒ":1563,"##ไ":1564,"##ਰ":1565,"##∪":1566,"##←":1567,"##₹":1568,"##∞":1569,"##↔":1570,"##≈":1571,"##∗":1572,"##ろ":1573,"##●":1574,"##━":1575,"##∨":1576,"##आ":1577,"##अ":1578,"##he":1579,"##er":1580,"the":1581,"##in":1582,"##or":1583,"##on":1584,"##at":1585,"##an":1586,"##es":1587,"##ed":1588,"##en":1589,"##ar":1590,"in":1591,"##al":1592,"of":1593,"an":1594,"##is":1595,"##it":1596,"##ic":1597,"##as":1598,"and":1599,"##ing":1600,"##ion":1601,"##ou":1602,"to":1603,"##re":1604,"##om":1605,"##il":1606,"##el":1607,"##ent":1608,"##ol":1609,"##am":1610,"##eg":1611,"##ec":1612,"##st":1613,"##et":1614,"##ur":1615,"##ac":1616,"19":1617,"st":1618,"##ro":1619,"##ad":1620,"th":1621,"##ory":1622,"##le":1623,"##iv":1624,"for":1625,"on":1626,"##ers":1627,"##ir":1628,"cat":1629,"was":1630,"##ation":1631,"##ig":1632,"categ":1633,"category":1634,"##ot":1635,"as":1636,"is":1637,"##id":1638,"##ter":1639,"20":1640,"##em":1641,"##ay":1642,"al":1643,"##ly":1644,"##ch":1645,"##ist":1646,"##ut":1647,"re":1648,"##ow":1649,"##us":1650,"##im":1651,"fr":1652,"##th":1653,"##ith":1654,"ch":1655,"##and":1656,"with":1657,"##ul":1658,"he":1659,"##ag":1660,"by":1661,"at":1662,"con":1663,"##ts":1664,"##ce":1665,"##un":1666,"##op":1667,"##um":1668,"##os":1669,"com":1670,"un":1671,"##oun":1672,"wh":1673,"be":1674,"##oc":1675,"##her":1676,"pro":1677,"##ain":1678,"##ver":1679,"de":1680,"##est":1681,"##ian":1682,"from":1683,"##ct":1684,"##ap":1685,"##av":1686,"##ia":1687,"##ies":1688,"pl":1689,"##ess":1690,"se":1691,"that":1692,"##ab":1693,"##all":1694,"ar":1695,"##od":1696,"##ity":1697,"pr":1698,"or":1699,"##ber":1700,"ex":1701,"it":1702,"ne":1703,"tr":1704,"##ip":1705,"##ect":1706,"##if":1707,"201":1708,"en":1709,"##ill":1710,"##ard":1711,"##ate":1712,"##art":1713,"his":1714,"##ud":1715,"200":1716,"sp":1717,"##ak":1718,"su":1719,"##igh":1720,"##our":1721,"le":1722,"sh":1723,"##ich":1724,"##ov":1725,"##ated":1726,"##ort":1727,"##ary":1728,"##se":1729,"##ial":1730,"##ish":1731,"##fer":1732,"are":1733,"##ear":1734,"##ment":1735,"##ive":1736,"##mer":1737,"##ld":1738,"##og":1739,"##ie":1740,"18":1741,"##ell":1742,"##ks":1743,"cl":1744,"##ere":1745,"##pp":1746,"##ong":1747,"##ant":1748,"br":1749,"##ast":1750,"##ine":1751,"##ces":1752,"wor":1753,"comp":1754,"##ue":1755,"##ub":1756,"##ust":1757,"##ib":1758,"gr":1759,"##ame":1760,"##ound":1761,"##so":1762,"##ge":1763,"##gh":1764,"were":1765,"##ore":1766,"mar":1767,"##oll":1768,"af":1769,"new":1770,"##ical":1771,"##ost":1772,"##ions":1773,"also":1774,"##tern":1775,"##ord":1776,"##end":1777,"play":1778,"which":1779,"sc":1780,"rec":1781,"ad":1782,"##ign":1783,"ser":1784,"##ack":1785,"##uc":1786,"not":1787,"##qu":1788,"##ther":1789,"199":1790,"##age":1791,"fir":1792,"##ight":1793,"man":1794,"##per":1795,"res":1796,"##iz":1797,"ac":1798,"inc":1799,"##ass":1800,"##ure":1801,"whe":1802,"this":1803,"##ire":1804,"##der":1805,"##ric":1806,"##pt":1807,"refer":1808,"##ous":1809,"##ans":1810,"first":1811,"##ra":1812,"##ount":1813,"##ences":1814,"her":1815,"##ry":1816,"##man":1817,"car":1818,"##ough":1819,"ab":1820,"comm":1821,"cont":1822,"pe":1823,"##ember":1824,"has":1825,"had":1826,"all":1827,"##ational":1828,"ind":1829,"##ang":1830,"part":1831,"cent":1832,"##ome":1833,"##ave":1834,"##hed":1835,"year":1836,"##ations":1837,"te":1838,"##ond":1839,"us":1840,"she":1841,"##land":1842,"##ice":1843,"##mp":1844,"##ok":1845,"##orn":1846,"tw":1847,"int":1848,"go":1849,"one":1850,"##ide":1851,"per":1852,"sch":1853,"##out":1854,"##amp":1855,"co":1856,"el":1857,"amer":1858,"##ence":1859,"references":1860,"americ":1861,"bo":1862,"fil":1863,"rel":1864,"##ey":1865,"##ach":1866,"##ru":1867,"can":1868,"after":1869,"##ater":1870,"ro":1871,"198":1872,"its":1873,"##wn":1874,"rep":1875,"par":1876,"##ition":1877,"##act":1878,"##ied":1879,"ag":1880,"their":1881,"##ik":1882,"app":1883,"but":1884,"##ace":1885,"##ens":1886,"##ates":1887,"des":1888,"##own":1889,"tim":1890,"##ail":1891,"fe":1892,"##ree":1893,"who":1894,"##ual":1895,"jo":1896,"##ited":1897,"##ople":1898,"dis":1899,"film":1900,"##ult":1901,"ed":1902,"##ite":1903,"##00":1904,"##ool":1905,"off":1906,"##aw":1907,"##ivers":1908,"##ubl":1909,"pol":1910,"##les":1911,"##ents":1912,"act":1913,"##ff":1914,"two":1915,"we":1916,"##lud":1917,"mus":1918,"lin":1919,"people":1920,"fin":1921,"197":1922,"##ance":1923,"##ild":1924,"##rit":1925,"they":1926,"other":1927,"american":1928,"##ors":1929,"bec":1930,"ph":1931,"count":1932,"bl":1933,"reg":1934,"bas":1935,"##iss":1936,"##ball":1937,"ass":1938,"##ade":1939,"##ould":1940,"includ":1941,"have":1942,"##ward":1943,"eng":1944,"##io":1945,"school":1946,"##ath":1947,"sec":1948,"dec":1949,"ev":1950,"##ug":1951,"##hn":1952,"fo":1953,"up":1954,"fl":1955,"##uring":1956,"##ile":1957,"gen":1958,"pre":1959,"##for":1960,"me":1961,"##old":1962,"serv":1963,"nor":1964,"##gr":1965,"##ings":1966,"##hip":1967,"sou":1968,"bu":1969,"196":1970,"univers":1971,"out":1972,"hist":1973,"been":1974,"over":1975,"sy":1976,"min":1977,"may":1978,"##te":1979,"##ely":1980,"##ics":1981,"##ose":1982,"war":1983,"dist":1984,"##eld":1985,"am":1986,"ma":1987,"loc":1988,"kn":1989,"coll":1990,"pres":1991,"mon":1992,"##ton":1993,"##we":1994,"##ason":1995,"##able":1996,"time":1997,"publ":1998,"when":1999,"##vel":2000,"dr":2001,"art":2002,"##ral":2003,"ear":2004,"there":2005,"##ft":2006,"##az":2007,"char":2008,"##ished":2009,"work":2010,"##ock":2011,"##ision":2012,"during":2013,"win":2014,"##urn":2015,"national":2016,"prod":2017,"##olog":2018,"att":2019,"world":2020,"##als":2021,"exp":2022,"cons":2023,"##way":2024,"med":2025,"gre":2026,"university":2027,"under":2028,"united":2029,"acc":2030,"17":2031,"foot":2032,"##one":2033,"194":2034,"bro":2035,"##ale":2036,"stud":2037,"gu":2038,"##ict":2039,"##ah":2040,"bet":2041,"##ury":2042,"##ick":2043,"into":2044,"195":2045,"##ternal":2046,"##ix":2047,"team":2048,"##ames":2049,"col":2050,"no":2051,"##int":2052,"##cc":2053,"##anc":2054,"##oup":2055,"##eas":2056,"##ction":2057,"##ake":2058,"po":2059,"state":2060,"will":2061,"est":2062,"##ists":2063,"alb":2064,"elect":2065,"air":2066,"sub":2067,"##ier":2068,"external":2069,"##ons":2070,"sing":2071,"##au":2072,"south":2073,"record":2074,"pop":2075,"links":2076,"found":2077,"##ev":2078,"##eral":2079,"so":2080,"##rap":2081,"##ily":2082,"##oth":2083,"inter":2084,"football":2085,"spec":2086,"high":2087,"city":2088,"more":2089,"##ious":2090,"him":2091,"##ep":2092,"states":2093,"born":2094,"##ork":2095,"trans":2096,"most":2097,"fam":2098,"##ank":2099,"season":2100,"##ince":2101,"form":2102,"bir":2103,"ret":2104,"##let":2105,"thr":2106,"##oci":2107,"##ife":2108,"prov":2109,"years":2110,"liv":2111,"##pr":2112,"##form":2113,"10":2114,"##hes":2115,"##ities":2116,"##ood":2117,"##ouse":2118,"nov":2119,"##att":2120,"imp":2121,"inst":2122,"only":2123,"second":2124,"qu":2125,"players":2126,"dire":2127,"def":2128,"where":2129,"some":2130,"##ative":2131,"16":2132,"north":2133,"##ph":2134,"##enn":2135,"str":2136,"##ina":2137,"##air":2138,"193":2139,"again":2140,"##emb":2141,"##rib":2142,"##vern":2143,"cap":2144,"cr":2145,"##ular":2146,"how":2147,"later":2148,"would":2149,"##ann":2150,"three":2151,"album":2152,"dep":2153,"group":2154,"##ollow":2155,"##son":2156,"music":2157,"##ween":2158,"end":2159,"met":2160,"between":2161,"ter":2162,"##ating":2163,"15":2164,"sm":2165,"##up":2166,"##lish":2167,"follow":2168,"govern":2169,"bar":2170,"rev":2171,"rem":2172,"song":2173,"##ement":2174,"about":2175,"mov":2176,"##ally":2177,"##ific":2178,"##ery":2179,"county":2180,"ge":2181,"##aus":2182,"##ri":2183,"through":2184,"compan":2185,"john":2186,"la":2187,"award":2188,"##res":2189,"##ograp":2190,"direct":2191,"##ys":2192,"num":2193,"ger":2194,"releas":2195,"aust":2196,"##lo":2197,"list":2198,"##iam":2199,"sur":2200,"inv":2201,"see":2202,"jun":2203,"op":2204,"writ":2205,"12":2206,"day":2207,"##enc":2208,"century":2209,"cre":2210,"sa":2211,"offic":2212,"192":2213,"then":2214,"history":2215,"##ague":2216,"series":2217,"them":2218,"lar":2219,"made":2220,"##rict":2221,"arm":2222,"set":2223,"bel":2224,"##ths":2225,"##hy":2226,"used":2227,"four":2228,"known":2229,"##itt":2230,"##ield":2231,"ann":2232,"oper":2233,"mod":2234,"intern":2235,"such":2236,"##are":2237,"##ss":2238,"while":2239,"commun":2240,"house":2241,"##ional":2242,"do":2243,"##ley":2244,"##ten":2245,"##0s":2246,"##fore":2247,"back":2248,"191":2249,"##und":2250,"##bs":2251,"call":2252,"brit":2253,"id":2254,"##gan":2255,"class":2256,"champ":2257,"##ident":2258,"sw":2259,"than":2260,"##velop":2261,"wom":2262,"beg":2263,"##ures":2264,"well":2265,"lead":2266,"##sp":2267,"jan":2268,"##erson":2269,"supp":2270,"town":2271,"##ket":2272,"prof":2273,"##oss":2274,"##ike":2275,"league":2276,"##ern":2277,"care":2278,"main":2279,"develop":2280,"tel":2281,"##ese":2282,"mat":2283,"##ower":2284,"death":2285,"11":2286,"##uss":2287,"##iew":2288,"many":2289,"##ins":2290,"polit":2291,"add":2292,"##ron":2293,"div":2294,"##ism":2295,"estab":2296,"aut":2297,"##its":2298,"west":2299,"##els":2300,"build":2301,"show":2302,"##ope":2303,"cor":2304,"har":2305,"mil":2306,"##til":2307,"became":2308,"##ounc":2309,"##ase":2310,"district":2311,"const":2312,"public":2313,"general":2314,"##ather":2315,"club":2316,"##ior":2317,"german":2318,"these":2319,"##erv":2320,"including":2321,"being":2322,"orig":2323,"ju":2324,"##ert":2325,"life":2326,"progr":2327,"international":2328,"##ise":2329,"desc":2330,"##ress":2331,"family":2332,"before":2333,"##ection":2334,"##ural":2335,"cal":2336,"##ourn":2337,"##iver":2338,"cur":2339,"##ai":2340,"em":2341,"both":2342,"##urch":2343,"##red":2344,"14":2345,"##ll":2346,"cro":2347,"##other":2348,"##fl":2349,"sl":2350,"13":2351,"im":2352,"##stem":2353,"rece":2354,"early":2355,"##orts":2356,"##ister":2357,"##ments":2358,"law":2359,"##ont":2360,"long":2361,"##co":2362,"design":2363,"living":2364,"colleg":2365,"sign":2366,"origin":2367,"austral":2368,"own":2369,"sim":2370,"york":2371,"##ning":2372,"open":2373,"##ever":2374,"against":2375,"king":2376,"cour":2377,"##ull":2378,"var":2379,"produc":2380,"films":2381,"##eng":2382,"system":2383,"##hen":2384,"red":2385,"##min":2386,"dem":2387,"british":2388,"game":2389,"run":2390,"miss":2391,"##ians":2392,"former":2393,"aug":2394,"organ":2395,"##ution":2396,"##ty":2397,"##ind":2398,"##ole":2399,"march":2400,"##ology":2401,"oct":2402,"av":2403,"since":2404,"number":2405,"champions":2406,"##ived":2407,"##ner":2408,"leg":2409,"vill":2410,"contr":2411,"##yp":2412,"val":2413,"lo":2414,"company":2415,"sever":2416,"associ":2417,"##amed":2418,"land":2419,"appear":2420,"##uary":2421,"sept":2422,"area":2423,"name":2424,"until":2425,"eur":2426,"##ained":2427,"##ae":2428,"chr":2429,"##ected":2430,"##ient":2431,"women":2432,"bus":2433,"however":2434,"##led":2435,"maj":2436,"##by":2437,"august":2438,"old":2439,"career":2440,"2010":2441,"ep":2442,"based":2443,"##inc":2444,"government":2445,"september":2446,"##iet":2447,"star":2448,"##ober":2449,"ext":2450,"child":2451,"##ized":2452,"##ene":2453,"##bo":2454,"educ":2455,"popul":2456,"##ott":2457,"##ash":2458,"october":2459,"arch":2460,"births":2461,"games":2462,"memb":2463,"port":2464,"feat":2465,"##elf":2466,"following":2467,"##ently":2468,"college":2469,"head":2470,"##ium":2471,"won":2472,"canad":2473,"january":2474,"released":2475,"program":2476,"english":2477,"##ke":2478,"align":2479,"dif":2480,"##ange":2481,"apr":2482,"played":2483,"##ains":2484,"june":2485,"members":2486,"##ute":2487,"mid":2488,"del":2489,"produ":2490,"conc":2491,"##bert":2492,"2011":2493,"##xt":2494,"##ved":2495,"mill":2496,"april":2497,"histor":2498,"pat":2499,"july":2500,"##ants":2501,"east":2502,"2008":2503,"band":2504,"major":2505,"##ages":2506,"best":2507,"center":2508,"##ruct":2509,"camp":2510,"mag":2511,"##ane":2512,"soc":2513,"##eter":2514,"several":2515,"person":2516,"##ital":2517,"sk":2518,"november":2519,"2009":2520,"2012":2521,"stre":2522,"called":2523,"000":2524,"##ets":2525,"profess":2526,"2006":2527,"##ually":2528,"2007":2529,"december":2530,"190":2531,"##ues":2532,"je":2533,"adv":2534,"rad":2535,"##ives":2536,"ii":2537,"tit":2538,"##por":2539,"##ined":2540,"sum":2541,"order":2542,"place":2543,"##ench":2544,"##br":2545,"mo":2546,"##ime":2547,"church":2548,"telev":2549,"##ause":2550,"near":2551,"##icip":2552,"rail":2553,"ec":2554,"21":2555,"##ble":2556,"championship":2557,"contin":2558,"start":2559,"##aces":2560,"##ject":2561,"phil":2562,"home":2563,"line":2564,"president":2565,"right":2566,"##osed":2567,"##yn":2568,"##ren":2569,"return":2570,"pass":2571,"##ful":2572,"2014":2573,"ent":2574,"2013":2575,"##ography":2576,"ra":2577,"europe":2578,"##ices":2579,"television":2580,"party":2581,"now":2582,"rom":2583,"vol":2584,"station":2585,"##yl":2586,"use":2587,"ever":2588,"che":2589,"you":2590,"member":2591,"##port":2592,"ob":2593,"hel":2594,"same":2595,"any":2596,"##row":2597,"left":2598,"##ove":2599,"compet":2600,"bre":2601,"wal":2602,"##apan":2603,"##ilt":2604,"official":2605,"thir":2606,"each":2607,"feb":2608,"tec":2609,"men":2610,"lang":2611,"##aking":2612,"tre":2613,"geor":2614,"##ark":2615,"##sc":2616,"manag":2617,"##lished":2618,"park":2619,"local":2620,"ang":2621,"##ator":2622,"just":2623,"prom":2624,"christ":2625,"##ired":2626,"repres":2627,"##aint":2628,"##ible":2629,"2015":2630,"japan":2631,"eff":2632,"189":2633,"gl":2634,"##ider":2635,"##ines":2636,"##ects":2637,"support":2638,"##ony":2639,"island":2640,"##ruary":2641,"february":2642,"##sh":2643,"final":2644,"resp":2645,"##ling":2646,"if":2647,"sen":2648,"25":2649,"##ek":2650,"river":2651,"##ief":2652,"down":2653,"top":2654,"pa":2655,"##ham":2656,"##ility":2657,"##hor":2658,"##ve":2659,"my":2660,"##ata":2661,"ir":2662,"2016":2663,"##ience":2664,"emp":2665,"##ung":2666,"french":2667,"mal":2668,"small":2669,"##ised":2670,"road":2671,"along":2672,"post":2673,"occ":2674,"sol":2675,"##yle":2676,"##ats":2677,"hum":2678,"mu":2679,"##aining":2680,"complet":2681,"service":2682,"far":2683,"batt":2684,"##ival":2685,"30":2686,"prot":2687,"ant":2688,"fac":2689,"##ama":2690,"##ided":2691,"##che":2692,"##ana":2693,"##ett":2694,"##ford":2695,"prev":2696,"like":2697,"named":2698,"##ms":2699,"##ured":2700,"##cept":2701,"sal":2702,"represent":2703,"located":2704,"ste":2705,"##ps":2706,"william":2707,"did":2708,"2005":2709,"##ode":2710,"great":2711,"established":2712,"present":2713,"vers":2714,"##ize":2715,"techn":2716,"##ret":2717,"mer":2718,"mount":2719,"began":2720,"disc":2721,"##ended":2722,"population":2723,"langu":2724,"book":2725,"##iness":2726,"curr":2727,"##ued":2728,"differ":2729,"black":2730,"stand":2731,"bi":2732,"##ison":2733,"power":2734,"##atic":2735,"pos":2736,"ital":2737,"arr":2738,"##ically":2739,"water":2740,"held":2741,"russ":2742,"age":2743,"son":2744,"##que":2745,"2017":2746,"six":2747,"describ":2748,"##ax":2749,"##augh":2750,"typ":2751,"lond":2752,"short":2753,"##itions":2754,"##lex":2755,"division":2756,"188":2757,"##onom":2758,"##uck":2759,"roy":2760,"##pl":2761,"depart":2762,"london":2763,"deb":2764,"##ino":2765,"last":2766,"##ipp":2767,"milit":2768,"appro":2769,"san":2770,"dav":2771,"##eal":2772,"##ster":2773,"super":2774,"##ays":2775,"lab":2776,"net":2777,"##get":2778,"##aster":2779,"afric":2780,"around":2781,"##ights":2782,"##acks":2783,"built":2784,"##ger":2785,"field":2786,"##ds":2787,"##rop":2788,"succ":2789,"nat":2790,"##adem":2791,"2004":2792,"single":2793,"##ought":2794,"instit":2795,"##hing":2796,"hand":2797,"cult":2798,"vis":2799,"tour":2800,"event":2801,"doc":2802,"fre":2803,"vict":2804,"cast":2805,"because":2806,"player":2807,"fur":2808,"cond":2809,"oly":2810,"hon":2811,"village":2812,"24":2813,"##aving":2814,"2018":2815,"mor":2816,"army":2817,"##bur":2818,"association":2819,"##me":2820,"due":2821,"success":2822,"five":2823,"engine":2824,"rest":2825,"olymp":2826,"resear":2827,"indian":2828,"youn":2829,"##cl":2830,"cup":2831,"took":2832,"stat":2833,"##ille":2834,"##ety":2835,"business":2836,"##app":2837,"third":2838,"2000":2839,"spe":2840,"##ne":2841,"died":2842,"##alth":2843,"species":2844,"hal":2845,"##ially":2846,"##idge":2847,"squ":2848,"building":2849,"##ech":2850,"published":2851,"education":2852,"counc":2853,"could":2854,"##raft":2855,"##ara":2856,"another":2857,"##ob":2858,"##ee":2859,"##ried":2860,"children":2861,"##ides":2862,"nort":2863,"##ards":2864,"##ission":2865,"##ars":2866,"vi":2867,"country":2868,"white":2869,"##aced":2870,"vide":2871,"central":2872,"di":2873,"rock":2874,"mun":2875,"served":2876,"km":2877,"non":2878,"##estern":2879,"##af":2880,"##omin":2881,"##ows":2882,"round":2883,"crit":2884,"within":2885,"##ified":2886,"academ":2887,"author":2888,"186":2889,"##ency":2890,"22":2891,"received":2892,"press":2893,"soci":2894,"##ately":2895,"##ored":2896,"li":2897,"##ring":2898,"pal":2899,"don":2900,"##gest":2901,"tem":2902,"##col":2903,"special":2904,"addition":2905,"bur":2906,"equ":2907,"ele":2908,"gold":2909,"du":2910,"accord":2911,"court":2912,"sports":2913,"military":2914,"##rod":2915,"mich":2916,"187":2917,"vir":2918,"##par":2919,"##akes":2920,"2003":2921,"ill":2922,"report":2923,"common":2924,"development":2925,"conv":2926,"enter":2927,"works":2928,"council":2929,"ins":2930,"##hol":2931,"23":2932,"large":2933,"grand":2934,"##acter":2935,"##cess":2936,"##aff":2937,"iss":2938,"uk":2939,"command":2940,"style":2941,"times":2942,"requ":2943,"journ":2944,"conf":2945,"fem":2946,"##ler":2947,"royal":2948,"##ization":2949,"##ani":2950,"##ka":2951,"giv":2952,"epis":2953,"##tt":2954,"kill":2955,"2002":2956,"nav":2957,"way":2958,"##umn":2959,"social":2960,"level":2961,"union":2962,"##gy":2963,"2019":2964,"include":2965,"trad":2966,"said":2967,"##ention":2968,"director":2969,"male":2970,"track":2971,"2001":2972,"ber":2973,"inf":2974,"alth":2975,"bill":2976,"conn":2977,"ke":2978,"hol":2979,"##ones":2980,"research":2981,"community":2982,"side":2983,"calif":2984,"although":2985,"##aim":2986,"real":2987,"among":2988,"republ":2989,"##ches":2990,"californ":2991,"##omet":2992,"language":2993,"read":2994,"##oks":2995,"det":2996,"##ma":2997,"que":2998,"roman":2999,"turn":3000,"what":3001,"england":3002,"##iod":3003,"base":3004,"opp":3005,"still":3006,"sel":3007,"california":3008,"rich":3009,"australia":3010,"exper":3011,"original":3012,"even":3013,"lat":3014,"according":3015,"##lin":3016,"##day":3017,"mc":3018,"perform":3019,"father":3020,"activ":3021,"street":3022,"further":3023,"capt":3024,"broad":3025,"ship":3026,"video":3027,"##rip":3028,"##ument":3029,"100":3030,"aff":3031,"described":3032,"railway":3033,"every":3034,"those":3035,"deaths":3036,"##med":3037,"muse":3038,"prim":3039,"lim":3040,"cy":3041,"different":3042,"##na":3043,"western":3044,"##ration":3045,"cam":3046,"republic":3047,"included":3048,"26":3049,"sil":3050,"econom":3051,"result":3052,"tur":3053,"eas":3054,"political":3055,"very":3056,"cle":3057,"consider":3058,"summer":3059,"period":3060,"##ody":3061,"ap":3062,"led":3063,"lit":3064,"tot":3065,"radio":3066,"department":3067,"##ica":3068,"fed":3069,"songs":3070,"civ":3071,"sev":3072,"28":3073,"27":3074,"story":3075,"##osp":3076,"point":3077,"repl":3078,"hall":3079,"production":3080,"incre":3081,"museum":3082,"mass":3083,"cross":3084,"sold":3085,"records":3086,"late":3087,"##ky":3088,"##oint":3089,"million":3090,"##ico":3091,"ref":3092,"grad":3093,"site":3094,"pur":3095,"places":3096,"mot":3097,"character":3098,"good":3099,"dev":3100,"##ki":3101,"##ha":3102,"##line":3103,"inform":3104,"fact":3105,"james":3106,"##uct":3107,"make":3108,"##ness":3109,"##omb":3110,"often":3111,"society":3112,"france":3113,"##ament":3114,"##oy":3115,"sett":3116,"australian":3117,"indust":3118,"fun":3119,"##ius":3120,"##work":3121,"dou":3122,"election":3123,"##loy":3124,"produced":3125,"region":3126,"stor":3127,"er":3128,"init":3129,"1999":3130,"india":3131,"##hel":3132,"title":3133,"fri":3134,"##ries":3135,"chang":3136,"jud":3137,"##ively":3138,"mart":3139,"wr":3140,"thom":3141,"lou":3142,"help":3143,"young":3144,"medal":3145,"office":3146,"185":3147,"##ges":3148,"##ecut":3149,"written":3150,"george":3151,"awards":3152,"##amb":3153,"previous":3154,"week":3155,"##ald":3156,"##ted":3157,"##lic":3158,"##hern":3159,"rout":3160,"moved":3161,"qual":3162,"der":3163,"brother":3164,"perfor":3165,"##ops":3166,"mark":3167,"admin":3168,"announc":3169,"free":3170,"franc":3171,"much":3172,"albums":3173,"poss":3174,"hy":3175,"den":3176,"##umb":3177,"services":3178,"mur":3179,"##ruction":3180,"hig":3181,"##ney":3182,"paul":3183,"force":3184,"civil":3185,"##itar":3186,"live":3187,"canada":3188,"cover":3189,"##ying":3190,"##irc":3191,"struct":3192,"webs":3193,"29":3194,"##dom":3195,"##ots":3196,"import":3197,"america":3198,"david":3199,"##field":3200,"friend":3201,"human":3202,"professional":3203,"sour":3204,"mem":3205,"1998":3206,"european":3207,"green":3208,"establish":3209,"role":3210,"##gin":3211,"surv":3212,"##epend":3213,"##fe":3214,"project":3215,"hill":3216,"arg":3217,"total":3218,"##ming":3219,"vot":3220,"sit":3221,"##ances":3222,"##ship":3223,"board":3224,"independ":3225,"process":3226,"prop":3227,"##ena":3228,"##ania":3229,"##ched":3230,"ver":3231,"##uel":3232,"##ael":3233,"northern":3234,"version":3235,"canadian":3236,"debut":3237,"cas":3238,"review":3239,"given":3240,"light":3241,"politic":3242,"##ink":3243,"lib":3244,"##ature":3245,"science":3246,"ten":3247,"flor":3248,"invol":3249,"##anish":3250,"students":3251,"next":3252,"##ners":3253,"##li":3254,"beh":3255,"tal":3256,"came":3257,"##ville":3258,"pet":3259,"municip":3260,"various":3261,"host":3262,"promot":3263,"performan":3264,"created":3265,"los":3266,"##ilar":3267,"full":3268,"##ves":3269,"##ript":3270,"ham":3271,"##acy":3272,"health":3273,"##wards":3274,"using":3275,"journal":3276,"gir":3277,"municipal":3278,"having":3279,"##ground":3280,"modern":3281,"take":3282,"mult":3283,"tv":3284,"1996":3285,"gener":3286,"##ago":3287,"##itor":3288,"website":3289,"fest":3290,"allow":3291,"##ged":3292,"vo":3293,"popular":3294,"commission":3295,"##ints":3296,"went":3297,"##ocr":3298,"fire":3299,"administ":3300,"circ":3301,"##ced":3302,"1997":3303,"wood":3304,"et":3305,"##ribut":3306,"31":3307,"voc":3308,"comb":3309,"bg":3310,"##side":3311,"started":3312,"introd":3313,"invest":3314,"##iment":3315,"space":3316,"married":3317,"love":3318,"infl":3319,"expl":3320,"##ograph":3321,"robert":3322,"minister":3323,"##ults":3324,"chief":3325,"##color":3326,"priv":3327,"##20":3328,"##xim":3329,"souther":3330,"##rew":3331,"##raw":3332,"control":3333,"mad":3334,"##hib":3335,"##isc":3336,"germany":3337,"##ya":3338,"examp":3339,"test":3340,"books":3341,"bgcolor":3342,"mex":3343,"sent":3344,"princ":3345,"kingdom":3346,"lost":3347,"phys":3348,"appoint":3349,"events":3350,"commit":3351,"big":3352,"need":3353,"50":3354,"southern":3355,"##reek":3356,"tex":3357,"phot":3358,"similar":3359,"archit":3360,"market":3361,"prem":3362,"sem":3363,"##ady":3364,"##nd":3365,"hen":3366,"defe":3367,"##ological":3368,"##han":3369,"secret":3370,"fund":3371,"##ivid":3372,"##uk":3373,"schools":3374,"become":3375,"trav":3376,"184":3377,"low":3378,"half":3379,"##esh":3380,"hous":3381,"##burg":3382,"bal":3383,"sam":3384,"mel":3385,"fall":3386,"battle":3387,"##ross":3388,"sat":3389,"few":3390,"1995":3391,"##ared":3392,"dam":3393,"bank":3394,"ball":3395,"announced":3396,"ur":3397,"anim":3398,"sound":3399,"without":3400,"mac":3401,"race":3402,"##ased":3403,"match":3404,"claim":3405,"sn":3406,"japanese":3407,"personal":3408,"##iction":3409,"alumn":3410,"hor":3411,"kar":3412,"##ators":3413,"pract":3414,"pan":3415,"mary":3416,"1994":3417,"##uced":3418,"jose":3419,"1992":3420,"tro":3421,"individ":3422,"tom":3423,"tor":3424,"cop":3425,"historic":3426,"##bor":3427,"dest":3428,"enc":3429,"teams":3430,"ath":3431,"night":3432,"##ours":3433,"##ida":3434,"view":3435,"wil":3436,"days":3437,"founded":3438,"litt":3439,"hot":3440,"paint":3441,"##mar":3442,"##ising":3443,"italian":3444,"buildings":3445,"##olution":3446,"##ached":3447,"##ogn":3448,"proper":3449,"##dle":3450,"##rote":3451,"province":3452,"compos":3453,"coach":3454,"##be":3455,"alumni":3456,"cost":3457,"##hers":3458,"##oph":3459,"##itz":3460,"position":3461,"worked":3462,"##gar":3463,"##imin":3464,"artic":3465,"joined":3466,"information":3467,"gar":3468,"china":3469,"police":3470,"##ca":3471,"##aken":3472,"washing":3473,"attack":3474,"partic":3475,"pap":3476,"dut":3477,"##ering":3478,"##cast":3479,"individual":3480,"particip":3481,"magaz":3482,"jew":3483,"though":3484,"opened":3485,"constit":3486,"lu":3487,"assist":3488,"##cer":3489,"##ption":3490,"aver":3491,"fell":3492,"20th":3493,"guitar":3494,"##ape":3495,"toget":3496,"##den":3497,"together":3498,"democr":3499,"lake":3500,"rob":3501,"sun":3502,"##wood":3503,"ident":3504,"artist":3505,"bay":3506,"1993":3507,"girl":3508,"washington":3509,"little":3510,"release":3511,"media":3512,"scott":3513,"wrote":3514,"angel":3515,"news":3516,"mother":3517,"returned":3518,"hold":3519,"##mon":3520,"plan":3521,"##ze":3522,"key":3523,"daugh":3524,"theat":3525,"##eth":3526,"arts":3527,"ve":3528,"thomas":3529,"rac":3530,"recorded":3531,"front":3532,"parl":3533,"deg":3534,"never":3535,"ru":3536,"relations":3537,"less":3538,"coast":3539,"40":3540,"##ense":3541,"notes":3542,"##ests":3543,"##lement":3544,"liter":3545,"tradition":3546,"##ij":3547,"chin":3548,"1991":3549,"1990":3550,"##ele":3551,"institute":3552,"wat":3553,"fort":3554,"##anch":3555,"##hod":3556,"##arch":3557,"##rov":3558,"alex":3559,"case":3560,"##sequ":3561,"charles":3562,"basket":3563,"groups":3564,"gun":3565,"athlet":3566,"russian":3567,"elected":3568,"ground":3569,"transport":3570,"attem":3571,"areas":3572,"committe":3573,"ps":3574,"ren":3575,"wall":3576,"ben":3577,"directed":3578,"novel":3579,"183":3580,"##ending":3581,"heav":3582,"footballers":3583,"god":3584,"##berg":3585,"architect":3586,"stage":3587,"gall":3588,"eastern":3589,"points":3590,"parliam":3591,"##pe":3592,"victor":3593,"making":3594,"##ano":3595,"##reg":3596,"##yr":3597,"wife":3598,"mic":3599,"aud":3600,"##str":3601,"grow":3602,"##ective":3603,"episode":3604,"louis":3605,"companies":3606,"cathol":3607,"relig":3608,"somet":3609,"academy":3610,"##iers":3611,"##hem":3612,"gradu":3613,"penn":3614,"data":3615,"fight":3616,"influ":3617,"tourn":3618,"term":3619,"meet":3620,"michael":3621,"##ification":3622,"parliament":3623,"mix":3624,"fa":3625,"fif":3626,"wind":3627,"##rug":3628,"viol":3629,"brown":3630,"##ari":3631,"playing":3632,"execut":3633,"##unt":3634,"continued":3635,"working":3636,"##ple":3637,"hosp":3638,"##craft":3639,"##aign":3640,"forces":3641,"confer":3642,"virgin":3643,"once":3644,"african":3645,"chair":3646,"sus":3647,"completed":3648,"birth":3649,"laun":3650,"current":3651,"mater":3652,"text":3653,"esp":3654,"##nes":3655,"rul":3656,"female":3657,"##aj":3658,"festival":3659,"libr":3660,"pers":3661,"considered":3662,"##ona":3663,"caus":3664,"body":3665,"mont":3666,"env":3667,"##isl":3668,"step":3669,"important":3670,"hard":3671,"others":3672,"##ender":3673,"cit":3674,"basketball":3675,"obs":3676,"1989":3677,"eight":3678,"cens":3679,"##urs":3680,"christian":3681,"treat":3682,"centre":3683,"sea":3684,"cert":3685,"1988":3686,"results":3687,"tax":3688,"type":3689,"background":3690,"route":3691,"##iev":3692,"ul":3693,"network":3694,"developed":3695,"hom":3696,"campaign":3697,"construction":3698,"olympics":3699,"##cover":3700,"begin":3701,"##ker":3702,"##uf":3703,"ho":3704,"avail":3705,"performance":3706,"appointed":3707,"originally":3708,"##ban":3709,"rank":3710,"middle":3711,"particular":3712,"##aves":3713,"frank":3714,"fail":3715,"##used":3716,"##ishing":3717,"paris":3718,"should":3719,"does":3720,"register":3721,"ol":3722,"seven":3723,"appeared":3724,"##gress":3725,"committee":3726,"ach":3727,"##ked":3728,"##aged":3729,"spanish":3730,"fore":3731,"formed":3732,"model":3733,"training":3734,"signed":3735,"commer":3736,"pit":3737,"fer":3738,"pen":3739,"put":3740,"##ota":3741,"must":3742,"##idence":3743,"##ta":3744,"##ique":3745,"strong":3746,"##iding":3747,"##ned":3748,"##ids":3749,"peter":3750,"##oming":3751,"employ":3752,"##idae":3753,"exist":3754,"express":3755,"aircraft":3756,"pot":3757,"offer":3758,"trib":3759,"colon":3760,"texas":3761,"##odes":3762,"chinese":3763,"recogn":3764,"example":3765,"##ump":3766,"##hi":3767,"tar":3768,"##ams":3769,"reb":3770,"##ements":3771,"##bc":3772,"access":3773,"squad":3774,"upon":3775,"richard":3776,"ly":3777,"federal":3778,"##wor":3779,"carol":3780,"##ili":3781,"##self":3782,"##ula":3783,"##iron":3784,"interv":3785,"##go":3786,"africa":3787,"##ither":3788,"cand":3789,"##ably":3790,"catholic":3791,"rights":3792,"past":3793,"mr":3794,"average":3795,"himself":3796,"bud":3797,"dig":3798,"##aker":3799,"color":3800,"studies":3801,"artists":3802,"1987":3803,"stations":3804,"##ead":3805,"##iff":3806,"##itive":3807,"##imes":3808,"anal":3809,"desp":3810,"##ested":3811,"van":3812,"ire":3813,"liber":3814,"away":3815,"kore":3816,"bul":3817,"earl":3818,"chann":3819,"assemb":3820,"##omp":3821,"chap":3822,"saint":3823,"##of":3824,"regular":3825,"signific":3826,"1986":3827,"daughter":3828,"zeal":3829,"ven":3830,"nar":3831,"singles":3832,"unc":3833,"reported":3834,"##ba":3835,"##itted":3836,"ireland":3837,"mean":3838,"1984":3839,"##tain":3840,"census":3841,"available":3842,"cell":3843,"private":3844,"sex":3845,"currently":3846,"##ston":3847,"ox":3848,"musical":3849,"polic":3850,"henry":3851,"get":3852,"card":3853,"technology":3854,"##ex":3855,"##ector":3856,"##ensive":3857,"##nel":3858,"magazine":3859,"zealand":3860,"corn":3861,"ha":3862,"fut":3863,"plant":3864,"hit":3865,"championships":3866,"##ris":3867,"culture":3868,"##ieved":3869,"study":3870,"environ":3871,"smith":3872,"##ander":3873,"across":3874,"separ":3875,"foc":3876,"chic":3877,"swed":3878,"##hold":3879,"##jects":3880,"##tr":3881,"##ength":3882,"tournament":3883,"cho":3884,"##enth":3885,"anc":3886,"##har":3887,"medical":3888,"francis":3889,"1985":3890,"syn":3891,"cric":3892,"##aries":3893,"##off":3894,"action":3895,"##wer":3896,"actress":3897,"reserv":3898,"##edy":3899,"##uter":3900,"method":3901,"transl":3902,"##omm":3903,"let":3904,"##uit":3905,"mos":3906,"range":3907,"conserv":3908,"blue":3909,"material":3910,"natural":3911,"professor":3912,"bor":3913,"sant":3914,"throughout":3915,"capital":3916,"bish":3917,"1980":3918,"##ceed":3919,"##ways":3920,"##oor":3921,"features":3922,"goal":3923,"conference":3924,"find":3925,"##ume":3926,"##ii":3927,"successful":3928,"management":3929,"section":3930,"hospital":3931,"sand":3932,"scient":3933,"writers":3934,"agre":3935,"performed":3936,"governor":3937,"baseball":3938,"theatre":3939,"##iving":3940,"##iec":3941,"know":3942,"##atives":3943,"sir":3944,"bord":3945,"35":3946,"##ado":3947,"fig":3948,"staff":3949,"lear":3950,"bow":3951,"independent":3952,"##asc":3953,"##rael":3954,"cricket":3955,"gard":3956,"acqu":3957,"##less":3958,"fle":3959,"includes":3960,"hu":3961,"##iple":3962,"1983":3963,"quar":3964,"master":3965,"##atory":3966,"##ita":3967,"designed":3968,"singer":3969,"ca":3970,"##ract":3971,"##ini":3972,"##ergy":3973,"##oviet":3974,"##olf":3975,"neg":3976,"##ala":3977,"discover":3978,"contract":3979,"despite":3980,"##ada":3981,"legisl":3982,"proble":3983,"scre":3984,"##ych":3985,"taken":3986,"##de":3987,"##uation":3988,"##tor":3989,"##ift":3990,"1982":3991,"israel":3992,"pay":3993,"kh":3994,"eventually":3995,"killed":3996,"##ential":3997,"##ware":3998,"##hic":3999,"##lands":4000,"##oms":4001,"##ella":4002,"turk":4003,"poet":4004,"competition":4005,"conduct":4006,"##oon":4007,"bat":4008,"##aps":4009,"##iation":4010,"studio":4011,"congress":4012,"plat":4013,"181":4014,"##rain":4015,"inj":4016,"territ":4017,"##utes":4018,"largest":4019,"broadcast":4020,"library":4021,"oh":4022,"lower":4023,"say":4024,"fourth":4025,"1st":4026,"peak":4027,"box":4028,"sho":4029,"virginia":4030,"leaders":4031,"soviet":4032,"##my":4033,"bridge":4034,"bad":4035,"##iting":4036,"exc":4037,"listed":4038,"##ude":4039,"senior":4040,"eth":4041,"months":4042,"##ockey":4043,"related":4044,"environment":4045,"rug":4046,"shar":4047,"pun":4048,"##men":4049,"document":4050,"perc":4051,"food":4052,"foreign":4053,"navy":4054,"subsequ":4055,"1979":4056,"olympic":4057,"braz":4058,"cut":4059,"##ections":4060,"nomin":4061,"exhib":4062,"leading":4063,"mexico":4064,"##elling":4065,"writer":4066,"##istry":4067,"gave":4068,"pac":4069,"famil":4070,"movement":4071,"featured":4072,"dom":4073,"systems":4074,"officer":4075,"##ilities":4076,"##ened":4077,"edition":4078,"alm":4079,"wid":4080,"##za":4081,"georg":4082,"##ination":4083,"##band":4084,"##eder":4085,"followed":4086,"attempt":4087,"organization":4088,"##anted":4089,"finished":4090,"##ura":4091,"##idents":4092,"chicago":4093,"##ush":4094,"collection":4095,"glo":4096,"##istan":4097,"loss":4098,"sug":4099,"lord":4100,"scot":4101,"esc":4102,"primary":4103,"##ylv":4104,"1981":4105,"actor":4106,"45":4107,"##ems":4108,"ran":4109,"##igan":4110,"seen":4111,"valley":4112,"##apt":4113,"change":4114,"awarded":4115,"iv":4116,"mission":4117,"1972":4118,"draw":4119,"atl":4120,"earth":4121,"anti":4122,"##ror":4123,"today":4124,"row":4125,"decl":4126,"##ola":4127,"winning":4128,"saw":4129,"##aut":4130,"1976":4131,"usually":4132,"kr":4133,"commerc":4134,"mountain":4135,"vocals":4136,"##airs":4137,"ban":4138,"tenn":4139,"prior":4140,"respons":4141,"##ylvania":4142,"standard":4143,"politician":4144,"##hood":4145,"drum":4146,"significant":4147,"via":4148,"sar":4149,"brazil":4150,"##roy":4151,"##rd":4152,"families":4153,"leader":4154,"insp":4155,"minor":4156,"corpor":4157,"shows":4158,"1978":4159,"instead":4160,"countries":4161,"industry":4162,"##enced":4163,"fav":4164,"##ession":4165,"italy":4166,"adm":4167,"irish":4168,"##king":4169,"imm":4170,"web":4171,"assembly":4172,"financ":4173,"##oma":4174,"above":4175,"182":4176,"consist":4177,"##9e":4178,"1974":4179,"regional":4180,"inn":4181,"rap":4182,"close":4183,"woman":4184,"bass":4185,"remained":4186,"soft":4187,"##bal":4188,"notable":4189,"##la":4190,"gro":4191,"##rated":4192,"##iate":4193,"interest":4194,"introduced":4195,"penns":4196,"transfer":4197,"establishments":4198,"brand":4199,"##over":4200,"candid":4201,"32":4202,"units":4203,"##to":4204,"historical":4205,"reading":4206,"##pre":4207,"ros":4208,"1975":4209,"stev":4210,"##stand":4211,"producer":4212,"1968":4213,"sport":4214,"##aches":4215,"##gen":4216,"thus":4217,"1970":4218,"mach":4219,"schol":4220,"organiz":4221,"amb":4222,"##erous":4223,"##ales":4224,"##ym":4225,"##hire":4226,"cred":4227,"secur":4228,"1977":4229,"pennsylvania":4230,"hockey":4231,"entire":4232,"deal":4233,"critic":4234,"unit":4235,"ord":4236,"##ios":4237,"coup":4238,"emer":4239,"florida":4240,"martin":4241,"charact":4242,"able":4243,"characters":4244,"neigh":4245,"boy":4246,"trade":4247,"either":4248,"##olk":4249,"speed":4250,"##play":4251,"gal":4252,"##ien":4253,"##ufact":4254,"clos":4255,"##era":4256,"size":4257,"hung":4258,"empire":4259,"operations":4260,"manufact":4261,"involved":4262,"memor":4263,"meas":4264,"plann":4265,"ov":4266,"pil":4267,"##imate":4268,"##ria":4269,"1973":4270,"added":4271,"degree":4272,"jack":4273,"writing":4274,"columb":4275,"##ny":4276,"approxim":4277,"1945":4278,"wild":4279,"rugby":4280,"channel":4281,"19th":4282,"##ette":4283,"surr":4284,"##aur":4285,"month":4286,"##ray":4287,"fly":4288,"deter":4289,"##istics":4290,"log":4291,"##ox":4292,"cd":4293,"joseph":4294,"future":4295,"##orpor":4296,"occup":4297,"replaced":4298,"os":4299,"native":4300,"##icated":4301,"economic":4302,"1971":4303,"energy":4304,"chart":4305,"##iano":4306,"soon":4307,"##ability":4308,"wales":4309,"look":4310,"matt":4311,"##sel":4312,"break":4313,"##ye":4314,"honor":4315,"##well":4316,"angeles":4317,"come":4318,"chall":4319,"prison":4320,"least":4321,"##iences":4322,"commercial":4323,"contribut":4324,"product":4325,"36":4326,"foundation":4327,"##ican":4328,"ice":4329,"silver":4330,"township":4331,"dar":4332,"da":4333,"##agon":4334,"180":4335,"spring":4336,"##ends":4337,"##ga":4338,"quarter":4339,"sources":4340,"investig":4341,"1969":4342,"##west":4343,"observ":4344,"student":4345,"cer":4346,"captain":4347,"##head":4348,"manager":4349,"##ites":4350,"scored":4351,"provided":4352,"hus":4353,"score":4354,"##ulty":4355,"##cher":4356,"drama":4357,"##igned":4358,"self":4359,"psych":4360,"wing":4361,"arab":4362,"fc":4363,"municipality":4364,"previously":4365,"##hest":4366,"##ribution":4367,"fair":4368,"##oke":4369,"##aching":4370,"##ck":4371,"missing":4372,"domin":4373,"60":4374,"##porary":4375,"33":4376,"pred":4377,"##atri":4378,"jim":4379,"heart":4380,"travel":4381,"higher":4382,"##ades":4383,"##iana":4384,"lie":4385,"##abor":4386,"stad":4387,"les":4388,"airport":4389,"rather":4390,"500":4391,"##uction":4392,"islands":4393,"seasons":4394,"##ises":4395,"owned":4396,"##eration":4397,"operation":4398,"selected":4399,"greek":4400,"secretary":4401,"effect":4402,"coun":4403,"date":4404,"cab":4405,"editor":4406,"stop":4407,"##tic":4408,"##face":4409,"carolina":4410,"scor":4411,"plays":4412,"queen":4413,"##people":4414,"atlant":4415,"##yan":4416,"premier":4417,"beginning":4418,"1967":4419,"behind":4420,"page":4421,"##ees":4422,"russia":4423,"haw":4424,"##tar":4425,"newsp":4426,"nec":4427,"executive":4428,"limited":4429,"princip":4430,"rural":4431,"newspap":4432,"occur":4433,"youth":4434,"outside":4435,"parts":4436,"jer":4437,"additional":4438,"active":4439,"placed":4440,"almost":4441,"stated":4442,"square":4443,"quest":4444,"security":4445,"train":4446,"##ko":4447,"##ription":4448,"1964":4449,"sym":4450,"our":4451,"here":4452,"chem":4453,"household":4454,"##rian":4455,"##pper":4456,"cultural":4457,"applic":4458,"tun":4459,"cele":4460,"gh":4461,"money":4462,"##ients":4463,"structure":4464,"179":4465,"##mal":4466,"si":4467,"pu":4468,"dark":4469,"bab":4470,"winter":4471,"complex":4472,"below":4473,"reason":4474,"whose":4475,"##lor":4476,"communic":4477,"##board":4478,"65":4479,"engineering":4480,"function":4481,"forest":4482,"##arian":4483,"##kn":4484,"##istic":4485,"reached":4486,"##writ":4487,"screen":4488,"too":4489,"got":4490,"provide":4491,"dyn":4492,"traditional":4493,"spir":4494,"dutch":4495,"2nd":4496,"interview":4497,"frequ":4498,"shot":4499,"es":4500,"prince":4501,"carl":4502,"diff":4503,"##lam":4504,"administr":4505,"##azz":4506,"##ffer":4507,"relationship":4508,"1966":4509,"sometimes":4510,"1965":4511,"##road":4512,"##ask":4513,"ess":4514,"hur":4515,"pict":4516,"regard":4517,"vehic":4518,"names":4519,"pak":4520,"spain":4521,"annual":4522,"##ja":4523,"ray":4524,"altern":4525,"strat":4526,"ships":4527,"anth":4528,"bishop":4529,"goals":4530,"decided":4531,"dead":4532,"democratic":4533,"guard":4534,"purch":4535,"except":4536,"programs":4537,"##arily":4538,"stone":4539,"##ste":4540,"cust":4541,"accept":4542,"legal":4543,"1960":4544,"##iro":4545,"##ersey":4546,"##ero":4547,"farm":4548,"##ips":4549,"value":4550,"mir":4551,"philos":4552,"##oles":4553,"philipp":4554,"prize":4555,"##ua":4556,"jewish":4557,"defeated":4558,"iran":4559,"length":4560,"34":4561,"bell":4562,"approximately":4563,"revolution":4564,"##abit":4565,"labor":4566,"possible":4567,"jul":4568,"##heast":4569,"ram":4570,"location":4571,"teac":4572,"elections":4573,"##back":4574,"##da":4575,"regiment":4576,"##ansas":4577,"prime":4578,"thre":4579,"##bridge":4580,"hop":4581,"##uments":4582,"expatri":4583,"scottish":4584,"wa":4585,"asian":4586,"instr":4587,"lee":4588,"luc":4589,"religious":4590,"running":4591,"##rial":4592,"21st":4593,"disp":4594,"##here":4595,"burn":4596,"ast":4597,"course":4598,"runs":4599,"oppos":4600,"##ension":4601,"destroy":4602,"##wa":4603,"az":4604,"cities":4605,"attended":4606,"##ingu":4607,"biography":4608,"##ols":4609,"taking":4610,"policy":4611,"dre":4612,"electric":4613,"espec":4614,"houses":4615,"##ques":4616,"contem":4617,"brig":4618,"bon":4619,"bib":4620,"tou":4621,"face":4622,"##ipl":4623,"brought":4624,"bomb":4625,"personnel":4626,"happ":4627,"mcc":4628,"dro":4629,"##uce":4630,"##ulation":4631,"##d6":4632,"dance":4633,"fel":4634,"dun":4635,"##ken":4636,"lived":4637,"abs":4638,"##ias":4639,"genus":4640,"##iger":4641,"administration":4642,"ok":4643,"##ador":4644,"complete":4645,"movie":4646,"closed":4647,"heavy":4648,"edward":4649,"property":4650,"especially":4651,"seat":4652,"lay":4653,"##ati":4654,"source":4655,"highest":4656,"und":4657,"##ims":4658,"clear":4659,"fiction":4660,"##ronic":4661,"wide":4662,"termin":4663,"bron":4664,"online":4665,"associated":4666,"##shire":4667,"stock":4668,"bob":4669,"note":4670,"lik":4671,"towards":4672,"highway":4673,"ohio":4674,"theory":4675,"##asing":4676,"changed":4677,"jersey":4678,"##atch":4679,"##utions":4680,"##wan":4681,"nine":4682,"concern":4683,"##mond":4684,"##ining":4685,"elev":4686,"00":4687,"champion":4688,"pacific":4689,"##ental":4690,"iii":4691,"ens":4692,"1963":4693,"initially":4694,"construct":4695,"ko":4696,"1944":4697,"article":4698,"44":4699,"stadium":4700,"intell":4701,"1962":4702,"financial":4703,"celebr":4704,"issue":4705,"ut":4706,"generally":4707,"gallery":4708,"issues":4709,"roll":4710,"##ters":4711,"footballer":4712,"##ting":4713,"##anda":4714,"keep":4715,"##ule":4716,"sav":4717,"##ories":4718,"room":4719,"michigan":4720,"38":4721,"justice":4722,"computer":4723,"castle":4724,"opening":4725,"block":4726,"matches":4727,"feature":4728,"##riage":4729,"launched":4730,"comedy":4731,"lines":4732,"overall":4733,"mech":4734,"##inal":4735,"##inn":4736,"wrest":4737,"emb":4738,"junior":4739,"##iel":4740,"kent":4741,"practice":4742,"variet":4743,"piec":4744,"rang":4745,"oil":4746,"##elled":4747,"##ington":4748,"##ea":4749,"purp":4750,"opt":4751,"itself":4752,"doctor":4753,"focus":4754,"tracks":4755,"recording":4756,"albert":4757,"border":4758,"represented":4759,"##yc":4760,"37":4761,"##rick":4762,"##enue":4763,"integ":4764,"##uth":4765,"murder":4766,"htt":4767,"##ux":4768,"portug":4769,"agric":4770,"word":4771,"##cel":4772,"ak":4773,"##ef":4774,"allowed":4775,"ended":4776,"better":4777,"faculty":4778,"prob":4779,"##itors":4780,"victory":4781,"certain":4782,"activities":4783,"susp":4784,"specific":4785,"means":4786,"##overs":4787,"digital":4788,"sister":4789,"##outh":4790,"##ato":4791,"whom":4792,"famous":4793,"##gl":4794,"scotland":4795,"saf":4796,"reform":4797,"poland":4798,"assistant":4799,"remov":4800,"required":4801,"ott":4802,"##50":4803,"winner":4804,"corps":4805,"nature":4806,"agricult":4807,"ancient":4808,"gas":4809,"1961":4810,"argent":4811,"lic":4812,"##iga":4813,"##ibility":4814,"stan":4815,"motor":4816,"bost":4817,"##itch":4818,"survey":4819,"rh":4820,"respect":4821,"nations":4822,"stars":4823,"##use":4824,"##asion":4825,"chairman":4826,"80":4827,"1942":4828,"medic":4829,"villages":4830,"##awa":4831,"jac":4832,"account":4833,"##inois":4834,"beat":4835,"##igr":4836,"earlier":4837,"contains":4838,"##gn":4839,"##anced":4840,"##etts":4841,"suggest":4842,"##tim":4843,"1956":4844,"##omes":4845,"##bury":4846,"uses":4847,"literature":4848,"illinois":4849,"##usion":4850,"trust":4851,"sched":4852,"polish":4853,"sportspeople":4854,"decision":4855,"subst":4856,"##achus":4857,"ash":4858,"parish":4859,"peace":4860,"citiz":4861,"mechan":4862,"##ails":4863,"##mit":4864,"##inet":4865,"1948":4866,"connect":4867,"adop":4868,"towns":4869,"od":4870,"politicians":4871,"pow":4872,"tell":4873,"bound":4874,"jones":4875,"##bi":4876,"##inct":4877,"orche":4878,"upper":4879,"expatriate":4880,"clubs":4881,"1958":4882,"architecture":4883,"columbia":4884,"income":4885,"1959":4886,"appearance":4887,"##isions":4888,"##bers":4889,"surround":4890,"tam":4891,"blood":4892,"move":4893,"##ties":4894,"spent":4895,"voice":4896,"communities":4897,"##rison":4898,"temple":4899,"trial":4900,"noted":4901,"micro":4902,"##eds":4903,"nick":4904,"boston":4905,"numerous":4906,"britain":4907,"actors":4908,"structures":4909,"changes":4910,"winners":4911,"##mann":4912,"infant":4913,"1943":4914,"ded":4915,"your":4916,"era":4917,"bene":4918,"nation":4919,"41":4920,"asia":4921,"ww":4922,"georgia":4923,"organizations":4924,"commander":4925,"##ped":4926,"pain":4927,"ba":4928,"##ify":4929,"##war":4930,"mob":4931,"husband":4932,"1939":4933,"ta":4934,"draft":4935,"hours":4936,"rod":4937,"retired":4938,"cases":4939,"rat":4940,"##oo":4941,"going":4942,"collabor":4943,"shoot":4944,"massachus":4945,"double":4946,"ful":4947,"##bon":4948,"massachusetts":4949,"code":4950,"1957":4951,"officers":4952,"1940":4953,"thought":4954,"cann":4955,"older":4956,"##ram":4957,"##iance":4958,"1941":4959,"##aught":4960,"cz":4961,"##ready":4962,"2020":4963,"70":4964,"belg":4965,"mayor":4966,"42":4967,"autom":4968,"1950":4969,"friends":4970,"abb":4971,"sequ":4972,"1946":4973,"bern":4974,"##change":4975,"##action":4976,"charl":4977,"entertain":4978,"harv":4979,"deep":4980,"creek":4981,"##burgh":4982,"give":4983,"##rey":4984,"print":4985,"##orporated":4986,"operated":4987,"oxford":4988,"##tained":4989,"seg":4990,"williams":4991,"entered":4992,"arrang":4993,"flight":4994,"suffer":4995,"progress":4996,"90":4997,"status":4998,"already":4999,"expand":5000,"twent":5001,"attract":5002,"mol":5003,"##orm":5004,"catal":5005,"1952":5006,"terms":5007,"anton":5008,"indic":5009,"finally":5010,"39":5011,"mathem":5012,"diffic":5013,"cin":5014,"##ila":5015,"mand":5016,"vice":5017,"percent":5018,"178":5019,"##une":5020,"1955":5021,"musicians":5022,"majority":5023,"immed":5024,"ce":5025,"ukrain":5026,"academic":5027,"concert":5028,"branch":5029,"##rect":5030,"mess":5031,"starting":5032,"jean":5033,"bang":5034,"flow":5035,"adj":5036,"jr":5037,"sab":5038,"path":5039,"##tered":5040,"1947":5041,"##ros":5042,"stories":5043,"subsequently":5044,"memorial":5045,"global":5046,"sac":5047,"resour":5048,"meeting":5049,"latin":5050,"magn":5051,"paper":5052,"##iy":5053,"increased":5054,"stra":5055,"pick":5056,"francisco":5057,"iron":5058,"takes":5059,"oce":5060,"##ging":5061,"fifth":5062,"##fect":5063,"##hl":5064,"platform":5065,"##pts":5066,"##ela":5067,"##lied":5068,"bol":5069,"diseas":5070,"populated":5071,"dani":5072,"##uten":5073,"reveal":5074,"##ils":5075,"spl":5076,"##kin":5077,"mas":5078,"wee":5079,"##onia":5080,"hotel":5081,"##ysis":5082,"##10":5083,"quick":5084,"dog":5085,"##osh":5086,"philosop":5087,"volume":5088,"becoming":5089,"evidence":5090,"49":5091,"crew":5092,"lack":5093,"rate":5094,"##ieve":5095,"opera":5096,"islam":5097,"conver":5098,"industrial":5099,"##aka":5100,"von":5101,"alexander":5102,"##standing":5103,"##ira":5104,"element":5105,"dan":5106,"studied":5107,"cub":5108,"prepar":5109,"episodes":5110,"hong":5111,"##aya":5112,"48":5113,"1954":5114,"ministry":5115,"##zz":5116,"deput":5117,"##isk":5118,"egy":5119,"discuss":5120,"minutes":5121,"rot":5122,"##adel":5123,"confl":5124,"politics":5125,"##etic":5126,"##dy":5127,"caused":5128,"dail":5129,"##aph":5130,"##itan":5131,"##ucle":5132,"##don":5133,"girls":5134,"##mark":5135,"1953":5136,"urban":5137,"software":5138,"##itation":5139,"serving":5140,"kong":5141,"hyd":5142,"strateg":5143,"metal":5144,"alleg":5145,"egypt":5146,"multiple":5147,"mostly":5148,"##stra":5149,"##enge":5150,"64":5151,"##isters":5152,"subject":5153,"rain":5154,"recent":5155,"##isation":5156,"1949":5157,"create":5158,"3rd":5159,"##lad":5160,"johnson":5161,"beach":5162,"medalists":5163,"na":5164,"177":5165,"##kins":5166,"contemporary":5167,"particularly":5168,"demon":5169,"hind":5170,"impro":5171,"fellow":5172,"fal":5173,"bh":5174,"dur":5175,"##oul":5176,"kenn":5177,"##onse":5178,"##encies":5179,"nic":5180,"##oid":5181,"stay":5182,"profile":5183,"sout":5184,"diss":5185,"variety":5186,"articles":5187,"golden":5188,"43":5189,"bbc":5190,"##ova":5191,"47":5192,"remains":5193,"scul":5194,"marine":5195,"plot":5196,"marriage":5197,"rog":5198,"1980s":5199,"campus":5200,"drug":5201,"##illa":5202,"ped":5203,"##iang":5204,"##house":5205,"forced":5206,"racing":5207,"##ote":5208,"jacks":5209,"spr":5210,"always":5211,"label":5212,"tan":5213,"##iant":5214,"shown":5215,"victoria":5216,"##ali":5217,"products":5218,"pack":5219,"meaning":5220,"piano":5221,"1951":5222,"representatives":5223,"featuring":5224,"##och":5225,"##va":5226,"solo":5227,"squadron":5228,"##iders":5229,"cart":5230,"fish":5231,"mention":5232,"supported":5233,"accomp":5234,"defense":5235,"install":5236,"passeng":5237,"concept":5238,"ken":5239,"las":5240,"spirit":5241,"poor":5242,"andrew":5243,"jazz":5244,"##isher":5245,"naval":5246,"appears":5247,"usa":5248,"territory":5249,"surface":5250,"store":5251,"imper":5252,"passed":5253,"##win":5254,"swedish":5255,"presented":5256,"temper":5257,"clin":5258,"##ocks":5259,"##eman":5260,"promin":5261,"brothers":5262,"cru":5263,"weeks":5264,"org":5265,"coop":5266,"emper":5267,"kil":5268,"##hr":5269,"clar":5270,"founder":5271,"sail":5272,"##uan":5273,"syd":5274,"workers":5275,"mit":5276,"competed":5277,"greater":5278,"finals":5279,"asp":5280,"pp":5281,"forms":5282,"rose":5283,"map":5284,"soccer":5285,"jackson":5286,"##ortun":5287,"barb":5288,"##aded":5289,"##ases":5290,"##nam":5291,"ple":5292,"grade":5293,"experience":5294,"##any":5295,"berlin":5296,"headqu":5297,"critical":5298,"##stein":5299,"raised":5300,"nucle":5301,"engineer":5302,"crime":5303,"supre":5304,"##icks":5305,"comment":5306,"might":5307,"##ires":5308,"longer":5309,"response":5310,"##inary":5311,"baron":5312,"latter":5313,"##down":5314,"##ving":5315,"maria":5316,"1936":5317,"appearances":5318,"sculpt":5319,"leaving":5320,"suc":5321,"referred":5322,"partners":5323,"lieuten":5324,"coal":5325,"parents":5326,"norw":5327,"46":5328,"battal":5329,"##iest":5330,"ib":5331,"entertainment":5332,"larger":5333,"secondary":5334,"##abeth":5335,"distribution":5336,"descent":5337,"bac":5338,"##ricts":5339,"table":5340,"queens":5341,"swim":5342,"senate":5343,"mut":5344,"jon":5345,"52":5346,"##arters":5347,"bibli":5348,"brief":5349,"ts":5350,"composed":5351,"eliz":5352,"freed":5353,"republican":5354,"rivers":5355,"corporation":5356,"increase":5357,"lives":5358,"sher":5359,"pier":5360,"troops":5361,"languages":5362,"advent":5363,"bring":5364,"1990s":5365,"claimed":5366,"hero":5367,"75":5368,"newspaper":5369,"failed":5370,"1970s":5371,"1918":5372,"##thur":5373,"##uch":5374,"words":5375,"sund":5376,"lady":5377,"novels":5378,"daily":5379,"recip":5380,"tower":5381,"##yer":5382,"formerly":5383,"dor":5384,"judge":5385,"##ls":5386,"authority":5387,"51":5388,"jeff":5389,"cry":5390,"viet":5391,"##oe":5392,"joe":5393,"individuals":5394,"preserv":5395,"compil":5396,"remain":5397,"continu":5398,"moth":5399,"##itage":5400,"threat":5401,"administrative":5402,"ga":5403,"suff":5404,"sydney":5405,"sciences":5406,"1938":5407,"constitu":5408,"earned":5409,"##onto":5410,"unl":5411,"##ledge":5412,"poll":5413,"object":5414,"require":5415,"themsel":5416,"themselves":5417,"miles":5418,"joint":5419,"districts":5420,"provides":5421,"problems":5422,"proposed":5423,"##phy":5424,"contest":5425,"##ellow":5426,"lem":5427,"traff":5428,"cause":5429,"korea":5430,"##usc":5431,"infantry":5432,"##orter":5433,"wars":5434,"cham":5435,"lt":5436,"mixed":5437,"boys":5438,"separate":5439,"mountains":5440,"##iles":5441,"##chester":5442,"leon":5443,"kir":5444,"letter":5445,"acquired":5446,"carr":5447,"physical":5448,"cyc":5449,"inside":5450,"czech":5451,"rules":5452,"bc":5453,"illust":5454,"extended":5455,"makes":5456,"bed":5457,"benef":5458,"belong":5459,"estim":5460,"korean":5461,"tay":5462,"lieutenant":5463,"classical":5464,"believed":5465,"regul":5466,"##imb":5467,"helped":5468,"doub":5469,"##izing":5470,"affairs":5471,"##ih":5472,"laws":5473,"1937":5474,"demand":5475,"emperor":5476,"ontar":5477,"heritage":5478,"duke":5479,"die":5480,"garden":5481,"##itude":5482,"sr":5483,"description":5484,"done":5485,"weap":5486,"maxim":5487,"##akers":5488,"serb":5489,"kal":5490,"##mas":5491,"rule":5492,"bil":5493,"offered":5494,"vote":5495,"ontario":5496,"influence":5497,"##teen":5498,"sud":5499,"reserve":5500,"##wide":5501,"mainly":5502,"educational":5503,"horse":5504,"cav":5505,"ira":5506,"therefore":5507,"il":5508,"##hew":5509,"hunt":5510,"flag":5511,"##oster":5512,"##rich":5513,"scholars":5514,"mah":5515,"marsh":5516,"distance":5517,"plans":5518,"remaining":5519,"55":5520,"##omer":5521,"neighbor":5522,"nearly":5523,"##bol":5524,"grant":5525,"carried":5526,"prevent":5527,"determin":5528,"recon":5529,"apart":5530,"max":5531,"##ropol":5532,"marc":5533,"##rid":5534,"promoted":5535,"railroad":5536,"mike":5537,"1920":5538,"##wh":5539,"##ifying":5540,"numbers":5541,"##bec":5542,"projects":5543,"parties":5544,"##itting":5545,"##ologist":5546,"soldiers":5547,"##una":5548,"##jo":5549,"linear":5550,"##read":5551,"liberal":5552,"carry":5553,"www":5554,"consists":5555,"semi":5556,"turned":5557,"kind":5558,"elements":5559,"unkn":5560,"dim":5561,"##hens":5562,"##atively":5563,"rand":5564,"estate":5565,"lif":5566,"conditions":5567,"##agn":5568,"##ourne":5569,"cambridge":5570,"settlement":5571,"nether":5572,"covered":5573,"think":5574,"reception":5575,"##worth":5576,"nam":5577,"##bour":5578,"fast":5579,"cinem":5580,"toronto":5581,"capac":5582,"races":5583,"scientific":5584,"feel":5585,"##izes":5586,"##gs":5587,"##ione":5588,"##ucky":5589,"lew":5590,"address":5591,"yet":5592,"ah":5593,"rome":5594,"enough":5595,"supreme":5596,"##ima":5597,"1935":5598,"##phia":5599,"situ":5600,"swe":5601,"crown":5602,"bod":5603,"publications":5604,"morn":5605,"true":5606,"cem":5607,"plants":5608,"##ously":5609,"##zy":5610,"ring":5611,"search":5612,"refl":5613,"##uries":5614,"beaut":5615,"nearby":5616,"##esc":5617,"extre":5618,"sens":5619,"quality":5620,"##amin":5621,"##oral":5622,"ny":5623,"residents":5624,"responsible":5625,"##ube":5626,"##icted":5627,"principal":5628,"yellow":5629,"dipl":5630,"display":5631,"300":5632,"analysis":5633,"simp":5634,"difficult":5635,"eld":5636,"constant":5637,"leave":5638,"unknown":5639,"ocean":5640,"1960s":5641,"statistics":5642,"pakistan":5643,"touch":5644,"succeed":5645,"housing":5646,"technical":5647,"philadel":5648,"prec":5649,"hear":5650,"documentary":5651,"effects":5652,"ka":5653,"scene":5654,"##iter":5655,"hund":5656,"##rovers":5657,"fox":5658,"hay":5659,"minnes":5660,"##ns":5661,"1930":5662,"overs":5663,"om":5664,"drive":5665,"confir":5666,"53":5667,"##anth":5668,"steel":5669,"issued":5670,"som":5671,"##vert":5672,"##iser":5673,"direction":5674,"whole":5675,"behav":5676,"##uv":5677,"listing":5678,"chris":5679,"initial":5680,"serve":5681,"bott":5682,"minnesota":5683,"intellig":5684,"philadelphia":5685,"##aud":5686,"1919":5687,"##onsin":5688,"54":5689,"wisc":5690,"bey":5691,"whether":5692,"acting":5693,"##ancy":5694,"bronze":5695,"##aly":5696,"trail":5697,"orchestra":5698,"tree":5699,"fleet":5700,"##aging":5701,"avenue":5702,"publishing":5703,"controvers":5704,"##rupt":5705,"##span":5706,"necess":5707,"santa":5708,"veg":5709,"equip":5710,"musl":5711,"wisconsin":5712,"discovered":5713,"prote":5714,"##ills":5715,"agency":5716,"##acts":5717,"1914":5718,"shop":5719,"##pped":5720,"##mad":5721,"constructed":5722,"##rad":5723,"##ji":5724,"aer":5725,"pra":5726,"exchange":5727,"sax":5728,"treatment":5729,"##astic":5730,"obl":5731,"inh":5732,"##ci":5733,"daniel":5734,"##lers":5735,"graduated":5736,"symp":5737,"sites":5738,"levels":5739,"citizens":5740,"increasing":5741,"##oud":5742,"growth":5743,"consum":5744,"forward":5745,"lett":5746,"http":5747,"##rics":5748,"labour":5749,"hundred":5750,"controll":5751,"1933":5752,"##rol":5753,"facilities":5754,"counter":5755,"candidate":5756,"cars":5757,"##iat":5758,"lot":5759,"twenty":5760,"instrument":5761,"##ava":5762,"told":5763,"uns":5764,"netherlands":5765,"elizabeth":5766,"1929":5767,"impact":5768,"wanted":5769,"geography":5770,"managed":5771,"types":5772,"jur":5773,"surn":5774,"composer":5775,"##ora":5776,"formation":5777,"renamed":5778,"lev":5779,"1928":5780,"robin":5781,"##emy":5782,"##ouri":5783,"resist":5784,"jes":5785,"initi":5786,"firm":5787,"rab":5788,"scen":5789,"internet":5790,"alf":5791,"##ulf":5792,"##ighter":5793,"fm":5794,"##iately":5795,"##ensity":5796,"deputy":5797,"owners":5798,"1934":5799,"mort":5800,"##bourne":5801,"figure":5802,"kim":5803,"##resp":5804,"image":5805,"1917":5806,"share":5807,"directly":5808,"males":5809,"asked":5810,"cant":5811,"##arm":5812,"diam":5813,"##itzer":5814,"resident":5815,"arthur":5816,"mom":5817,"##ika":5818,"lies":5819,"##town":5820,"leadership":5821,"calc":5822,"agreement":5823,"indiana":5824,"##thing":5825,"medicine":5826,"protection":5827,"abd":5828,"##stone":5829,"poly":5830,"##oration":5831,"chur":5832,"primarily":5833,"ethn":5834,"eg":5835,"mm":5836,"imperial":5837,"##more":5838,"wilson":5839,"amp":5840,"implement":5841,"##wick":5842,"1932":5843,"arrived":5844,"transferred":5845,"ron":5846,"moving":5847,"gram":5848,"steve":5849,"pad":5850,"machine":5851,"##sen":5852,"hour":5853,"##akh":5854,"norweg":5855,"protest":5856,"advanced":5857,"environmental":5858,"56":5859,"economy":5860,"##oman":5861,"equipment":5862,"purs":5863,"tab":5864,"kur":5865,"teacher":5866,"drums":5867,"comes":5868,"sweden":5869,"hun":5870,"##edd":5871,"job":5872,"weight":5873,"##ipped":5874,"vent":5875,"idea":5876,"operating":5877,"bibliography":5878,"mexican":5879,"vac":5880,"##ered":5881,"##tery":5882,"slov":5883,"designated":5884,"kel":5885,"songwrit":5886,"##icient":5887,"battalion":5888,"oak":5889,"mind":5890,"floor":5891,"format":5892,"positive":5893,"##ogue":5894,"metropol":5895,"perman":5896,"saying":5897,"question":5898,"##greg":5899,"likely":5900,"basic":5901,"favor":5902,"folk":5903,"cancer":5904,"spread":5905,"crimin":5906,"##con":5907,"##osl":5908,"models":5909,"norwegian":5910,"representative":5911,"freder":5912,"sales":5913,"fill":5914,"bear":5915,"improv":5916,"ow":5917,"##book":5918,"rub":5919,"target":5920,"4th":5921,"##ropical":5922,"highly":5923,"officially":5924,"mathemat":5925,"raj":5926,"cycl":5927,"lov":5928,"fighting":5929,"1931":5930,"atlantic":5931,"problem":5932,"safety":5933,"1924":5934,"fame":5935,"cra":5936,"females":5937,"comics":5938,"titles":5939,"##owa":5940,"prominent":5941,"institutions":5942,"revealed":5943,"##aga":5944,"##aska":5945,"1922":5946,"naz":5947,"din":5948,"dial":5949,"singers":5950,"176":5951,"coming":5952,"missouri":5953,"vs":5954,"1927":5955,"stephen":5956,"dub":5957,"##ulated":5958,"##pa":5959,"content":5960,"ward":5961,"affili":5962,"##ening":5963,"##regon":5964,"experiment":5965,"##bl":5966,"sort":5967,"##ault":5968,"morning":5969,"57":5970,"##kh":5971,"dedicated":5972,"##aped":5973,"titled":5974,"becomes":5975,"opportun":5976,"##inity":5977,"immediately":5978,"combined":5979,"taylor":5980,"elimin":5981,"##sa":5982,"mis":5983,"attend":5984,"1900":5985,"transportation":5986,"##9e9":5987,"##sk":5988,"shortly":5989,"e9e":5990,"e9e9e9":5991,"charts":5992,"kansas":5993,"ey":5994,"activity":5995,"ll":5996,"fine":5997,"##heim":5998,"samp":5999,"##gu":6000,"alongside":6001,"charge":6002,"tennis":6003,"typically":6004,"windows":6005,"compar":6006,"resources":6007,"churches":6008,"produce":6009,"headquarters":6010,"zone":6011,"fant":6012,"owner":6013,"oregon":6014,"##bre":6015,"sin":6016,"##iced":6017,"##ecting":6018,"achiev":6019,"independence":6020,"capacity":6021,"reviews":6022,"recover":6023,"ton":6024,"distingu":6025,"jam":6026,"alt":6027,"amount":6028,"holy":6029,"potential":6030,"fab":6031,"entr":6032,"indones":6033,"ax":6034,"cook":6035,"recently":6036,"orient":6037,"commonly":6038,"##mes":6039,"households":6040,"vocal":6041,"basis":6042,"smaller":6043,"brigade":6044,"58":6045,"arms":6046,"things":6047,"participated":6048,"conducted":6049,"withd":6050,"##11":6051,"##rel":6052,"##hu":6053,"##inger":6054,"climate":6055,"ordered":6056,"sle":6057,"hosted":6058,"kitt":6059,"knowledge":6060,"##ez":6061,"nominated":6062,"1912":6063,"spons":6064,"##put":6065,"disease":6066,"sons":6067,"fix":6068,"##aria":6069,"1921":6070,"divided":6071,"planned":6072,"##rical":6073,"generation":6074,"combat":6075,"##ributed":6076,"continue":6077,"1925":6078,"orth":6079,"turkey":6080,"tu":6081,"##etery":6082,"iraq":6083,"organized":6084,"reference":6085,"scale":6086,"thous":6087,"cemetery":6088,"##mission":6089,"greg":6090,"brad":6091,"##enna":6092,"thousand":6093,"##respond":6094,"fu":6095,"##ego":6096,"brook":6097,"grew":6098,"partner":6099,"poetry":6100,"correspond":6101,"##mont":6102,"legislative":6103,"removed":6104,"##cy":6105,"destroyed":6106,"1926":6107,"spect":6108,"##ensis":6109,"400":6110,"critics":6111,"bit":6112,"leaves":6113,"wit":6114,"intended":6115,"gab":6116,"##can":6117,"andre":6118,"1923":6119,"freedom":6120,"federation":6121,"##30":6122,"##aki":6123,"dv":6124,"vic":6125,"probably":6126,"reach":6127,"59":6128,"chamber":6129,"##edia":6130,"##oned":6131,"##essed":6132,"cerem":6133,"theater":6134,"literary":6135,"ability":6136,"defeat":6137,"quickly":6138,"trip":6139,"##ois":6140,"gil":6141,"median":6142,"sexual":6143,"purpose":6144,"kl":6145,"join":6146,"replac":6147,"kid":6148,"##water":6149,"##ilton":6150,"follows":6151,"davis":6152,"tall":6153,"creation":6154,"##ographic":6155,"##works":6156,"##bed":6157,"##weight":6158,"learning":6159,"approach":6160,"colorado":6161,"subs":6162,"175":6163,"pressure":6164,"applied":6165,"want":6166,"giving":6167,"guest":6168,"habit":6169,"##jan":6170,"virt":6171,"archae":6172,"equal":6173,"interp":6174,"glass":6175,"norway":6176,"gang":6177,"challenge":6178,"danc":6179,"storm":6180,"tai":6181,"starring":6182,"crow":6183,"bag":6184,"captured":6185,"price":6186,"ku":6187,"exhibition":6188,"ross":6189,"malays":6190,"alone":6191,"tenness":6192,"##pton":6193,"split":6194,"classic":6195,"eag":6196,"programming":6197,"efforts":6198,"pros":6199,"##ounds":6200,"traffic":6201,"yard":6202,"18th":6203,"##onents":6204,"lor":6205,"tennessee":6206,"##ece":6207,"##asty":6208,"wheel":6209,"mile":6210,"bos":6211,"##real":6212,"assigned":6213,"##iring":6214,"1910":6215,"##oir":6216,"restaur":6217,"conservative":6218,"hills":6219,"roles":6220,"##80":6221,"##eness":6222,"purchased":6223,"1916":6224,"1915":6225,"needed":6226,"ariz":6227,"##asa":6228,"entry":6229,"##osa":6230,"##iot":6231,"wear":6232,"##kee":6233,"##roll":6234,"pilot":6235,"##urer":6236,"religion":6237,"##12":6238,"##ici":6239,"directors":6240,"painting":6241,"column":6242,"##40":6243,"##zo":6244,"flying":6245,"sri":6246,"horn":6247,"wins":6248,"ker":6249,"appar":6250,"##ami":6251,"nuclear":6252,"watch":6253,"##light":6254,"cel":6255,"vess":6256,"teaching":6257,"condition":6258,"budd":6259,"##fefe":6260,"##omot":6261,"challeng":6262,"propos":6263,"ark":6264,"99":6265,"transform":6266,"theme":6267,"lewis":6268,"simon":6269,"cow":6270,"##vin":6271,"hands":6272,"beyond":6273,"66":6274,"compared":6275,"deliver":6276,"##ran":6277,"physic":6278,"moon":6279,"mosc":6280,"ranked":6281,"frame":6282,"##asts":6283,"maryland":6284,"ye":6285,"sixth":6286,"attention":6287,"positions":6288,"##sey":6289,"gi":6290,"retire":6291,"divers":6292,"communist":6293,"adopted":6294,"southeast":6295,"reports":6296,"concent":6297,"##estic":6298,"harry":6299,"##bit":6300,"agent":6301,"declared":6302,"shel":6303,"lyn":6304,"62":6305,"##ailed":6306,"##rom":6307,"cold":6308,"dream":6309,"##onym":6310,"##rig":6311,"philippines":6312,"defin":6313,"meg":6314,"arizona":6315,"assum":6316,"##ordin":6317,"aband":6318,"nap":6319,"alternative":6320,"heat":6321,"wrestling":6322,"##illery":6323,"letters":6324,"##je":6325,"dat":6326,"##apore":6327,"ell":6328,"larg":6329,"serves":6330,"educated":6331,"offers":6332,"##uff":6333,"quebec":6334,"younger":6335,"nep":6336,"respectively":6337,"barr":6338,"metropolitan":6339,"northwest":6340,"niger":6341,"##eller":6342,"goes":6343,"##jected":6344,"pair":6345,"fefefe":6346,"bure":6347,"falls":6348,"1913":6349,"pattern":6350,"tony":6351,"hart":6352,"coaches":6353,"##ctions":6354,"##inals":6355,"##iday":6356,"fash":6357,"widely":6358,"aqu":6359,"arc":6360,"rear":6361,"adapt":6362,"##ivity":6363,"hou":6364,"palace":6365,"distinct":6366,"athletics":6367,"supply":6368,"##ao":6369,"snow":6370,"pin":6371,"##mers":6372,"growing":6373,"lect":6374,"ches":6375,"##lies":6376,"yards":6377,"mentioned":6378,"##sky":6379,"versions":6380,"actually":6381,"fear":6382,"demonstr":6383,"begins":6384,"scoring":6385,"hyp":6386,"votes":6387,"animals":6388,"something":6389,"singapore":6390,"planning":6391,"guide":6392,"feet":6393,"gor":6394,"rd":6395,"philosophy":6396,"##sch":6397,"rein":6398,"memory":6399,"minim":6400,"journalist":6401,"rapid":6402,"serious":6403,"convention":6404,"materials":6405,"khan":6406,"extra":6407,"##val":6408,"queensland":6409,"publication":6410,"damage":6411,"fict":6412,"nob":6413,"slow":6414,"etc":6415,"##tle":6416,"##ounts":6417,"fat":6418,"constitution":6419,"performances":6420,"turkish":6421,"estimated":6422,"moscow":6423,"brid":6424,"##anna":6425,"##igen":6426,"intelligence":6427,"normal":6428,"bond":6429,"regions":6430,"largely":6431,"colonel":6432,"##gers":6433,"birds":6434,"gained":6435,"mig":6436,"kat":6437,"weekly":6438,"han":6439,"convers":6440,"##unte":6441,"##emic":6442,"sad":6443,"measure":6444,"dram":6445,"##watch":6446,"steam":6447,"##ibly":6448,"armed":6449,"strug":6450,"whit":6451,"##ighth":6452,"##ented":6453,"trains":6454,"advoc":6455,"95":6456,"##met":6457,"accepted":6458,"defend":6459,"kings":6460,"##pan":6461,"ali":6462,"seats":6463,"bull":6464,"bulgar":6465,"recomm":6466,"recognized":6467,"opposition":6468,"##19":6469,"twice":6470,"resc":6471,"presidential":6472,"contact":6473,"walter":6474,"agreed":6475,"kentucky":6476,"bes":6477,"##orney":6478,"musician":6479,"pul":6480,"##itable":6481,"officials":6482,"fields":6483,"##isa":6484,"gord":6485,"presence":6486,"animal":6487,"launch":6488,"1911":6489,"##no":6490,"billion":6491,"croat":6492,"##ito":6493,"bah":6494,"melbourne":6495,"volunte":6496,"encour":6497,"cape":6498,"expans":6499,"comput":6500,"fashion":6501,"150":6502,"mp":6503,"visual":6504,"exped":6505,"##hedral":6506,"attacks":6507,"5th":6508,"lam":6509,"diplom":6510,"conflict":6511,"##fc":6512,"strugg":6513,"inspired":6514,"facility":6515,"exam":6516,"##ping":6517,"eye":6518,"brian":6519,"performing":6520,"##athan":6521,"subur":6522,"brazilian":6523,"##rane":6524,"##rence":6525,"advert":6526,"boat":6527,"72":6528,"hers":6529,"ty":6530,"custom":6531,"chemical":6532,"sche":6533,"excl":6534,"##iab":6535,"defence":6536,"pip":6537,"kam":6538,"iowa":6539,"hans":6540,"##ho":6541,"sky":6542,"76":6543,"##lah":6544,"rene":6545,"occurred":6546,"minute":6547,"vehicles":6548,"##mo":6549,"tas":6550,"promotion":6551,"1908":6552,"acts":6553,"suffered":6554,"util":6555,"colonial":6556,"risk":6557,"provinc":6558,"##abad":6559,"##aver":6560,"hydro":6561,"grey":6562,"austria":6563,"studios":6564,"legend":6565,"1950s":6566,"admir":6567,"internal":6568,"attorney":6569,"##uese":6570,"lad":6571,"##stre":6572,"##itled":6573,"expanded":6574,"##onent":6575,"gam":6576,"paid":6577,"reduced":6578,"eric":6579,"providing":6580,"mam":6581,"##ege":6582,"density":6583,"taught":6584,"accident":6585,"edge":6586,"vehicle":6587,"newly":6588,"commonwe":6589,"artillery":6590,"##aven":6591,"##eline":6592,"portuguese":6593,"d6":6594,"##asters":6595,"ford":6596,"actresses":6597,"surrounding":6598,"lyrics":6599,"##oli":6600,"dj":6601,"cos":6602,"says":6603,"fro":6604,"disapp":6605,"dang":6606,"kick":6607,"##uled":6608,"##erc":6609,"commonwealth":6610,"claims":6611,"rough":6612,"##het":6613,"weather":6614,"85":6615,"proceed":6616,"christmas":6617,"shr":6618,"cris":6619,"alliance":6620,"choice":6621,"identified":6622,"##chen":6623,"core":6624,"flood":6625,"jews":6626,"hell":6627,"adam":6628,"classes":6629,"chen":6630,"##olved":6631,"properties":6632,"buried":6633,"swiss":6634,"77":6635,"vietnam":6636,"holly":6637,"phase":6638,"anderson":6639,"theor":6640,"dioc":6641,"inters":6642,"corner":6643,"cooper":6644,"raf":6645,"terror":6646,"##aine":6647,"##otyp":6648,"consult":6649,"loan":6650,"expected":6651,"sid":6652,"##oses":6653,"dynasty":6654,"supporting":6655,"aim":6656,"athletes":6657,"##wart":6658,"resulting":6659,"repe":6660,"miller":6661,"pione":6662,"continues":6663,"rise":6664,"painter":6665,"joh":6666,"electronic":6667,"mobile":6668,"piece":6669,"borough":6670,"unique":6671,"63":6672,"bou":6673,"resulted":6674,"defined":6675,"fresh":6676,"kit":6677,"dra":6678,"##orro":6679,"criminal":6680,"nik":6681,"losing":6682,"insur":6683,"##ovic":6684,"cu":6685,"conclud":6686,"##lyn":6687,"merch":6688,"gives":6689,"jane":6690,"mall":6691,"##wise":6692,"pool":6693,"felt":6694,"powers":6695,"pav":6696,"##iques":6697,"playoff":6698,"ultim":6699,"israeli":6700,"96":6701,"lincol":6702,"tank":6703,"faith":6704,"trees":6705,"existing":6706,"mi":6707,"situated":6708,"bird":6709,"billboard":6710,"emerg":6711,"alab":6712,"67":6713,"##ads":6714,"signal":6715,"dal":6716,"##unct":6717,"figures":6718,"brun":6719,"interpret":6720,"tropical":6721,"confirmed":6722,"ign":6723,"fictional":6724,"##osen":6725,"cells":6726,"pir":6727,"lincoln":6728,"surname":6729,"manchester":6730,"##d6d6":6731,"d6d6d6":6732,"vel":6733,"##osis":6734,"granted":6735,"tells":6736,"finish":6737,"couple":6738,"programme":6739,"##alo":6740,"slight":6741,"switzer":6742,"pictures":6743,"##ambig":6744,"##ivals":6745,"97":6746,"wel":6747,"locomot":6748,"neighborhood":6749,"##iber":6750,"##mouth":6751,"returning":6752,"bowl":6753,"receive":6754,"doll":6755,"cannot":6756,"allows":6757,"sust":6758,"##asy":6759,"adult":6760,"nfl":6761,"provincial":6762,"##olis":6763,"##inder":6764,"portray":6765,"rud":6766,"##15":6767,"camer":6768,"86":6769,"ans":6770,"gay":6771,"authorities":6772,"chile":6773,"##zen":6774,"elementary":6775,"kept":6776,"greece":6777,"##oted":6778,"dougl":6779,"nich":6780,"sunday":6781,"sides":6782,"bot":6783,"##adu":6784,"visit":6785,"graduate":6786,"cathedral":6787,"switzerland":6788,"howard":6789,"comic":6790,"rhy":6791,"connected":6792,"flat":6793,"##has":6794,"oklah":6795,"danish":6796,"cad":6797,"quant":6798,"dry":6799,"norm":6800,"methods":6801,"##agan":6802,"domestic":6803,"##vi":6804,"lith":6805,"blues":6806,"78":6807,"permanent":6808,"hungarian":6809,"simply":6810,"lut":6811,"lands":6812,"aid":6813,"application":6814,"hug":6815,"universities":6816,"82":6817,"recordings":6818,"ky":6819,"##utional":6820,"oklahoma":6821,"solid":6822,"marked":6823,"##eck":6824,"neur":6825,"##ores":6826,"introduction":6827,"98":6828,"restrict":6829,"mes":6830,"ltd":6831,"wolf":6832,"depr":6833,"rif":6834,"multi":6835,"feed":6836,"finn":6837,"straight":6838,"why":6839,"88":6840,"americans":6841,"##enez":6842,"bapt":6843,"pope":6844,"69":6845,"##uted":6846,"disambig":6847,"synt":6848,"injury":6849,"##agu":6850,"hamilton":6851,"effort":6852,"jay":6853,"magic":6854,"##lines":6855,"driver":6856,"interior":6857,"historian":6858,"fans":6859,"oldest":6860,"##ti":6861,"disambiguation":6862,"##icut":6863,"northeast":6864,"advis":6865,"##igrants":6866,"ni":6867,"68":6868,"fully":6869,"guns":6870,"antonio":6871,"golf":6872,"nin":6873,"##zh":6874,"compl":6875,"examples":6876,"broadcasting":6877,"74":6878,"bann":6879,"sed":6880,"simple":6881,"communications":6882,"chapter":6883,"##ogen":6884,"agricultural":6885,"occasion":6886,"aired":6887,"honours":6888,"73":6889,"soul":6890,"alabama":6891,"spacewatch":6892,"spok":6893,"##16":6894,"##pool":6895,"situation":6896,"17th":6897,"roads":6898,"circuit":6899,"mans":6900,"veter":6901,"sha":6902,"expansion":6903,"nag":6904,"##caa":6905,"1909":6906,"showed":6907,"founding":6908,"planet":6909,"##time":6910,"beng":6911,"unf":6912,"strike":6913,"armen":6914,"##aints":6915,"containing":6916,"##olas":6917,"tried":6918,"##alty":6919,"##wr":6920,"subsequent":6921,"obtained":6922,"impress":6923,"sets":6924,"anne":6925,"hair":6926,"seed":6927,"dc":6928,"suggested":6929,"##ishes":6930,"conservation":6931,"link":6932,"athletic":6933,"patri":6934,"audience":6935,"1905":6936,"socorro":6937,"sense":6938,"##uge":6939,"contain":6940,"hamp":6941,"worth":6942,"gib":6943,"09":6944,"1906":6945,"door":6946,"mine":6947,"##antic":6948,"louisiana":6949,"##bell":6950,"chosen":6951,"alph":6952,"fuel":6953,"symbol":6954,"##ographer":6955,"roof":6956,"completely":6957,"##elle":6958,"tag":6959,"hope":6960,"1907":6961,"standards":6962,"##otes":6963,"competitions":6964,"##kyo":6965,"cm":6966,"##18":6967,"mississ":6968,"narrow":6969,"liver":6970,"recognition":6971,"anthony":6972,"ern":6973,"ending":6974,"lane":6975,"commissioned":6976,"speech":6977,"##erse":6978,"patrick":6979,"gym":6980,"##ras":6981,"factory":6982,"lists":6983,"portra":6984,"ethnic":6985,"jord":6986,"metres":6987,"##aug":6988,"##ni":6989,"succeeded":6990,"sector":6991,"um":6992,"accompan":6993,"effective":6994,"knight":6995,"##erto":6996,"allowing":6997,"hem":6998,"08":6999,"##chers":7000,"##bb":7001,"87":7002,"funding":7003,"##ublin":7004,"##ses":7005,"hat":7006,"banks":7007,"dol":7008,"##ante":7009,"fern":7010,"partnership":7011,"holds":7012,"soundtr":7013,"##born":7014,"fan":7015,"##iform":7016,"translation":7017,"weapons":7018,"houston":7019,"buff":7020,"dean":7021,"arrested":7022,"greatest":7023,"##di":7024,"bureau":7025,"06":7026,"##iable":7027,"maximum":7028,"douglas":7029,"pod":7030,"connecticut":7031,"##etting":7032,"ambass":7033,"92":7034,"##roit":7035,"##ori":7036,"candidates":7037,"austrian":7038,"05":7039,"spot":7040,"standing":7041,"identity":7042,"height":7043,"talk":7044,"creating":7045,"alan":7046,"kon":7047,"07":7048,"ncaa":7049,"##een":7050,"gather":7051,"zh":7052,"try":7053,"favour":7054,"harvard":7055,"argentina":7056,"trump":7057,"appeal":7058,"investigation":7059,"gran":7060,"##14":7061,"prefer":7062,"tokyo":7063,"matter":7064,"astron":7065,"gordon":7066,"paintings":7067,"enemy":7068,"confeder":7069,"89":7070,"allen":7071,"fred":7072,"picture":7073,"passenger":7074,"bachel":7075,"##aro":7076,"pas":7077,"treas":7078,"achieved":7079,"waters":7080,"fighter":7081,"##incorporated":7082,"southwest":7083,"##joy":7084,"margar":7085,"sor":7086,"princess":7087,"##mans":7088,"##13":7089,"##onic":7090,"else":7091,"applications":7092,"interact":7093,"ale":7094,"##ieval":7095,"necessary":7096,"satur":7097,"shell":7098,"kaz":7099,"seem":7100,"cool":7101,"lank":7102,"communication":7103,"##kel":7104,"ends":7105,"dynam":7106,"orange":7107,"##estab":7108,"wol":7109,"prix":7110,"##iants":7111,"dvd":7112,"##idi":7113,"occupied":7114,"ot":7115,"worldwide":7116,"gate":7117,"##agen":7118,"##oto":7119,"amate":7120,"##anes":7121,"attempts":7122,"##mitted":7123,"##ippi":7124,"priest":7125,"composition":7126,"conce":7127,"94":7128,"philip":7129,"walk":7130,"portion":7131,"graph":7132,"covers":7133,"motion":7134,"unincorporated":7135,"stream":7136,"dism":7137,"##bro":7138,"84":7139,"jesus":7140,"1904":7141,"frequently":7142,"puerto":7143,"jump":7144,"mist":7145,"agriculture":7146,"decor":7147,"79":7148,"unable":7149,"retirement":7150,"detroit":7151,"archive":7152,"meant":7153,"script":7154,"sale":7155,"##hs":7156,"ay":7157,"taiwan":7158,"sell":7159,"locations":7160,"incident":7161,"universal":7162,"##icial":7163,"mrs":7164,"fellows":7165,"setting":7166,"maur":7167,"asc":7168,"rus":7169,"##where":7170,"treaty":7171,"##onian":7172,"lanc":7173,"##eland":7174,"##iations":7175,"16th":7176,"##lets":7177,"kev":7178,"juan":7179,"establishment":7180,"actions":7181,"cass":7182,"wings":7183,"killing":7184,"##ista":7185,"##berts":7186,"clark":7187,"##dam":7188,"relatively":7189,"belgium":7190,"bright":7191,"senator":7192,"powerful":7193,"##under":7194,"##egal":7195,"##17":7196,"metro":7197,"shared":7198,"gon":7199,"gene":7200,"sang":7201,"dave":7202,"##char":7203,"entitled":7204,"react":7205,"bought":7206,"frederick":7207,"images":7208,"93":7209,"selection":7210,"##box":7211,"dick":7212,"##bra":7213,"ry":7214,"specif":7215,"index":7216,"approved":7217,"pear":7218,"wels":7219,"##iva":7220,"colomb":7221,"04":7222,"pieces":7223,"ways":7224,"holding":7225,"buck":7226,"02":7227,"uncle":7228,"ultimately":7229,"seventh":7230,"##view":7231,"##ologists":7232,"1901":7233,"wy":7234,"1903":7235,"wound":7236,"##erb":7237,"violence":7238,"diego":7239,"bath":7240,"##po":7241,"pull":7242,"##fall":7243,"canal":7244,"##ardo":7245,"##iere":7246,"managers":7247,"bart":7248,"animated":7249,"##eals":7250,"gm":7251,"needs":7252,"chapel":7253,"muslim":7254,"arena":7255,"bachelor":7256,"##gb":7257,"hits":7258,"brain":7259,"alg":7260,"twel":7261,"analy":7262,"montreal":7263,"innov":7264,"streets":7265,"colour":7266,"##room":7267,"lap":7268,"aviation":7269,"03":7270,"por":7271,"copies":7272,"lemmon":7273,"fought":7274,"baby":7275,"scar":7276,"broke":7277,"landsc":7278,"parks":7279,"remix":7280,"settled":7281,"escape":7282,"edited":7283,"walker":7284,"consequ":7285,"1902":7286,"##tv":7287,"##dale":7288,"refused":7289,"offices":7290,"budget":7291,"thor":7292,"##atus":7293,"samuel":7294,"recru":7295,"rare":7296,"mississippi":7297,"unlike":7298,"prefect":7299,"spin":7300,"negot":7301,"nothing":7302,"distinguished":7303,"functions":7304,"##odox":7305,"6th":7306,"qualified":7307,"superv":7308,"hawai":7309,"cum":7310,"##ules":7311,"reign":7312,"resistance":7313,"honour":7314,"extensive":7315,"expedition":7316,"dall":7317,"receiving":7318,"twelve":7319,"##omy":7320,"aw":7321,"sv":7322,"respond":7323,"satell":7324,"welsh":7325,"islamic":7326,"170":7327,"##hist":7328,"##kshire":7329,"medieval":7330,"orders":7331,"denmark":7332,"##mine":7333,"nom":7334,"##iments":7335,"institution":7336,"teen":7337,"walls":7338,"details":7339,"aged":7340,"##aux":7341,"representing":7342,"shut":7343,"83":7344,"connection":7345,"write":7346,"exclus":7347,"174":7348,"tamil":7349,"bottom":7350,"attempted":7351,"selling":7352,"attacked":7353,"ment":7354,"##eston":7355,"hors":7356,"outstanding":7357,"behavior":7358,"##aks":7359,"converted":7360,"chronic":7361,"##elli":7362,"nel":7363,"rio":7364,"##western":7365,"##iful":7366,"clean":7367,"laur":7368,"tang":7369,"##uz":7370,"scholar":7371,"infr":7372,"palest":7373,"jordan":7374,"##essions":7375,"employed":7376,"gray":7377,"amateur":7378,"merc":7379,"dropped":7380,"visited":7381,"derived":7382,"myst":7383,"moore":7384,"grass":7385,"beet":7386,"ukraine":7387,"##iami":7388,"##oslav":7389,"someone":7390,"inhabit":7391,"protected":7392,"##atures":7393,"##fa":7394,"##olished":7395,"parall":7396,"broken":7397,"##abil":7398,"pages":7399,"centuries":7400,"flo":7401,"cinema":7402,"journey":7403,"marie":7404,"pitts":7405,"disestab":7406,"parliamentary":7407,"##opter":7408,"annivers":7409,"ss":7410,"arkansas":7411,"franch":7412,"salt":7413,"coordin":7414,"166":7415,"rival":7416,"flora":7417,"ze":7418,"controlled":7419,"narr":7420,"roc":7421,"reality":7422,"moths":7423,"portugal":7424,"deleg":7425,"matthew":7426,"edin":7427,"advant":7428,"advance":7429,"plus":7430,"bands":7431,"symph":7432,"formula":7433,"##ayer":7434,"##inces":7435,"faced":7436,"myth":7437,"##unk":7438,"##ello":7439,"miami":7440,"160":7441,"plate":7442,"phill":7443,"enjoy":7444,"shad":7445,"incorporated":7446,"licens":7447,"##isted":7448,"ms":7449,"7th":7450,"##bar":7451,"##umes":7452,"focused":7453,"##attle":7454,"##rum":7455,"consecut":7456,"electoral":7457,"determined":7458,"caval":7459,"hip":7460,"believe":7461,"herself":7462,"plac":7463,"carn":7464,"harris":7465,"##lan":7466,"string":7467,"hungary":7468,"salv":7469,"tra":7470,"compilation":7471,"##ality":7472,"schedule":7473,"audio":7474,"##bu":7475,"synd":7476,"translated":7477,"dak":7478,"##burn":7479,"gain":7480,"flu":7481,"rick":7482,"##ache":7483,"bush":7484,"failure":7485,"skin":7486,"classification":7487,"holl":7488,"developing":7489,"crisis":7490,"scheduled":7491,"dublin":7492,"rid":7493,"anniversary":7494,"##sex":7495,"hang":7496,"economics":7497,"opposed":7498,"##pur":7499,"municipalities":7500,"cabinet":7501,"strip":7502,"ukrainian":7503,"temperature":7504,"gast":7505,"gill":7506,"##hors":7507,"datab":7508,"##uls":7509,"kevin":7510,"wealth":7511,"productions":7512,"##ghan":7513,"##apes":7514,"1930s":7515,"##bish":7516,"bodies":7517,"passing":7518,"regarding":7519,"save":7520,"##com":7521,"guy":7522,"consisted":7523,"collected":7524,"##eton":7525,"junction":7526,"specifically":7527,"finance":7528,"fried":7529,"reasons":7530,"##ui":7531,"evolution":7532,"scenes":7533,"existence":7534,"songwriter":7535,"speaking":7536,"##fort":7537,"malaysia":7538,"convent":7539,"##ulate":7540,"roberts":7541,"eyes":7542,"opin":7543,"protein":7544,"negative":7545,"orthodox":7546,"venez":7547,"##prise":7548,"cricketers":7549,"onto":7550,"criticism":7551,"christop":7552,"edinburgh":7553,"johann":7554,"upd":7555,"##icide":7556,"chain":7557,"investment":7558,"residence":7559,"##ares":7560,"cher":7561,"calls":7562,"##ycl":7563,"1898":7564,"influenced":7565,"##stan":7566,"homes":7567,"##stream":7568,"abandoned":7569,"alfred":7570,"##rell":7571,"refers":7572,"looking":7573,"strik":7574,"##ifications":7575,"##iny":7576,"wave":7577,"##aza":7578,"funds":7579,"param":7580,"conqu":7581,"roger":7582,"carbon":7583,"formal":7584,"jess":7585,"##ager":7586,"shape":7587,"dies":7588,"fisher":7589,"##issance":7590,"lawyer":7591,"excell":7592,"##iller":7593,"nev":7594,"lawrence":7595,"surg":7596,"wick":7597,"##otic":7598,"dates":7599,"avoid":7600,"doing":7601,"soundtrack":7602,"occurs":7603,"kan":7604,"divisions":7605,"deploy":7606,"clay":7607,"finds":7608,"##uses":7609,"colleges":7610,"##veland":7611,"slightly":7612,"anna":7613,"consecutive":7614,"constituency":7615,"tend":7616,"dod":7617,"##hammad":7618,"possibly":7619,"engines":7620,"alexand":7621,"adap":7622,"throw":7623,"limit":7624,"medium":7625,"entrance":7626,"monument":7627,"enfor":7628,"equival":7629,"instruct":7630,"##acent":7631,"counties":7632,"mining":7633,"1899":7634,"inaug":7635,"task":7636,"protect":7637,"engineers":7638,"indonesia":7639,"margaret":7640,"jenn":7641,"yor":7642,"cycle":7643,"recre":7644,"hollywood":7645,"none":7646,"views":7647,"##outs":7648,"decre":7649,"recipients":7650,"trophy":7651,"##chi":7652,"courts":7653,"physics":7654,"shir":7655,"twin":7656,"femin":7657,"objects":7658,"profession":7659,"##ew":7660,"amend":7661,"##erts":7662,"lakes":7663,"##ologies":7664,"cleveland":7665,"ric":7666,"##istol":7667,"invasion":7668,"ryan":7669,"teachers":7670,"ministers":7671,"correct":7672,"##heas":7673,"##din":7674,"##ladesh":7675,"contributed":7676,"patients":7677,"bangladesh":7678,"painters":7679,"touchdown":7680,"collections":7681,"organisation":7682,"acid":7683,"##cop":7684,"refuge":7685,"extension":7686,"alleged":7687,"factor":7688,"donald":7689,"submar":7690,"shall":7691,"##oa":7692,"utah":7693,"##redited":7694,"tig":7695,"users":7696,"registered":7697,"serge":7698,"desert":7699,"manufacturing":7700,"diocese":7701,"knock":7702,"##icts":7703,"mathematics":7704,"trained":7705,"session":7706,"mik":7707,"##agh":7708,"merged":7709,"164":7710,"pierre":7711,"ceremony":7712,"trou":7713,"vision":7714,"##enh":7715,"shah":7716,"##life":7717,"##set":7718,"ic":7719,"toward":7720,"sty":7721,"discovery":7722,"gymn":7723,"penins":7724,"illustr":7725,"witness":7726,"172":7727,"qualifying":7728,"shooting":7729,"employees":7730,"afghan":7731,"producing":7732,"defunct":7733,"proced":7734,"bruce":7735,"emphas":7736,"##agues":7737,"contained":7738,"atlanta":7739,"1895":7740,"composers":7741,"finland":7742,"legacy":7743,"laid":7744,"ideas":7745,"successfully":7746,"summ":7747,"peters":7748,"runner":7749,"really":7750,"vert":7751,"magazines":7752,"causes":7753,"emergency":7754,"hud":7755,"molec":7756,"heard":7757,"1890":7758,"##wal":7759,"##uing":7760,"depend":7761,"moment":7762,"dir":7763,"duty":7764,"arn":7765,"belgian":7766,"discography":7767,"ghost":7768,"##orph":7769,"terr":7770,"skills":7771,"lux":7772,"##anian":7773,"soph":7774,"##oen":7775,"bid":7776,"trying":7777,"mack":7778,"warri":7779,"##ading":7780,"invited":7781,"##mi":7782,"singing":7783,"extrem":7784,"lac":7785,"benn":7786,"expos":7787,"##borough":7788,"##oz":7789,"adjacent":7790,"##ecution":7791,"##ographical":7792,"canc":7793,"##uma":7794,"##ables":7795,"tail":7796,"pse":7797,"sacr":7798,"1896":7799,"py":7800,"vinc":7801,"retail":7802,"user":7803,"##eless":7804,"1897":7805,"nord":7806,"##ructure":7807,"inher":7808,"importance":7809,"subd":7810,"yug":7811,"abc":7812,"passes":7813,"values":7814,"strength":7815,"ja":7816,"173":7817,"fantasy":7818,"##fully":7819,"exerc":7820,"finishing":7821,"credit":7822,"tow":7823,"mps":7824,"sought":7825,"fit":7826,"##cha":7827,"photograph":7828,"vin":7829,"poems":7830,"statement":7831,"##ando":7832,"evening":7833,"ult":7834,"169":7835,"ancest":7836,"producers":7837,"baltim":7838,"papers":7839,"socialist":7840,"techniques":7841,"gent":7842,"resigned":7843,"scientists":7844,"involving":7845,"barn":7846,"downtown":7847,"pel":7848,"baltimore":7849,"revival":7850,"emot":7851,"guine":7852,"167":7853,"contrast":7854,"168":7855,"##iled":7856,"inhabitants":7857,"jimmy":7858,"##ete":7859,"profit":7860,"seattle":7861,"expressed":7862,"reaching":7863,"russell":7864,"courses":7865,"starts":7866,"12th":7867,"sleep":7868,"judges":7869,"##lon":7870,"tak":7871,"swimming":7872,"decades":7873,"sweet":7874,"monarch":7875,"01":7876,"quite":7877,"morgan":7878,"monaster":7879,"##rete":7880,"pittsburgh":7881,"brick":7882,"pseud":7883,"##udi":7884,"beautiful":7885,"##umin":7886,"saints":7887,"rav":7888,"##emen":7889,"getting":7890,"romania":7891,"serbian":7892,"invent":7893,"jacob":7894,"maintained":7895,"kos":7896,"karl":7897,"kelly":7898,"billy":7899,"##heastern":7900,"tick":7901,"drink":7902,"##oust":7903,"defensive":7904,"romanian":7905,"museums":7906,"venezuel":7907,"promote":7908,"coastal":7909,"drag":7910,"membership":7911,"imag":7912,"##adi":7913,"##come":7914,"voted":7915,"circle":7916,"associate":7917,"opportunity":7918,"heavily":7919,"persons":7920,"shaped":7921,"request":7922,"##fri":7923,"8th":7924,"documents":7925,"cot":7926,"ones":7927,"loy":7928,"##apolis":7929,"causing":7930,"gender":7931,"haz":7932,"consisting":7933,"commune":7934,"##ayan":7935,"headed":7936,"vik":7937,"13th":7938,"ottoman":7939,"saturday":7940,"##isf":7941,"disney":7942,"cov":7943,"device":7944,"##rees":7945,"transition":7946,"nut":7947,"electron":7948,"christopher":7949,"rib":7950,"improved":7951,"violin":7952,"butter":7953,"assess":7954,"##liest":7955,"lun":7956,"##uri":7957,"perfect":7958,"lod":7959,"carp":7960,"seconds":7961,"actual":7962,"residential":7963,"##usal":7964,"breed":7965,"coc":7966,"backing":7967,"proved":7968,"settle":7969,"honorary":7970,"diamond":7971,"underground":7972,"##angel":7973,"pale":7974,"stores":7975,"mond":7976,"bund":7977,"foss":7978,"injured":7979,"600":7980,"##zer":7981,"installed":7982,"##ski":7983,"bun":7984,"adapted":7985,"pant":7986,"1893":7987,"cha":7988,"phen":7989,"165":7990,"##dd":7991,"offensive":7992,"1889":7993,"chance":7994,"oblast":7995,"uss":7996,"##iac":7997,"hired":7998,"mars":7999,"##ontin":8000,"##otte":8001,"drawn":8002,"sut":8003,"shan":8004,"michel":8005,"ahead":8006,"flower":8007,"1892":8008,"120":8009,"##aceae":8010,"indigen":8011,"2000s":8012,"photo":8013,"occas":8014,"##ctic":8015,"relief":8016,"improve":8017,"volley":8018,"rebu":8019,"calling":8020,"eu":8021,"contributions":8022,"landing":8023,"grounds":8024,"162":8025,"pup":8026,"lud":8027,"humans":8028,"singh":8029,"drivers":8030,"##rec":8031,"distributed":8032,"revol":8033,"engaged":8034,"battles":8035,"cs":8036,"finnish":8037,"norman":8038,"chanc":8039,"cla":8040,"10th":8041,"conte":8042,"cord":8043,"##lev":8044,"goods":8045,"glas":8046,"collaboration":8047,"##aham":8048,"15th":8049,"##anny":8050,"##anz":8051,"##iven":8052,"newspapers":8053,"sections":8054,"##gow":8055,"##wich":8056,"nurs":8057,"johnny":8058,"typical":8059,"winds":8060,"##ensions":8061,"truth":8062,"##eased":8063,"amaz":8064,"##pson":8065,"solar":8066,"gulf":8067,"grav":8068,"campbell":8069,"##mus":8070,"gets":8071,"exact":8072,"authors":8073,"hunter":8074,"##wall":8075,"##ipping":8076,"cler":8077,"belief":8078,"##hal":8079,"collect":8080,"joining":8081,"##eta":8082,"1885":8083,"hampshire":8084,"ug":8085,"commissioner":8086,"mental":8087,"dallas":8088,"stewart":8089,"elder":8090,"hurric":8091,"rhyth":8092,"1894":8093,"vienna":8094,"ranking":8095,"##anne":8096,"drew":8097,"orle":8098,"experi":8099,"neighbour":8100,"perh":8101,"reaction":8102,"cul":8103,"parallel":8104,"##dr":8105,"stating":8106,"km²":8107,"maine":8108,"ridge":8109,"entirely":8110,"pig":8111,"instruments":8112,"pic":8113,"describes":8114,"wine":8115,"##nia":8116,"##kes":8117,"doubles":8118,"argentine":8119,"sequence":8120,"perhaps":8121,"comed":8122,"dragon":8123,"routes":8124,"##lying":8125,"nelson":8126,"observed":8127,"insurance":8128,"##iki":8129,"compete":8130,"enl":8131,"##intend":8132,"##bir":8133,"adams":8134,"##cia":8135,"##iti":8136,"ruled":8137,"cryst":8138,"therap":8139,"1891":8140,"indigenous":8141,"marshall":8142,"photography":8143,"colony":8144,"bog":8145,"250":8146,"sarah":8147,"decade":8148,"branc":8149,"infrast":8150,"combination":8151,"assistance":8152,"closely":8153,"costs":8154,"denn":8155,"venues":8156,"creative":8157,"chand":8158,"bernard":8159,"communes":8160,"##olo":8161,"##do":8162,"liqu":8163,"endemic":8164,"substit":8165,"depos":8166,"ceo":8167,"archbish":8168,"##aling":8169,"crossing":8170,"diet":8171,"designer":8172,"sult":8173,"database":8174,"og":8175,"bridges":8176,"tob":8177,"##ailand":8178,"##boards":8179,"broadway":8180,"thompson":8181,"800":8182,"##oni":8183,"rating":8184,"gross":8185,"##inae":8186,"satellite":8187,"##ials":8188,"orleans":8189,"anch":8190,"substant":8191,"##rac":8192,"##enz":8193,"tact":8194,"items":8195,"regarded":8196,"##organ":8197,"##ais":8198,"inner":8199,"cous":8200,"thailand":8201,"habitat":8202,"##iner":8203,"austin":8204,"interests":8205,"bin":8206,"rum":8207,"artistic":8208,"nas":8209,"pc":8210,"gary":8211,"kennedy":8212,"understanding":8213,"rowspan":8214,"leban":8215,"##taining":8216,"leads":8217,"14th":8218,"frag":8219,"poets":8220,"##ocated":8221,"gardens":8222,"displ":8223,"##while":8224,"rig":8225,"franklin":8226,"file":8227,"affected":8228,"briefly":8229,"stages":8230,"notably":8231,"dh":8232,"heads":8233,"terminal":8234,"fifa":8235,"operate":8236,"cod":8237,"argued":8238,"purchase":8239,"prefecture":8240,"pus":8241,"manusc":8242,"hend":8243,"nak":8244,"seems":8245,"additionally":8246,"premiered":8247,"9th":8248,"##bach":8249,"starred":8250,"rice":8251,"capture":8252,"yugoslav":8253,"revolutionary":8254,"ski":8255,"enroll":8256,"restaurant":8257,"##leton":8258,"nash":8259,"##tm":8260,"encycl":8261,"passengers":8262,"alco":8263,"mak":8264,"##mingham":8265,"prisoners":8266,"everything":8267,"reduce":8268,"stanley":8269,"##apped":8270,"assass":8271,"driving":8272,"liverpool":8273,"nickn":8274,"##alia":8275,"##chell":8276,"juris":8277,"shore":8278,"universe":8279,"carib":8280,"1888":8281,"##ders":8282,"##eed":8283,"resolution":8284,"gur":8285,"##ycle":8286,"romantic":8287,"ambassador":8288,"spiritual":8289,"chor":8290,"expression":8291,"##kar":8292,"soldier":8293,"concluded":8294,"genera":8295,"editions":8296,"pitch":8297,"##uits":8298,"11th":8299,"designs":8300,"masters":8301,"ng":8302,"hid":8303,"explos":8304,"bom":8305,"earliest":8306,"ted":8307,"##mat":8308,"wright":8309,"##itals":8310,"marketing":8311,"volleyball":8312,"carlos":8313,"##inian":8314,"easily":8315,"isol":8316,"##ogy":8317,"##lusion":8318,"yu":8319,"releg":8320,"opposite":8321,"sugar":8322,"##car":8323,"margin":8324,"victims":8325,"hab":8326,"rena":8327,"mong":8328,"wes":8329,"guitarist":8330,"thin":8331,"adventure":8332,"attached":8333,"didn":8334,"committed":8335,"peninsula":8336,"tong":8337,"morris":8338,"kum":8339,"carter":8340,"eval":8341,"vas":8342,"equivalent":8343,"##ashi":8344,"painted":8345,"baker":8346,"##urt":8347,"hut":8348,"journalists":8349,"strategy":8350,"buy":8351,"colspan":8352,"mechanism":8353,"##verty":8354,"robinson":8355,"##ovo":8356,"returns":8357,"franchise":8358,"pian":8359,"cypr":8360,"poem":8361,"flowers":8362,"fib":8363,"retr":8364,"osc":8365,"1865":8366,"163":8367,"bishops":8368,"mail":8369,"context":8370,"murray":8371,"birmingham":8372,"storage":8373,"71":8374,"circum":8375,"enh":8376,"ages":8377,"liga":8378,"infrastructure":8379,"legislation":8380,"##uster":8381,"horror":8382,"61":8383,"jason":8384,"brooklyn":8385,"nan":8386,"testing":8387,"##rin":8388,"charter":8389,"rescue":8390,"filmography":8391,"lp":8392,"participate":8393,"wet":8394,"consc":8395,"##iop":8396,"cloth":8397,"hub":8398,"thing":8399,"measures":8400,"ian":8401,"nova":8402,"repeated":8403,"##etime":8404,"1880":8405,"graham":8406,"##ven":8407,"credits":8408,"goth":8409,"sig":8410,"explor":8411,"poverty":8412,"factors":8413,"instrumental":8414,"leaf":8415,"scheme":8416,"sisters":8417,"##issions":8418,"chess":8419,"##ucks":8420,"lig":8421,"1887":8422,"appropr":8423,"##entially":8424,"alp":8425,"historians":8426,"rooms":8427,"chose":8428,"advantage":8429,"charges":8430,"controversy":8431,"math":8432,"stands":8433,"videos":8434,"portland":8435,"##ucing":8436,"raw":8437,"##iya":8438,"##ports":8439,"mode":8440,"accused":8441,"honors":8442,"eug":8443,"jar":8444,"degrees":8445,"survived":8446,"territories":8447,"encyclop":8448,"businesses":8449,"credited":8450,"cavalry":8451,"camera":8452,"kun":8453,"laboratory":8454,"diagn":8455,"##ussion":8456,"window":8457,"tries":8458,"marit":8459,"##father":8460,"autonom":8461,"##die":8462,"nba":8463,"ther":8464,"reconst":8465,"lion":8466,"guid":8467,"devices":8468,"cable":8469,"eat":8470,"disord":8471,"showing":8472,"musc":8473,"temporary":8474,"superior":8475,"mason":8476,"veget":8477,"wonder":8478,"fired":8479,"nazi":8480,"ivan":8481,"portrait":8482,"##nie":8483,"regulations":8484,"##pm":8485,"dakota":8486,"##lington":8487,"renov":8488,"##rons":8489,"networks":8490,"##bot":8491,"ri":8492,"scand":8493,"suicide":8494,"lanka":8495,"##heless":8496,"##eno":8497,"##rant":8498,"joy":8499,"##rate":8500,"surf":8501,"admiral":8502,"congreg":8503,"thirty":8504,"assault":8505,"racial":8506,"##oka":8507,"##orial":8508,"1886":8509,"##ingham":8510,"##orf":8511,"harm":8512,"fruit":8513,"##hetic":8514,"difference":8515,"praised":8516,"au":8517,"furn":8518,"insc":8519,"thick":8520,"bak":8521,"andy":8522,"wire":8523,"regularly":8524,"##estyle":8525,"eighth":8526,"biggest":8527,"dress":8528,"prohib":8529,"executed":8530,"rico":8531,"##pass":8532,"maintain":8533,"##igation":8534,"otherwise":8535,"cash":8536,"##key":8537,"81":8538,"coalition":8539,"repr":8540,"tourist":8541,"zero":8542,"##net":8543,"scholarship":8544,"damaged":8545,"unus":8546,"transit":8547,"##rome":8548,"charlie":8549,"delivered":8550,"catch":8551,"##low":8552,"operates":8553,"159":8554,"telep":8555,"springs":8556,"##emble":8557,"##load":8558,"lan":8559,"yorkshire":8560,"alcohol":8561,"##ographics":8562,"reun":8563,"delay":8564,"torn":8565,"cards":8566,"##yard":8567,"wounded":8568,"ml":8569,"sharp":8570,"evans":8571,"1861":8572,"mouth":8573,"##hard":8574,"arranged":8575,"benj":8576,"##tha":8577,"barry":8578,"corporate":8579,"expert":8580,"crowd":8581,"symphony":8582,"##iah":8583,"##oda":8584,"yout":8585,"abbey":8586,"responsibility":8587,"tourism":8588,"##ommod":8589,"remember":8590,"accur":8591,"warren":8592,"dismiss":8593,"1864":8594,"##ranean":8595,"kath":8596,"allied":8597,"##rent":8598,"##ruption":8599,"tack":8600,"demographics":8601,"tech":8602,"kg":8603,"##efa":8604,"wayne":8605,"##aware":8606,"##iling":8607,"##urg":8608,"va":8609,"daughters":8610,"lgb":8611,"carrying":8612,"##etta":8613,"publisher":8614,"##ifer":8615,"dating":8616,"ownership":8617,"debuted":8618,"fishing":8619,"stro":8620,"plane":8621,"shield":8622,"accommod":8623,"experimental":8624,"questions":8625,"commerce":8626,"neut":8627,"##laim":8628,"turns":8629,"charged":8630,"resign":8631,"##oba":8632,"pharm":8633,"caught":8634,"coff":8635,"wedd":8636,"##utation":8637,"parent":8638,"##bul":8639,"1884":8640,"noble":8641,"atm":8642,"kilomet":8643,"prad":8644,"merchant":8645,"represents":8646,"bears":8647,"electrical":8648,"fixed":8649,"severe":8650,"iranian":8651,"message":8652,"kin":8653,"childhood":8654,"safe":8655,"recall":8656,"temp":8657,"domain":8658,"mills":8659,"mediter":8660,"buffalo":8661,"##yt":8662,"##going":8663,"tort":8664,"erect":8665,"rit":8666,"91":8667,"constitutional":8668,"madrid":8669,"linked":8670,"occupation":8671,"tie":8672,"replace":8673,"##bean":8674,"knights":8675,"phoen":8676,"diction":8677,"landscape":8678,"nr":8679,"movies":8680,"blog":8681,"sultan":8682,"1881":8683,"policies":8684,"uefa":8685,"##gate":8686,"thousands":8687,"##oh":8688,"sah":8689,"chemistry":8690,"egyptian":8691,"worksh":8692,"##attan":8693,"voiv":8694,"happy":8695,"finding":8696,"##uda":8697,"operational":8698,"1870":8699,"##apping":8700,"drop":8701,"crash":8702,"meanwhile":8703,"##hesis":8704,"centers":8705,"pure":8706,"coverage":8707,"learn":8708,"##aman":8709,"vul":8710,"legislature":8711,"hindu":8712,"silent":8713,"##umber":8714,"pron":8715,"1863":8716,"determine":8717,"progressive":8718,"gone":8719,"pd":8720,"tribe":8721,"tib":8722,"marath":8723,"lock":8724,"learned":8725,"prepared":8726,"descend":8727,"baptist":8728,"purposes":8729,"sword":8730,"aspects":8731,"medals":8732,"1920s":8733,"manh":8734,"##illy":8735,"width":8736,"rejected":8737,"##enne":8738,"transc":8739,"forum":8740,"brew":8741,"preced":8742,"warner":8743,"commem":8744,"richmond":8745,"guards":8746,"glasgow":8747,"lgbt":8748,"easy":8749,"hosts":8750,"soil":8751,"##ront":8752,"subjects":8753,"imprison":8754,"speaker":8755,"restored":8756,"##illo":8757,"delhi":8758,"coaching":8759,"##asi":8760,"##iri":8761,"grace":8762,"rhythm":8763,"azerb":8764,"requirements":8765,"hyper":8766,"duties":8767,"eleven":8768,"bail":8769,"summary":8770,"##rix":8771,"incorpor":8772,"##acht":8773,"azerbai":8774,"serbia":8775,"practices":8776,"1862":8777,"definition":8778,"hawaii":8779,"tunnel":8780,"admitted":8781,"sz":8782,"##antly":8783,"cbs":8784,"opinion":8785,"panel":8786,"barbara":8787,"##eenth":8788,"extremely":8789,"jama":8790,"ports":8791,"agencies":8792,"disappear":8793,"##60":8794,"beauty":8795,"stret":8796,"archbishop":8797,"##oker":8798,"##encing":8799,"##arn":8800,"vary":8801,"businessman":8802,"strategic":8803,"losses":8804,"lingu":8805,"1882":8806,"battery":8807,"restoration":8808,"##vere":8809,"vanc":8810,"airlines":8811,"percussion":8812,"##oria":8813,"industries":8814,"choir":8815,"frances":8816,"technique":8817,"festivals":8818,"milan":8819,"##fo":8820,"benjamin":8821,"##22":8822,"organis":8823,"blo":8824,"toy":8825,"weak":8826,"meters":8827,"entre":8828,"divor":8829,"rising":8830,"solution":8831,"guer":8832,"mounted":8833,"victorian":8834,"pink":8835,"genre":8836,"origins":8837,"##mund":8838,"wag":8839,"architectural":8840,"giant":8841,"##ouver":8842,"markets":8843,"stu":8844,"gabri":8845,"gear":8846,"##ilst":8847,"accompanied":8848,"guinea":8849,"employment":8850,"##ocol":8851,"peru":8852,"##nat":8853,"hob":8854,"monitor":8855,"kw":8856,"youtube":8857,"separated":8858,"##ario":8859,"##pers":8860,"depth":8861,"costa":8862,"##utt":8863,"arrival":8864,"sib":8865,"components":8866,"ride":8867,"debate":8868,"railways":8869,"channels":8870,"##ishers":8871,"quart":8872,"amendment":8873,"repair":8874,"stood":8875,"boundary":8876,"acoust":8877,"differences":8878,"basin":8879,"afterwards":8880,"missions":8881,"forests":8882,"tip":8883,"frequency":8884,"heb":8885,"sustain":8886,"filled":8887,"alaska":8888,"summit":8889,"pyr":8890,"clock":8891,"retained":8892,"##acle":8893,"relative":8894,"luis":8895,"upgr":8896,"##alis":8897,"tier":8898,"##uccess":8899,"kap":8900,"friendly":8901,"compr":8902,"mediterranean":8903,"roughly":8904,"fitz":8905,"mitchell":8906,"tests":8907,"till":8908,"##enburg":8909,"gaz":8910,"rifle":8911,"bic":8912,"cc":8913,"unsuccess":8914,"cited":8915,"replacement":8916,"sul":8917,"wildlife":8918,"triple":8919,"rates":8920,"switch":8921,"pont":8922,"defeating":8923,"wooden":8924,"flash":8925,"tri":8926,"meets":8927,"assumed":8928,"portrayed":8929,"##holder":8930,"##master":8931,"induct":8932,"##uki":8933,"vancouver":8934,"mainten":8935,"nebr":8936,"semif":8937,"charity":8938,"bible":8939,"ral":8940,"manner":8941,"vessels":8942,"josh":8943,"bind":8944,"##ipe":8945,"manga":8946,"apple":8947,"luther":8948,"surgery":8949,"jonathan":8950,"##roc":8951,"bio":8952,"tools":8953,"1883":8954,"covering":8955,"##lie":8956,"tigers":8957,"##orship":8958,"processes":8959,"voivodes":8960,"155":8961,"depression":8962,"recept":8963,"##ogle":8964,"whilst":8965,"hull":8966,"visitors":8967,"select":8968,"activist":8969,"##owski":8970,"alice":8971,"experienced":8972,"nomination":8973,"nbc":8974,"indians":8975,"dna":8976,"option":8977,"significantly":8978,"tub":8979,"tied":8980,"ig":8981,"stopped":8982,"maintenance":8983,"initiative":8984,"##mel":8985,"encoun":8986,"persp":8987,"achievement":8988,"personality":8989,"kor":8990,"output":8991,"mines":8992,"voivodeship":8993,"##ture":8994,"archaeological":8995,"moll":8996,"1878":8997,"changing":8998,"forb":8999,"130":9000,"##fast":9001,"##usalem":9002,"stamp":9003,"alberta":9004,"157":9005,"movements":9006,"caribbean":9007,"hav":9008,"curt":9009,"##arus":9010,"##rot":9011,"ris":9012,"horiz":9013,"mini":9014,"griff":9015,"nevada":9016,"successor":9017,"suit":9018,"kiss":9019,"ech":9020,"struck":9021,"##night":9022,"pand":9023,"anime":9024,"archives":9025,"concerns":9026,"vlad":9027,"license":9028,"lis":9029,"##enberg":9030,"mechanical":9031,"##ws":9032,"paraly":9033,"mey":9034,"depending":9035,"scr":9036,"adaptation":9037,"nebraska":9038,"shock":9039,"popularity":9040,"isa":9041,"jerusalem":9042,"interested":9043,"##zi":9044,"antar":9045,"##gi":9046,"classified":9047,"locality":9048,"earn":9049,"pradesh":9050,"intellect":9051,"capable":9052,"##eria":9053,"eliminated":9054,"##anche":9055,"rebell":9056,"slovak":9057,"lag":9058,"##eda":9059,"https":9060,"blind":9061,"threatened":9062,"pent":9063,"1876":9064,"##ecess":9065,"maritime":9066,"ago":9067,"wang":9068,"formally":9069,"##olia":9070,"dual":9071,"declar":9072,"martial":9073,"##nan":9074,"boats":9075,"powered":9076,"turner":9077,"##yers":9078,"pret":9079,"integrated":9080,"##gests":9081,"ensure":9082,"playoffs":9083,"colombia":9084,"plain":9085,"coron":9086,"rou":9087,"##state":9088,"scope":9089,"nigeria":9090,"##aa":9091,"wrong":9092,"crus":9093,"locomotives":9094,"bacter":9095,"runners":9096,"##feld":9097,"##fam":9098,"##21":9099,"ns":9100,"helic":9101,"suggests":9102,"ip":9103,"trading":9104,"renew":9105,"jerry":9106,"requires":9107,"provision":9108,"clinical":9109,"climb":9110,"1000":9111,"forming":9112,"wik":9113,"standings":9114,"concrete":9115,"dw":9116,"nicholas":9117,"##erald":9118,"continuing":9119,"##25":9120,"pleas":9121,"caf":9122,"criticized":9123,"##fare":9124,"worship":9125,"rangers":9126,"1879":9127,"participation":9128,"clan":9129,"glac":9130,"hispan":9131,"visiting":9132,"processing":9133,"##ascar":9134,"voy":9135,"accounts":9136,"boss":9137,"lav":9138,"bristol":9139,"representation":9140,"##ielder":9141,"google":9142,"1860":9143,"send":9144,"filmed":9145,"driven":9146,"##boy":9147,"158":9148,"atmosp":9149,"breaking":9150,"parker":9151,"bert":9152,"rut":9153,"volumes":9154,"acquis":9155,"nun":9156,"fasc":9157,"##yon":9158,"##opes":9159,"serial":9160,"psychology":9161,"trinity":9162,"drawing":9163,"characteristics":9164,"cyl":9165,"foster":9166,"segment":9167,"##mill":9168,"democrats":9169,"##stad":9170,"##jab":9171,"modified":9172,"prol":9173,"##ieves":9174,"lob":9175,"talent":9176,"##enson":9177,"charlotte":9178,"philippine":9179,"flows":9180,"continental":9181,"hurricane":9182,"offering":9183,"geomet":9184,"##iden":9185,"arrest":9186,"1875":9187,"evil":9188,"speak":9189,"aar":9190,"patrol":9191,"##osph":9192,"phone":9193,"mull":9194,"##ulus":9195,"##uous":9196,"wed":9197,"##donald":9198,"statist":9199,"##iciency":9200,"animation":9201,"afghanistan":9202,"##tz":9203,"ecc":9204,"branches":9205,"equipped":9206,"thunder":9207,"benefit":9208,"nad":9209,"arabic":9210,"##atically":9211,"maced":9212,"rar":9213,"anything":9214,"cinc":9215,"yam":9216,"lions":9217,"##haw":9218,"chi":9219,"phr":9220,"jurisd":9221,"das":9222,"monastery":9223,"ready":9224,"dated":9225,"extreme":9226,"participants":9227,"##ication":9228,"oliver":9229,"##antine":9230,"rhod":9231,"##iko":9232,"minimum":9233,"monte":9234,"taxonom":9235,"immig":9236,"appearing":9237,"sic":9238,"len":9239,"1867":9240,"gw":9241,"assign":9242,"shift":9243,"anat":9244,"quad":9245,"sung":9246,"exception":9247,"agents":9248,"revenue":9249,"timber":9250,"##aments":9251,"vern":9252,"thro":9253,"##nik":9254,"sculpture":9255,"##ception":9256,"1877":9257,"anglic":9258,"telec":9259,"stayed":9260,"1871":9261,"##23":9262,"bour":9263,"harrison":9264,"withdraw":9265,"##estone":9266,"kay":9267,"chancell":9268,"entering":9269,"##eva":9270,"cultiv":9271,"kol":9272,"ft":9273,"1868":9274,"raise":9275,"gust":9276,"influential":9277,"##oga":9278,"collins":9279,"check":9280,"vincent":9281,"##rose":9282,"adding":9283,"advertising":9284,"crimes":9285,"hein":9286,"theod":9287,"outer":9288,"ble":9289,"##ilit":9290,"sporting":9291,"themes":9292,"##ido":9293,"keyboards":9294,"prel":9295,"broadc":9296,"phoenix":9297,"bringing":9298,"1874":9299,"##rehens":9300,"cave":9301,"##ulu":9302,"seb":9303,"##abled":9304,"gau":9305,"##equ":9306,"dy":9307,"##ding":9308,"adults":9309,"releases":9310,"seal":9311,"maps":9312,"occasionally":9313,"wake":9314,"sloven":9315,"subsidi":9316,"##urers":9317,"##otype":9318,"surviv":9319,"instance":9320,"indoor":9321,"croatian":9322,"principles":9323,"filip":9324,"spoken":9325,"##cement":9326,"marvel":9327,"scout":9328,"radical":9329,"##hum":9330,"manhattan":9331,"##isb":9332,"absor":9333,"anthrop":9334,"adela":9335,"##vement":9336,"tap":9337,"##olid":9338,"##imir":9339,"uncredited":9340,"vessel":9341,"casual":9342,"handed":9343,"resid":9344,"democracy":9345,"110":9346,"##olic":9347,"mul":9348,"craig":9349,"rounds":9350,"muhammad":9351,"##friend":9352,"nit":9353,"roots":9354,"architects":9355,"lloy":9356,"kirk":9357,"voting":9358,"biology":9359,"1872":9360,"sponsored":9361,"eagle":9362,"##ivan":9363,"weekend":9364,"mud":9365,"illustrated":9366,"random":9367,"##amental":9368,"ninth":9369,"celebrated":9370,"##iors":9371,"##othy":9372,"whereas":9373,"##sea":9374,"1873":9375,"illegal":9376,"cock":9377,"penalty":9378,"cousin":9379,"appointment":9380,"sao":9381,"supposed":9382,"nepal":9383,"stal":9384,"beij":9385,"hunting":9386,"hugh":9387,"##aca":9388,"chel":9389,"terry":9390,"##ophone":9391,"moder":9392,"satisf":9393,"##uts":9394,"secure":9395,"surviving":9396,"##orted":9397,"glen":9398,"replacing":9399,"printed":9400,"siege":9401,"guil":9402,"styles":9403,"##enses":9404,"peer":9405,"herbert":9406,"decline":9407,"##oca":9408,"cuba":9409,"scientist":9410,"grown":9411,"retre":9412,"incumb":9413,"montana":9414,"jobs":9415,"midd":9416,"##what":9417,"inqu":9418,"1940s":9419,"proposal":9420,"drugs":9421,"horses":9422,"##kov":9423,"weapon":9424,"##omen":9425,"alger":9426,"##rimin":9427,"sak":9428,"##rett":9429,"lip":9430,"deut":9431,"jung":9432,"cn":9433,"##ingly":9434,"optim":9435,"aber":9436,"tribes":9437,"##ikh":9438,"##aha":9439,"premiere":9440,"surge":9441,"nu":9442,"peaked":9443,"mold":9444,"somewhat":9445,"colle":9446,"##idad":9447,"longest":9448,"nhl":9449,"mend":9450,"156":9451,"versus":9452,"##obi":9453,"##coming":9454,"##wig":9455,"acoustic":9456,"##gradu":9457,"##away":9458,"everyone":9459,"wedding":9460,"##jar":9461,"##izz":9462,"smart":9463,"teach":9464,"pioneer":9465,"pm":9466,"riding":9467,"cincinn":9468,"baronet":9469,"##folk":9470,"licensed":9471,"giants":9472,"barcel":9473,"duo":9474,"peop":9475,"happened":9476,"hir":9477,"1866":9478,"jury":9479,"adopt":9480,"intermed":9481,"earthqu":9482,"##alf":9483,"##rat":9484,"achieve":9485,"skill":9486,"understand":9487,"buc":9488,"##cing":9489,"##eto":9490,"annually":9491,"commemor":9492,"virtual":9493,"marks":9494,"##aco":9495,"reputation":9496,"cather":9497,"reprod":9498,"beijing":9499,"involvement":9500,"canton":9501,"gol":9502,"huge":9503,"organisations":9504,"truck":9505,"botan":9506,"heir":9507,"larry":9508,"keith":9509,"125":9510,"farmers":9511,"persian":9512,"passage":9513,"experiences":9514,"friday":9515,"seek":9516,"fold":9517,"roster":9518,"transmission":9519,"yang":9520,"##amer":9521,"sessions":9522,"demolished":9523,"gamb":9524,"##rus":9525,"wells":9526,"hann":9527,"completion":9528,"declined":9529,"submarine":9530,"helping":9531,"pruss":9532,"aggreg":9533,"##endar":9534,"shopping":9535,"##mm":9536,"bug":9537,"2010s":9538,"##ashed":9539,"cincinnati":9540,"prest":9541,"sudden":9542,"preserved":9543,"bobby":9544,"kle":9545,"##rie":9546,"pine":9547,"provinces":9548,"bald":9549,"##ivia":9550,"##emp":9551,"recur":9552,"paralymp":9553,"journals":9554,"trig":9555,"##hill":9556,"##fs":9557,"competing":9558,"borders":9559,"touring":9560,"technologies":9561,"masc":9562,"lex":9563,"venue":9564,"byz":9565,"##ropod":9566,"consp":9567,"rolling":9568,"madison":9569,"neither":9570,"peoples":9571,"palm":9572,"wu":9573,"punjab":9574,"researchers":9575,"##gart":9576,"sufficient":9577,"##ulum":9578,"contribution":9579,"competitive":9580,"cort":9581,"serie":9582,"filed":9583,"voiced":9584,"nominations":9585,"kab":9586,"harbor":9587,"tribut":9588,"lloyd":9589,"vit":9590,"belt":9591,"ki":9592,"shadow":9593,"overview":9594,"discip":9595,"affiliated":9596,"explained":9597,"depict":9598,"facing":9599,"moroc":9600,"sevent":9601,"lawyers":9602,"cardinal":9603,"couples":9604,"entrepr":9605,"grave":9606,"elig":9607,"##esis":9608,"surrender":9609,"##kan":9610,"ced":9611,"patron":9612,"##atern":9613,"##omon":9614,"adelaide":9615,"700":9616,"##encer":9617,"##ige":9618,"aj":9619,"photos":9620,"increasingly":9621,"##aho":9622,"hispanic":9623,"dictionary":9624,"valid":9625,"lind":9626,"strongly":9627,"hudson":9628,"##24":9629,"pole":9630,"warm":9631,"signs":9632,"##oko":9633,"cp":9634,"patient":9635,"hundreds":9636,"##ripts":9637,"harold":9638,"bent":9639,"monthly":9640,"##yne":9641,"##inter":9642,"apost":9643,"texts":9644,"##chang":9645,"htm":9646,"outd":9647,"butler":9648,"1869":9649,"commons":9650,"spell":9651,"essential":9652,"grandfather":9653,"answer":9654,"punk":9655,"ratio":9656,"tet":9657,"nur":9658,"turning":9659,"entreprene":9660,"considerable":9661,"##inction":9662,"icel":9663,"seeds":9664,"hence":9665,"liquid":9666,"motors":9667,"signing":9668,"statue":9669,"steven":9670,"triang":9671,"reservoir":9672,"bulgarian":9673,"biological":9674,"reinfor":9675,"##erg":9676,"boxing":9677,"##eli":9678,"neil":9679,"##nell":9680,"amongst":9681,"154":9682,"##gets":9683,"##iated":9684,"cosm":9685,"ghana":9686,"uniform":9687,"##lishments":9688,"bengal":9689,"blocks":9690,"##opp":9691,"manif":9692,"##acher":9693,"##vo":9694,"massive":9695,"waste":9696,"##teenth":9697,"evangel":9698,"wides":9699,"stress":9700,"##oked":9701,"indicate":9702,"##brid":9703,"153":9704,"reporter":9705,"henri":9706,"derby":9707,"heaven":9708,"amster":9709,"barcelona":9710,"yale":9711,"##ogs":9712,"bulgaria":9713,"detailed":9714,"remark":9715,"simpl":9716,"iceland":9717,"##holm":9718,"woods":9719,"##fr":9720,"##cs":9721,"##van":9722,"canon":9723,"inch":9724,"saudi":9725,"cooperation":9726,"meetings":9727,"innings":9728,"munich":9729,"clinton":9730,"indicated":9731,"activists":9732,"pregn":9733,"surrounded":9734,"##unction":9735,"amsterdam":9736,"overseas":9737,"cargo":9738,"undert":9739,"societ":9740,"md":9741,"intellectual":9742,"ferry":9743,"flav":9744,"marry":9745,"##rog":9746,"approval":9747,"photographs":9748,"##agar":9749,"loop":9750,"existed":9751,"catherine":9752,"studying":9753,"##umed":9754,"dil":9755,"elevation":9756,"zur":9757,"rodrig":9758,"guar":9759,"villa":9760,"armenian":9761,"mystery":9762,"pon":9763,"destruction":9764,"##oking":9765,"carrier":9766,"pill":9767,"civilian":9768,"syl":9769,"rd1":9770,"supporters":9771,"apparently":9772,"funded":9773,"tours":9774,"patt":9775,"##inus":9776,"oz":9777,"injuries":9778,"##ju":9779,"##rah":9780,"mick":9781,"tum":9782,"aur":9783,"visible":9784,"##iration":9785,"wo":9786,"##soft":9787,"kids":9788,"##ression":9789,"jet":9790,"##fish":9791,"concerts":9792,"graduating":9793,"thai":9794,"spaces":9795,"duc":9796,"tribute":9797,"statistical":9798,"##raph":9799,"sounds":9800,"ballet":9801,"##ridge":9802,"nest":9803,"##ribute":9804,"tool":9805,"cricketer":9806,"1859":9807,"copper":9808,"##mate":9809,"nerv":9810,"fol":9811,"similarly":9812,"volunteer":9813,"aux":9814,"wants":9815,"desire":9816,"false":9817,"##itarian":9818,"relationships":9819,"controversial":9820,"viewers":9821,"##enos":9822,"sap":9823,"dennis":9824,"rever":9825,"##igo":9826,"corp":9827,"ferr":9828,"guardian":9829,"##echn":9830,"rocks":9831,"governments":9832,"abuse":9833,"screenwrit":9834,"##chy":9835,"legion":9836,"fled":9837,"norfolk":9838,"vermont":9839,"shares":9840,"benefits":9841,"strict":9842,"rhe":9843,"copy":9844,"abroad":9845,"platforms":9846,"##vis":9847,"##istani":9848,"falling":9849,"jefferson":9850,"liberty":9851,"forg":9852,"hebrew":9853,"smo":9854,"##amo":9855,"1850":9856,"comprehens":9857,"sole":9858,"##ester":9859,"merit":9860,"##atar":9861,"##anger":9862,"stem":9863,"##fts":9864,"cotton":9865,"##engt":9866,"manor":9867,"chal":9868,"dangerous":9869,"croatia":9870,"matters":9871,"denied":9872,"knew":9873,"edwards":9874,"##family":9875,"stuart":9876,"prosp":9877,"orn":9878,"trials":9879,"teleph":9880,"##ectors":9881,"##iph":9882,"sull":9883,"pries":9884,"algor":9885,"##after":9886,"ernest":9887,"rated":9888,"##achi":9889,"##roph":9890,"1848":9891,"##break":9892,"managing":9893,"##opl":9894,"youngest":9895,"##castle":9896,"struggle":9897,"perry":9898,"##graduate":9899,"prep":9900,"sier":9901,"sask":9902,"delaware":9903,"walking":9904,"tut":9905,"spider":9906,"citizen":9907,"hearing":9908,"##uration":9909,"helen":9910,"venezuela":9911,"1857":9912,"##enda":9913,"spar":9914,"publishers":9915,"holland":9916,"treated":9917,"##sters":9918,"atom":9919,"holiday":9920,"incidents":9921,"bonus":9922,"bold":9923,"dum":9924,"steps":9925,"##ema":9926,"xx":9927,"competitors":9928,"algorith":9929,"##ieg":9930,"vc":9931,"settlements":9932,"diameter":9933,"counsel":9934,"convicted":9935,"ralph":9936,"effectively":9937,"rush":9938,"recommended":9939,"sheriff":9940,"##keley":9941,"normally":9942,"##uli":9943,"regime":9944,"enterprise":9945,"##stit":9946,"grap":9947,"##ennial":9948,"councill":9949,"harmon":9950,"##gio":9951,"bav":9952,"##ahl":9953,"##ifted":9954,"syria":9955,"alive":9956,"senators":9957,"unusual":9958,"ninet":9959,"kenya":9960,"##helm":9961,"hond":9962,"tyr":9963,"##abilities":9964,"thanks":9965,"operator":9966,"##udes":9967,"denver":9968,"sacred":9969,"supports":9970,"delta":9971,"herz":9972,"gonz":9973,"component":9974,"pi":9975,"embass":9976,"prompt":9977,"##urb":9978,"concerned":9979,"sean":9980,"cartoon":9981,"140":9982,"gilbert":9983,"suspended":9984,"significance":9985,"automatic":9986,"circumst":9987,"eagles":9988,"xi":9989,"##pread":9990,"##via":9991,"birthday":9992,"gosp":9993,"electricity":9994,"tir":9995,"3d":9996,"eddie":9997,"malay":9998,"mys":9999,"cec":10000,"stim":10001,"##fia":10002,"ranks":10003,"mant":10004,"useful":10005,"enforcement":10006,"azerbaijan":10007,"lasted":10008,"##know":10009,"athens":10010,"nc":10011,"widespread":10012,"gap":10013,"specim":10014,"berg":10015,"craft":10016,"orb":10017,"encyclopedia":10018,"jacques":10019,"##70":10020,"sket":10021,"chick":10022,"physician":10023,"populations":10024,"cole":10025,"##ounced":10026,"buddhist":10027,"drummer":10028,"qualification":10029,"##acon":10030,"neck":10031,"leo":10032,"absol":10033,"kas":10034,"departure":10035,"hole":10036,"complic":10037,"sees":10038,"stable":10039,"rogers":10040,"defenders":10041,"muslims":10042,"auto":10043,"scores":10044,"tempor":10045,"anglo":10046,"categories":10047,"tul":10048,"grammar":10049,"##itis":10050,"ide":10051,"ethiop":10052,"berkeley":10053,"##izer":10054,"herald":10055,"sentenced":10056,"keeping":10057,"percentage":10058,"font":10059,"elite":10060,"lights":10061,"##ampton":10062,"wool":10063,"dup":10064,"tales":10065,"arrangement":10066,"suffering":10067,"parad":10068,"exists":10069,"affair":10070,"hed":10071,"vast":10072,"##opol":10073,"105":10074,"##ilia":10075,"manuel":10076,"intention":10077,"consumer":10078,"fung":10079,"adventures":10080,"##avan":10081,"illness":10082,"intersection":10083,"proport":10084,"guild":10085,"luke":10086,"dancing":10087,"acted":10088,"allies":10089,"opportunities":10090,"dock":10091,"donated":10092,"garcia":10093,"##illing":10094,"diseases":10095,"jin":10096,"episcop":10097,"acknow":10098,"##aser":10099,"acclaim":10100,"##eon":10101,"bullet":10102,"##place":10103,"##borne":10104,"supplies":10105,"##liga":10106,"lamb":10107,"alter":10108,"ibn":10109,"aster":10110,"stanford":10111,"minority":10112,"chester":10113,"##lock":10114,"propag":10115,"intent":10116,"customers":10117,"##unc":10118,"attractions":10119,"harbour":10120,"heroes":10121,"ost":10122,"ruth":10123,"##rest":10124,"disestablished":10125,"shaw":10126,"seeking":10127,"##dp":10128,"filming":10129,"saskat":10130,"attributed":10131,"leagues":10132,"ruling":10133,"concentration":10134,"vegas":10135,"thorn":10136,"perm":10137,"genetic":10138,"chan":10139,"##xual":10140,"historically":10141,"begun":10142,"regist":10143,"alpha":10144,"empt":10145,"erected":10146,"susan":10147,"tiger":10148,"ard":10149,"anchor":10150,"##asia":10151,"petersburg":10152,"##90":10153,"manual":10154,"doesn":10155,"##alam":10156,"burg":10157,"obtain":10158,"sop":10159,"cloud":10160,"rally":10161,"sanct":10162,"resource":10163,"playwr":10164,"##osaur":10165,"attracted":10166,"##bow":10167,"capit":10168,"101":10169,"##bel":10170,"perp":10171,"stef":10172,"##keeper":10173,"anglican":10174,"yield":10175,"maz":10176,"laz":10177,"##fly":10178,"hospitals":10179,"subdiv":10180,"makeup":10181,"indicates":10182,"##osc":10183,"##mith":10184,"predecess":10185,"simult":10186,"##esters":10187,"warriors":10188,"moves":10189,"limits":10190,"throne":10191,"implementation":10192,"constituencies":10193,"##amese":10194,"immediate":10195,"alternate":10196,"pall":10197,"greatly":10198,"choose":10199,"traditionally":10200,"rapidly":10201,"simultane":10202,"rebellion":10203,"tiss":10204,"fellowship":10205,"nac":10206,"##usted":10207,"traveled":10208,"##inson":10209,"gradually":10210,"mixing":10211,"chancellor":10212,"coat":10213,"arist":10214,"balance":10215,"brisb":10216,"treaties":10217,"describe":10218,"manufacturers":10219,"dominated":10220,"interc":10221,"vib":10222,"##su":10223,"excav":10224,"abstr":10225,"conj":10226,"contested":10227,"##berry":10228,"exhibitions":10229,"opponents":10230,"ottawa":10231,"##riptions":10232,"reportedly":10233,"hack":10234,"lok":10235,"clothing":10236,"leeds":10237,"slave":10238,"hidden":10239,"christianity":10240,"athlete":10241,"fabric":10242,"brisbane":10243,"mathematic":10244,"practical":10245,"periods":10246,"##ixon":10247,"excess":10248,"occasions":10249,"massac":10250,"##raham":10251,"##asha":10252,"advisory":10253,"spending":10254,"defending":10255,"##ichi":10256,"##agement":10257,"formations":10258,"anyone":10259,"pere":10260,"welf":10261,"ober":10262,"colors":10263,"filmm":10264,"territorial":10265,"christians":10266,"principle":10267,"trio":10268,"gothic":10269,"reed":10270,"voters":10271,"raymond":10272,"posted":10273,"outdoor":10274,"microsoft":10275,"pedro":10276,"seeing":10277,"1854":10278,"1800":10279,"files":10280,"1858":10281,"##agre":10282,"rocket":10283,"essay":10284,"##fielder":10285,"renaissance":10286,"vid":10287,"orch":10288,"widow":10289,"relation":10290,"milk":10291,"thereafter":10292,"chase":10293,"##aba":10294,"remainder":10295,"pakistani":10296,"conductor":10297,"writes":10298,"exceed":10299,"leonard":10300,"resort":10301,"craw":10302,"##uckland":10303,"crystal":10304,"##iaz":10305,"absence":10306,"bone":10307,"##station":10308,"cox":10309,"partial":10310,"explo":10311,"consolid":10312,"auckland":10313,"##iao":10314,"spoke":10315,"northwestern":10316,"ensemble":10317,"lifetime":10318,"liberation":10319,"expect":10320,"rook":10321,"honey":10322,"caps":10323,"sympt":10324,"departments":10325,"##terior":10326,"apartment":10327,"machines":10328,"##eler":10329,"dors":10330,"congressional":10331,"partly":10332,"relev":10333,"##mates":10334,"certific":10335,"cott":10336,"memoir":10337,"lose":10338,"somers":10339,"liz":10340,"##oshi":10341,"fisc":10342,"1855":10343,"fighters":10344,"sebast":10345,"gig":10346,"cliff":10347,"root":10348,"immigration":10349,"passion":10350,"##anni":10351,"cancelled":10352,"ranch":10353,"reduction":10354,"presid":10355,"assets":10356,"##otted":10357,"recommend":10358,"arnold":10359,"frequent":10360,"clim":10361,"ras":10362,"##anga":10363,"napole":10364,"rah":10365,"##aters":10366,"artific":10367,"generated":10368,"riders":10369,"murphy":10370,"disband":10371,"gy":10372,"##ansk":10373,"rebuilt":10374,"bosnia":10375,"bry":10376,"##iji":10377,"##aun":10378,"##itter":10379,"legs":10380,"democrat":10381,"venture":10382,"swit":10383,"calendar":10384,"lowest":10385,"germans":10386,"motorc":10387,"##eme":10388,"##asht":10389,"krist":10390,"procl":10391,"commanded":10392,"compens":10393,"abu":10394,"##onymous":10395,"patent":10396,"extent":10397,"extinct":10398,"bach":10399,"aus":10400,"reh":10401,"myster":10402,"sight":10403,"dogs":10404,"encouraged":10405,"##ener":10406,"resemb":10407,"##ogan":10408,"apply":10409,"fi":10410,"##gom":10411,"##isch":10412,"##urst":10413,"diplomatic":10414,"ideal":10415,"##ographers":10416,"sony":10417,"emerged":10418,"##imp":10419,"predomin":10420,"insects":10421,"rol":10422,"discrimin":10423,"possession":10424,"traditions":10425,"##agi":10426,"gauge":10427,"ana":10428,"pond":10429,"ultimate":10430,"nevert":10431,"valu":10432,"cb":10433,"daw":10434,"gren":10435,"nevertheless":10436,"protestant":10437,"ecu":10438,"teleg":10439,"##thy":10440,"claiming":10441,"midfield":10442,"##26":10443,"##olds":10444,"volunteers":10445,"oscar":10446,"florence":10447,"##math":10448,"unp":10449,"marqu":10450,"##uin":10451,"meat":10452,"camps":10453,"romance":10454,"discontin":10455,"violent":10456,"compositions":10457,"##ghai":10458,"missile":10459,"assisted":10460,"tommy":10461,"vertical":10462,"discussion":10463,"yank":10464,"##haus":10465,"continuous":10466,"##thus":10467,"cogn":10468,"writings":10469,"##rav":10470,"manufacturer":10471,"substantial":10472,"##eries":10473,"wis":10474,"##ommun":10475,"notice":10476,"newcastle":10477,"elli":10478,"gates":10479,"##wald":10480,"icon":10481,"dame":10482,"shakes":10483,"advice":10484,"mann":10485,"sierra":10486,"moral":10487,"tournaments":10488,"nee":10489,"identify":10490,"stol":10491,"##auer":10492,"##aming":10493,"ceram":10494,"conversion":10495,"mathematical":10496,"##iture":10497,"grove":10498,"mamm":10499,"encl":10500,"sentence":10501,"debt":10502,"rect":10503,"moz":10504,"kre":10505,"certified":10506,"organised":10507,"tenure":10508,"welfare":10509,"gmina":10510,"##erted":10511,"taxonomy":10512,"tanks":10513,"##ovsky":10514,"closer":10515,"tox":10516,"latino":10517,"lamp":10518,"academics":10519,"viewed":10520,"1856":10521,"recipient":10522,"##icon":10523,"1852":10524,"sample":10525,"slav":10526,"terminus":10527,"##backs":10528,"##ingen":10529,"##iece":10530,"cork":10531,"inaugural":10532,"behalf":10533,"francois":10534,"alien":10535,"input":10536,"doors":10537,"##lings":10538,"##enders":10539,"##ouses":10540,"##ocation":10541,"hypot":10542,"possess":10543,"exclud":10544,"guilty":10545,"presidents":10546,"picked":10547,"##ears":10548,"detail":10549,"hier":10550,"##point":10551,"collective":10552,"dramatic":10553,"traded":10554,"administer":10555,"missed":10556,"distribut":10557,"bruns":10558,"confederate":10559,"harvey":10560,"config":10561,"watson":10562,"tamp":10563,"embassy":10564,"concerning":10565,"urug":10566,"nomine":10567,"programmes":10568,"upr":10569,"forwards":10570,"friendship":10571,"motiv":10572,"##anthrop":10573,"usage":10574,"suburb":10575,"grades":10576,"regulation":10577,"boundaries":10578,"##ivery":10579,"partially":10580,"comprehensive":10581,"cruc":10582,"gregory":10583,"##ega":10584,"lebanon":10585,"ou":10586,"appropriate":10587,"beer":10588,"106":10589,"gn":10590,"##iveness":10591,"produces":10592,"##isms":10593,"swan":10594,"thinking":10595,"sequel":10596,"##gins":10597,"tol":10598,"armour":10599,"exclusive":10600,"shanghai":10601,"punish":10602,"danny":10603,"urugu":10604,"##aran":10605,"cattle":10606,"##hyl":10607,"merger":10608,"locally":10609,"##bus":10610,"recovery":10611,"taxa":10612,"kra":10613,"##avery":10614,"pt":10615,"epic":10616,"##ader":10617,"disaster":10618,"##oro":10619,"emigrants":10620,"gastropod":10621,"republicans":10622,"settlers":10623,"delivery":10624,"guit":10625,"murdered":10626,"galax":10627,"cruz":10628,"patterns":10629,"instruction":10630,"wish":10631,"stere":10632,"roche":10633,"jurisdiction":10634,"reporting":10635,"subsidiary":10636,"neutral":10637,"libraries":10638,"isab":10639,"sprint":10640,"bras":10641,"aimed":10642,"##cester":10643,"wellington":10644,"characterized":10645,"favorite":10646,"incumbent":10647,"brands":10648,"acquisition":10649,"##aukee":10650,"##27":10651,"torped":10652,"tale":10653,"##riers":10654,"topics":10655,"virus":10656,"protests":10657,"assessment":10658,"peng":10659,"restaurants":10660,"farming":10661,"publicly":10662,"##etti":10663,"facebook":10664,"##du":10665,"sergeant":10666,"##enter":10667,"##elia":10668,"##eb":10669,"polar":10670,"sod":10671,"cauc":10672,"revised":10673,"wallace":10674,"autumn":10675,"laure":10676,"layer":10677,"waiting":10678,"recovered":10679,"##umi":10680,"mead":10681,"journalism":10682,"angels":10683,"##stown":10684,"exposed":10685,"tasman":10686,"torpedo":10687,"venice":10688,"pub":10689,"ritual":10690,"subsp":10691,"moh":10692,"relocated":10693,"tram":10694,"decisions":10695,"ein":10696,"##rik":10697,"##lem":10698,"closing":10699,"##aire":10700,"radar":10701,"speakers":10702,"hod":10703,"103":10704,"scotia":10705,"tibet":10706,"vil":10707,"toured":10708,"##eh":10709,"governors":10710,"104":10711,"interviews":10712,"qualify":10713,"warsaw":10714,"##rupted":10715,"spac":10716,"joan":10717,"mcg":10718,"friedrich":10719,"tone":10720,"cf":10721,"forty":10722,"spart":10723,"##vereign":10724,"comparison":10725,"##ffield":10726,"sovereign":10727,"smooth":10728,"phillips":10729,"attending":10730,"stones":10731,"##cht":10732,"rocky":10733,"prosecut":10734,"##atra":10735,"##athy":10736,"##bin":10737,"##licit":10738,"connections":10739,"immigrants":10740,"viv":10741,"ecl":10742,"hughes":10743,"ask":10744,"marx":10745,"interfer":10746,"tomb":10747,"##anim":10748,"facilit":10749,"##esty":10750,"wilhelm":10751,"##uez":10752,"exem":10753,"syrian":10754,"circumstances":10755,"idaho":10756,"alge":10757,"##lain":10758,"vow":10759,"##esco":10760,"bever":10761,"##uka":10762,"highlight":10763,"asks":10764,"therapy":10765,"##rington":10766,"organic":10767,"drafted":10768,"brunswick":10769,"##eare":10770,"ongoing":10771,"participating":10772,"##minster":10773,"heights":10774,"valent":10775,"cardinals":10776,"##rs":10777,"establishing":10778,"exercise":10779,"interpretation":10780,"deployed":10781,"judg":10782,"##opsis":10783,"##orous":10784,"1851":10785,"connecting":10786,"newton":10787,"breast":10788,"fee":10789,"editors":10790,"##ourse":10791,"perce":10792,"##kt":10793,"judicial":10794,"godd":10795,"raz":10796,"detective":10797,"aftermath":10798,"phd":10799,"worker":10800,"##pping":10801,"spa":10802,"framework":10803,"elsewhere":10804,"##achment":10805,"milw":10806,"rey":10807,"ing":10808,"##rim":10809,"literal":10810,"aggress":10811,"lift":10812,"maurice":10813,"worst":10814,"wearing":10815,"blu":10816,"##ribed":10817,"cros":10818,"solutions":10819,"##inations":10820,"tea":10821,"todd":10822,"##page":10823,"doctr":10824,"shakesp":10825,"supplement":10826,"byzantine":10827,"fifteen":10828,"##pher":10829,"pitcher":10830,"##dal":10831,"##yler":10832,"remote":10833,"sullivan":10834,"philosoph":10835,"ingr":10836,"indeed":10837,"abraham":10838,"globe":10839,"piet":10840,"coffee":10841,"##olph":10842,"novelists":10843,"victim":10844,"angle":10845,"##bound":10846,"dispute":10847,"sick":10848,"mario":10849,"enjoyed":10850,"keral":10851,"##oring":10852,"molecular":10853,"proof":10854,"##esar":10855,"oxy":10856,"beetles":10857,"reveals":10858,"vladimir":10859,"giov":10860,"opponent":10861,"advanc":10862,"congo":10863,"novelist":10864,"convinc":10865,"##ulating":10866,"indonesian":10867,"##icus":10868,"##oi":10869,"1849":10870,"episcopal":10871,"societies":10872,"funeral":10873,"achievements":10874,"stakes":10875,"stein":10876,"##uy":10877,"clearly":10878,"lub":10879,"preservation":10880,"bats":10881,"arsen":10882,"##28":10883,"ceased":10884,"milwaukee":10885,"guitars":10886,"extract":10887,"fundamental":10888,"##rection":10889,"intermediate":10890,"displayed":10891,"possibility":10892,"bened":10893,"campaigns":10894,"eldest":10895,"jak":10896,"evac":10897,"ties":10898,"implemented":10899,"rhode":10900,"pearl":10901,"exit":10902,"photographer":10903,"ecuador":10904,"##bod":10905,"deck":10906,"##ril":10907,"ji":10908,"##urally":10909,"narrative":10910,"##emed":10911,"pump":10912,"chorus":10913,"hood":10914,"##apse":10915,"corruption":10916,"##ifier":10917,"sara":10918,"visc":10919,"push":10920,"belarus":10921,"furthermore":10922,"ceremon":10923,"strengt":10924,"shin":10925,"dos":10926,"devil":10927,"gentle":10928,"infer":10929,"execution":10930,"gabriel":10931,"cycling":10932,"withdrew":10933,"bm":10934,"1847":10935,"tenth":10936,"bases":10937,"nashville":10938,"dust":10939,"curric":10940,"##ertain":10941,"flex":10942,"##olition":10943,"ladies":10944,"plastic":10945,"mg":10946,"prelimin":10947,"preparation":10948,"##elin":10949,"decides":10950,"hamburg":10951,"##ugu":10952,"entrepreneur":10953,"##aughter":10954,"stick":10955,"sheffield":10956,"influences":10957,"inspector":10958,"reserves":10959,"designation":10960,"##tors":10961,"mainstream":10962,"chrom":10963,"kitchen":10964,"subt":10965,"fate":10966,"##etical":10967,"##ourg":10968,"soap":10969,"jor":10970,"##aste":10971,"tru":10972,"##icate":10973,"cun":10974,"besides":10975,"kerala":10976,"##ovich":10977,"##eing":10978,"voices":10979,"##star":10980,"##oons":10981,"retrieved":10982,"panama":10983,"survive":10984,"##omorph":10985,"manufactured":10986,"shakespeare":10987,"conscious":10988,"printing":10989,"warfare":10990,"presby":10991,"earning":10992,"interstate":10993,"monuments":10994,"##ifies":10995,"presents":10996,"perspective":10997,"montgom":10998,"1853":10999,"laura":11000,"##issa":11001,"rams":11002,"##ensively":11003,"ud":11004,"parade":11005,"##omar":11006,"variant":11007,"##rill":11008,"dent":11009,"##bie":11010,"internationally":11011,"annex":11012,"gem":11013,"montgomery":11014,"remove":11015,"princeton":11016,"900":11017,"1840":11018,"subsc":11019,"lodge":11020,"##eo":11021,"valuable":11022,"lon":11023,"recreation":11024,"trin":11025,"autonomous":11026,"tin":11027,"##uro":11028,"essex":11029,"palmer":11030,"fifty":11031,"##eters":11032,"trouble":11033,"##ortion":11034,"eugene":11035,"guests":11036,"franco":11037,"theology":11038,"shipping":11039,"ranges":11040,"##furt":11041,"towers":11042,"commented":11043,"leop":11044,"increases":11045,"compound":11046,"##andez":11047,"monster":11048,"contributing":11049,"nem":11050,"sharing":11051,"##usk":11052,"##ieth":11053,"feeling":11054,"wait":11055,"108":11056,"##zhou":11057,"scrap":11058,"rhodes":11059,"heavyweight":11060,"farmer":11061,"strange":11062,"filipino":11063,"##99":11064,"##estershire":11065,"imposs":11066,"manip":11067,"attendance":11068,"substitute":11069,"psychiat":11070,"mt":11071,"ronald":11072,"monday":11073,"involves":11074,"gift":11075,"philanthrop":11076,"banned":11077,"diesel":11078,"playstation":11079,"##iour":11080,"apparent":11081,"gospel":11082,"raising":11083,"arrow":11084,"discussed":11085,"diverse":11086,"reorgan":11087,"fitted":11088,"unsuccessful":11089,"lil":11090,"otto":11091,"ranging":11092,"err":11093,"tight":11094,"focuses":11095,"localities":11096,"##alg":11097,"locomotive":11098,"tons":11099,"tunis":11100,"persu":11101,"obst":11102,"##eri":11103,"##ppe":11104,"earthquake":11105,"##opa":11106,"##see":11107,"krish":11108,"##inum":11109,"swimmers":11110,"##lift":11111,"belonging":11112,"clarke":11113,"geoff":11114,"fauna":11115,"##sche":11116,"proteins":11117,"rend":11118,"adr":11119,"##sy":11120,"toll":11121,"##chewan":11122,"fortress":11123,"eggs":11124,"chest":11125,"ticket":11126,"##keep":11127,"##insky":11128,"franz":11129,"phosph":11130,"spencer":11131,"grande":11132,"somerset":11133,"saved":11134,"structural":11135,"##ente":11136,"innovation":11137,"saskatchewan":11138,"promoting":11139,"semifinals":11140,"awar":11141,"updated":11142,"download":11143,"trick":11144,"initiated":11145,"dawn":11146,"riv":11147,"autobi":11148,"warning":11149,"styl":11150,"automob":11151,"kidn":11152,"fid":11153,"##ahan":11154,"##orig":11155,"buses":11156,"acres":11157,"artificial":11158,"##oard":11159,"commod":11160,"conventional":11161,"ratings":11162,"beating":11163,"tract":11164,"exposure":11165,"secured":11166,"pete":11167,"vocalist":11168,"crossed":11169,"telephone":11170,"thriller":11171,"##eca":11172,"##omi":11173,"exclusively":11174,"##care":11175,"##body":11176,"southeastern":11177,"belonged":11178,"##iliar":11179,"julian":11180,"ek":11181,"improvement":11182,"isolated":11183,"##roid":11184,"verse":11185,"bench":11186,"##isha":11187,"dreams":11188,"notting":11189,"miguel":11190,"columbus":11191,"##oku":11192,"marathon":11193,"completing":11194,"sox":11195,"petr":11196,"fossil":11197,"retro":11198,"rag":11199,"##aeus":11200,"mumb":11201,"pirates":11202,"founders":11203,"dominant":11204,"celebration":11205,"chamb":11206,"kate":11207,"conclusion":11208,"symptoms":11209,"helps":11210,"graphic":11211,"vamp":11212,"mate":11213,"##sis":11214,"veterans":11215,"efficient":11216,"##lu":11217,"congregation":11218,"latest":11219,"##omo":11220,"##phal":11221,"awareness":11222,"jav":11223,"basil":11224,"variations":11225,"jen":11226,"prague":11227,"##35":11228,"##ław":11229,"haven":11230,"noise":11231,"surpr":11232,"##uated":11233,"bj":11234,"rabbi":11235,"mv":11236,"loyal":11237,"107":11238,"##dish":11239,"challenges":11240,"editorial":11241,"corresponding":11242,"robot":11243,"responded":11244,"##pert":11245,"libert":11246,"1846":11247,"cameron":11248,"electronics":11249,"##lee":11250,"poison":11251,"rider":11252,"chron":11253,"airfield":11254,"acknowled":11255,"135":11256,"hd":11257,"##irect":11258,"preliminary":11259,"##uces":11260,"##iago":11261,"innoc":11262,"negotiations":11263,"suitable":11264,"##oven":11265,"eligible":11266,"advocate":11267,"##velt":11268,"interchange":11269,"relay":11270,"essays":11271,"procedure":11272,"slaves":11273,"killer":11274,"keyboard":11275,"##wing":11276,"pilots":11277,"##abi":11278,"##pro":11279,"thorough":11280,"##abe":11281,"grandson":11282,"fus":11283,"associations":11284,"##uto":11285,"##case":11286,"jag":11287,"hindi":11288,"excellent":11289,"condem":11290,"debuts":11291,"aaron":11292,"error":11293,"comfort":11294,"gott":11295,"##agonist":11296,"lope":11297,"##lus":11298,"flights":11299,"excellence":11300,"patric":11301,"eb":11302,"mtv":11303,"##aku":11304,"believes":11305,"landed":11306,"antiqu":11307,"beetle":11308,"temperatures":11309,"isaac":11310,"manage":11311,"agree":11312,"fn":11313,"purple":11314,"ramp":11315,"kash":11316,"crypt":11317,"yugoslavia":11318,"argument":11319,"inhib":11320,"unless":11321,"pursue":11322,"aftern":11323,"oakland":11324,"dee":11325,"##avi":11326,"##icia":11327,"relegated":11328,"inspiration":11329,"nephew":11330,"rarely":11331,"rip":11332,"defender":11333,"recurring":11334,"inducted":11335,"graphics":11336,"vig":11337,"ion":11338,"syndrome":11339,"morph":11340,"housed":11341,"grid":11342,"companion":11343,"albanian":11344,"dependent":11345,"gul":11346,"prices":11347,"hybrid":11348,"##ettes":11349,"sudan":11350,"specialized":11351,"paulo":11352,"indianapolis":11353,"dismissed":11354,"hardware":11355,"manuscript":11356,"ster":11357,"restricted":11358,"mang":11359,"justin":11360,"iraqi":11361,"coins":11362,"redes":11363,"resol":11364,"obama":11365,"cuban":11366,"stockholm":11367,"harper":11368,"brack":11369,"##var":11370,"durham":11371,"doctors":11372,"demonstrated":11373,"functional":11374,"handball":11375,"aub":11376,"outbreak":11377,"aborig":11378,"veteran":11379,"freestyle":11380,"hey":11381,"submitted":11382,"integr":11383,"hammer":11384,"##icing":11385,"pianist":11386,"amy":11387,"reyn":11388,"##ching":11389,"ace":11390,"variable":11391,"generals":11392,"mete":11393,"civic":11394,"##vent":11395,"raid":11396,"##notes":11397,"oral":11398,"128":11399,"crosses":11400,"theories":11401,"palestine":11402,"signals":11403,"edu":11404,"devoted":11405,"export":11406,"lisa":11407,"liu":11408,"readers":11409,"banking":11410,"##pat":11411,"uncertain":11412,"conflicts":11413,"dancer":11414,"ordinary":11415,"sailing":11416,"priests":11417,"##ovan":11418,"alpine":11419,"pupils":11420,"psychological":11421,"##uman":11422,"arabia":11423,"stern":11424,"wals":11425,"##othe":11426,"commentary":11427,"pairs":11428,"sitting":11429,"tape":11430,"businesspeople":11431,"manit":11432,"dialogue":11433,"##quin":11434,"chiefs":11435,"prayer":11436,"describing":11437,"mirror":11438,"ling":11439,"gods":11440,"##iology":11441,"html":11442,"subc":11443,"115":11444,"ruler":11445,"shen":11446,"##roe":11447,"nig":11448,"##oslov":11449,"suz":11450,"talks":11451,"melod":11452,"##rys":11453,"quantum":11454,"load":11455,"unions":11456,"bennett":11457,"intercept":11458,"nancy":11459,"grammy":11460,"methodist":11461,"winn":11462,"originated":11463,"eps":11464,"faces":11465,"accessible":11466,"permission":11467,"isle":11468,"wealthy":11469,"identical":11470,"nottingham":11471,"##mun":11472,"sailed":11473,"assists":11474,"roose":11475,"gand":11476,"burning":11477,"ahmed":11478,"##ourt":11479,"aires":11480,"##vers":11481,"##mons":11482,"chore":11483,"eds":11484,"compiled":11485,"midfielders":11486,"presidency":11487,"fastest":11488,"ci":11489,"dow":11490,"##tering":11491,"steep":11492,"ply":11493,"kazakh":11494,"kenneth":11495,"installation":11496,"jail":11497,"outl":11498,"##zig":11499,"##45":11500,"arriving":11501,"phon":11502,"diversity":11503,"##ensen":11504,"oc":11505,"##far":11506,"revers":11507,"##osing":11508,"schm":11509,"celtic":11510,"offs":11511,"heath":11512,"##ische":11513,"sag":11514,"centres":11515,"reviewed":11516,"examination":11517,"blow":11518,"##gus":11519,"sussex":11520,"##29":11521,"iso":11522,"requested":11523,"revenge":11524,"buenos":11525,"shops":11526,"swing":11527,"##essa":11528,"1830":11529,"forth":11530,"cutting":11531,"catalog":11532,"impossible":11533,"##jection":11534,"lopez":11535,"neo":11536,"axis":11537,"tube":11538,"wre":11539,"johannes":11540,"##imo":11541,"##ophy":11542,"artwork":11543,"bombard":11544,"##isi":11545,"marin":11546,"##oper":11547,"listings":11548,"taxes":11549,"unanim":11550,"hitler":11551,"jamaica":11552,"closure":11553,"highland":11554,"thirteen":11555,"mumbai":11556,"##iler":11557,"##atta":11558,"missionary":11559,"dischar":11560,"highways":11561,"reaches":11562,"garrison":11563,"lucas":11564,"quartet":11565,"quiet":11566,"breeding":11567,"bend":11568,"emir":11569,"concur":11570,"dong":11571,"##airo":11572,"matrix":11573,"brooks":11574,"recognised":11575,"variation":11576,"bars":11577,"visits":11578,"integration":11579,"geographic":11580,"petition":11581,"concepts":11582,"roth":11583,"relevant":11584,"reconstruction":11585,"colonies":11586,"eis":11587,"cou":11588,"edmund":11589,"clergy":11590,"nigerian":11591,"pref":11592,"respective":11593,"crist":11594,"devon":11595,"oriented":11596,"##atin":11597,"hide":11598,"lep":11599,"##using":11600,"romanized":11601,"pointed":11602,"consort":11603,"expensive":11604,"##ifts":11605,"##oux":11606,"sure":11607,"perth":11608,"succession":11609,"##gie":11610,"removal":11611,"gael":11612,"householder":11613,"grows":11614,"freight":11615,"mainland":11616,"logic":11617,"##48":11618,"109":11619,"##most":11620,"burns":11621,"##esp":11622,"pride":11623,"turb":11624,"feather":11625,"experiments":11626,"dialect":11627,"computers":11628,"roosevelt":11629,"ff":11630,"feud":11631,"bub":11632,"dollars":11633,"distinction":11634,"1845":11635,"wider":11636,"descendants":11637,"plaza":11638,"##yll":11639,"beck":11640,"danger":11641,"owen":11642,"##iry":11643,"enem":11644,"renown":11645,"avo":11646,"exile":11647,"travels":11648,"145":11649,"zo":11650,"##ibilities":11651,"usual":11652,"preferred":11653,"rookie":11654,"opens":11655,"options":11656,"##bank":11657,"presentation":11658,"##encia":11659,"declaration":11660,"eve":11661,"bombing":11662,"amazon":11663,"##acion":11664,"palestinian":11665,"customs":11666,"peg":11667,"obv":11668,"##atics":11669,"##irus":11670,"beam":11671,"##aws":11672,"czechoslov":11673,"algebra":11674,"ahmad":11675,"##ucker":11676,"##rano":11677,"vii":11678,"uganda":11679,"colin":11680,"luxemb":11681,"glou":11682,"aids":11683,"dad":11684,"arrangements":11685,"graduation":11686,"endors":11687,"pla":11688,"logo":11689,"cyprus":11690,"mercury":11691,"lenn":11692,"##music":11693,"mood":11694,"attempting":11695,"mosque":11696,"lithuan":11697,"explan":11698,"dominican":11699,"numbered":11700,"magnetic":11701,"1837":11702,"##iba":11703,"beth":11704,"##bek":11705,"presbyter":11706,"czechoslovak":11707,"dict":11708,"nationalist":11709,"ya":11710,"seminary":11711,"scat":11712,"spy":11713,"mck":11714,"##uta":11715,"amphib":11716,"patriarch":11717,"disestablishments":11718,"disorder":11719,"cornwall":11720,"exhibited":11721,"mcl":11722,"lords":11723,"##ovina":11724,"abdul":11725,"louise":11726,"simultaneously":11727,"semin":11728,"##eni":11729,"vulner":11730,"brah":11731,"1839":11732,"149":11733,"mineral":11734,"##ugg":11735,"chat":11736,"gerald":11737,"belgr":11738,"marcus":11739,"hass":11740,"nasa":11741,"nights":11742,"specialist":11743,"vital":11744,"sandy":11745,"misc":11746,"davies":11747,"manila":11748,"bam":11749,"columns":11750,"##endum":11751,"boulev":11752,"affect":11753,"vietn":11754,"interface":11755,"lak":11756,"##lag":11757,"altitude":11758,"enemies":11759,"chad":11760,"fraud":11761,"enthus":11762,"nickname":11763,"resignation":11764,"rebels":11765,"##38":11766,"##fi":11767,"apoll":11768,"reds":11769,"abstract":11770,"vietnamese":11771,"deriv":11772,"##iously":11773,"operators":11774,"midfielder":11775,"##unes":11776,"interactive":11777,"travelled":11778,"receives":11779,"proc":11780,"stroke":11781,"looks":11782,"feder":11783,"sd":11784,"looked":11785,"voyage":11786,"synthes":11787,"fortune":11788,"##ressed":11789,"spark":11790,"oxygen":11791,"ming":11792,"##found":11793,"bast":11794,"##illes":11795,"citations":11796,"##marks":11797,"quarterback":11798,"burned":11799,"witch":11800,"reich":11801,"bankrupt":11802,"orbit":11803,"underst":11804,"##rooms":11805,"emotional":11806,"nursing":11807,"coinc":11808,"claud":11809,"spend":11810,"salvador":11811,"approaches":11812,"reducing":11813,"##adier":11814,"undergraduate":11815,"conspir":11816,"airline":11817,"unity":11818,"strand":11819,"127":11820,"temples":11821,"##ashire":11822,"##eted":11823,"departed":11824,"stall":11825,"gov":11826,"##ija":11827,"symb":11828,"##unda":11829,"##boro":11830,"##ensional":11831,"yan":11832,"lancashire":11833,"accessed":11834,"decide":11835,"porter":11836,"philosopher":11837,"gel":11838,"pound":11839,"ore":11840,"chlor":11841,"trim":11842,"allan":11843,"collegiate":11844,"aboard":11845,"behaviour":11846,"148":11847,"##osexual":11848,"sack":11849,"##ht":11850,"phrase":11851,"extensively":11852,"flew":11853,"skating":11854,"targets":11855,"##zon":11856,"1844":11857,"afford":11858,"tested":11859,"span":11860,"rust":11861,"##hall":11862,"superintend":11863,"##borg":11864,"workshop":11865,"atmosphere":11866,"tat":11867,"layout":11868,"147":11869,"objective":11870,"fulf":11871,"##ieu":11872,"trent":11873,"measured":11874,"meteor":11875,"frontier":11876,"bruss":11877,"proceedings":11878,"dale":11879,"lung":11880,"rebel":11881,"volt":11882,"testament":11883,"kot":11884,"##world":11885,"##igar":11886,"fallen":11887,"depicted":11888,"zhang":11889,"posts":11890,"presc":11891,"egg":11892,"1841":11893,"telling":11894,"slowly":11895,"##apur":11896,"##bing":11897,"defended":11898,"##eff":11899,"kang":11900,"administrator":11901,"empty":11902,"depot":11903,"bills":11904,"prisoner":11905,"pock":11906,"##enhagen":11907,"mansion":11908,"evolved":11909,"controls":11910,"bout":11911,"wer":11912,"monten":11913,"talking":11914,"disbanded":11915,"##phis":11916,"unn":11917,"appeals":11918,"pec":11919,"stevens":11920,"##rogen":11921,"rs":11922,"paras":11923,"batman":11924,"wilder":11925,"northeastern":11926,"peas":11927,"governing":11928,"cultures":11929,"##cos":11930,"##ellation":11931,"bru":11932,"claude":11933,"listen":11934,"carries":11935,"preserve":11936,"extend":11937,"grants":11938,"collapse":11939,"odd":11940,"nintend":11941,"gt":11942,"quint":11943,"airports":11944,"interaction":11945,"##amm":11946,"##ocene":11947,"server":11948,"efficiency":11949,"certificate":11950,"belongs":11951,"mutual":11952,"southwestern":11953,"rent":11954,"##elines":11955,"##brook":11956,"mouse":11957,"##uba":11958,"radiation":11959,"samples":11960,"lighth":11961,"westminster":11962,"parking":11963,"##usa":11964,"vall":11965,"militia":11966,"predict":11967,"utt":11968,"bros":11969,"##itus":11970,"##arians":11971,"inherited":11972,"backed":11973,"casualties":11974,"##opy":11975,"variants":11976,"##erie":11977,"##aja":11978,"nintendo":11979,"georgian":11980,"essentially":11981,"exhibit":11982,"mahar":11983,"##strong":11984,"saxophone":11985,"powell":11986,"enrolled":11987,"computing":11988,"commanding":11989,"##aze":11990,"zimb":11991,"compact":11992,"lone":11993,"santiago":11994,"canyon":11995,"##exp":11996,"##isp":11997,"wheat":11998,"divine":11999,"decorated":12000,"##iast":12001,"survival":12002,"literacy":12003,"drinking":12004,"ti":12005,"lesser":12006,"boards":12007,"mythology":12008,"waves":12009,"aa":12010,"eccles":12011,"theatrical":12012,"client":12013,"informed":12014,"giovanni":12015,"rovers":12016,"##icz":12017,"##ben":12018,"##iability":12019,"##quet":12020,"spectrum":12021,"1812":12022,"identification":12023,"hamlet":12024,"denis":12025,"##ilding":12026,"##lav":12027,"iz":12028,"julia":12029,"landmark":12030,"payment":12031,"hr":12032,"ellis":12033,"boulevard":12034,"gameplay":12035,"chuck":12036,"troub":12037,"##mod":12038,"##isan":12039,"ferdin":12040,"##rets":12041,"auxili":12042,"1843":12043,"afternoon":12044,"beta":12045,"reverse":12046,"kad":12047,"leslie":12048,"rankings":12049,"wrestlers":12050,"monteneg":12051,"prototype":12052,"analog":12053,"##fire":12054,"creator":12055,"bore":12056,"townships":12057,"mim":12058,"improvements":12059,"##abited":12060,"sheet":12061,"sheep":12062,"characteristic":12063,"##xi":12064,"incomp":12065,"cyclists":12066,"difficulties":12067,"immun":12068,"buddh":12069,"chip":12070,"volunt":12071,"##isons":12072,"herzeg":12073,"hotels":12074,"fernando":12075,"mb":12076,"malta":12077,"developments":12078,"##onso":12079,"feelings":12080,"registration":12081,"ist":12082,"farms":12083,"authored":12084,"predecessor":12085,"dip":12086,"duck":12087,"##atem":12088,"enters":12089,"138":12090,"toler":12091,"##lass":12092,"morocco":12093,"hil":12094,"discontinued":12095,"##lla":12096,"kann":12097,"guang":12098,"##fit":12099,"penal":12100,"bibl":12101,"comedian":12102,"afl":12103,"kumar":12104,"gly":12105,"multip":12106,"suspension":12107,"refugees":12108,"moss":12109,"worn":12110,"permitted":12111,"##avia":12112,"lithuanian":12113,"explains":12114,"professionals":12115,"canter":12116,"##oque":12117,"1835":12118,"referendum":12119,"approached":12120,"dissolved":12121,"catholics":12122,"consumption":12123,"java":12124,"##uania":12125,"reconna":12126,"anthology":12127,"comments":12128,"cuis":12129,"ges":12130,"rodriguez":12131,"manitoba":12132,"exactly":12133,"reader":12134,"quarterf":12135,"clif":12136,"##aled":12137,"##acles":12138,"snake":12139,"##36":12140,"mh":12141,"sixteen":12142,"doug":12143,"referring":12144,"prove":12145,"wyoming":12146,"traveling":12147,"##cz":12148,"##word":12149,"helicopter":12150,"sabha":12151,"espn":12152,"conferences":12153,"lithuania":12154,"premiers":12155,"ai":12156,"labels":12157,"tampa":12158,"mast":12159,"1838":12160,"##illon":12161,"indies":12162,"reflect":12163,"sas":12164,"mammals":12165,"clerk":12166,"pist":12167,"hort":12168,"nearest":12169,"sculptor":12170,"##itary":12171,"neighbourhood":12172,"bundes":12173,"##abwe":12174,"alphab":12175,"plains":12176,"holmes":12177,"1832":12178,"binding":12179,"employee":12180,"eleph":12181,"aspect":12182,"blake":12183,"reconnaissance":12184,"gut":12185,"vest":12186,"##owed":12187,"##manuel":12188,"scandal":12189,"sank":12190,"##andy":12191,"rede":12192,"massacre":12193,"stops":12194,"hs":12195,"duncan":12196,"footage":12197,"chec":12198,"goddess":12199,"##anor":12200,"alc":12201,"dag":12202,"timeline":12203,"package":12204,"distinctive":12205,"uc":12206,"sculptures":12207,"1842":12208,"pray":12209,"trigger":12210,"pilgr":12211,"felix":12212,"escaped":12213,"cannon":12214,"suburbs":12215,"copenhagen":12216,"sebastian":12217,"brussels":12218,"collaps":12219,"bryan":12220,"keys":12221,"lover":12222,"emphasis":12223,"observation":12224,"brass":12225,"newport":12226,"literally":12227,"##rises":12228,"placing":12229,"skel":12230,"slavery":12231,"tok":12232,"contracts":12233,"##acco":12234,"##lights":12235,"sep":12236,"##oleum":12237,"##rage":12238,"performers":12239,"##chan":12240,"##omed":12241,"aerial":12242,"boot":12243,"collaborated":12244,"curriculum":12245,"##000":12246,"reformed":12247,"##uh":12248,"chapters":12249,"survivors":12250,"129":12251,"citizenship":12252,"zimbabwe":12253,"intervention":12254,"phenomen":12255,"##yst":12256,"elevated":12257,"cylinder":12258,"armstrong":12259,"advisor":12260,"1836":12261,"##orum":12262,"aware":12263,"luxembourg":12264,"##ishi":12265,"bailey":12266,"jas":12267,"demands":12268,"disappoint":12269,"switched":12270,"theological":12271,"euro":12272,"lectures":12273,"ware":12274,"endang":12275,"copyr":12276,"pulled":12277,"antarctic":12278,"##ovision":12279,"heter":12280,"emig":12281,"migration":12282,"capita":12283,"nobel":12284,"##tains":12285,"cafe":12286,"migr":12287,"spots":12288,"capitol":12289,"gymnast":12290,"renowned":12291,"blacks":12292,"herzegovina":12293,"tributary":12294,"canoe":12295,"explicit":12296,"brill":12297,"reforms":12298,"relating":12299,"##hd":12300,"monk":12301,"cream":12302,"146":12303,"metre":12304,"herb":12305,"supplied":12306,"estates":12307,"117":12308,"familiar":12309,"##mother":12310,"sized":12311,"orland":12312,"polo":12313,"##gary":12314,"stake":12315,"borrow":12316,"burials":12317,"delayed":12318,"pars":12319,"pitched":12320,"##reen":12321,"render":12322,"##bird":12323,"sustainable":12324,"hast":12325,"difficulty":12326,"affiliate":12327,"discrimination":12328,"crack":12329,"digit":12330,"solomon":12331,"screenplay":12332,"xii":12333,"overl":12334,"protocol":12335,"deemed":12336,"administered":12337,"equation":12338,"mild":12339,"abilities":12340,"deer":12341,"##acc":12342,"valle":12343,"bearing":12344,"namely":12345,"##illed":12346,"fk":12347,"tanz":12348,"sau":12349,"temporarily":12350,"healthcare":12351,"tactical":12352,"firing":12353,"commenced":12354,"exploration":12355,"##itic":12356,"##lia":12357,"coached":12358,"catalogue":12359,"hale":12360,"##ecraft":12361,"##tes":12362,"##ompass":12363,"aggregate":12364,"lah":12365,"102":12366,"##hra":12367,"forever":12368,"##atha":12369,"##boat":12370,"commanders":12371,"armenia":12372,"lutheran":12373,"headquar":12374,"consistent":12375,"engagement":12376,"recalled":12377,"##zyme":12378,"wasn":12379,"belle":12380,"118":12381,"metall":12382,"andrews":12383,"fluid":12384,"luck":12385,"##cano":12386,"oblig":12387,"##agers":12388,"willing":12389,"feminist":12390,"##anning":12391,"emerging":12392,"126":12393,"##yo":12394,"simpson":12395,"aboriginal":12396,"bomber":12397,"signature":12398,"poster":12399,"assassin":12400,"lyon":12401,"##rag":12402,"surprise":12403,"aest":12404,"idol":12405,"##olly":12406,"flank":12407,"##46":12408,"##umps":12409,"##33":12410,"##ashes":12411,"##nal":12412,"##oning":12413,"adrian":12414,"##hand":12415,"abbre":12416,"##ulations":12417,"aims":12418,"thesis":12419,"##boys":12420,"gest":12421,"oslo":12422,"hym":12423,"vinyl":12424,"frankfurt":12425,"##rand":12426,"believ":12427,"linda":12428,"orph":12429,"surrey":12430,"hms":12431,"dynamic":12432,"aside":12433,"##mir":12434,"##inos":12435,"burial":12436,"experts":12437,"twentieth":12438,"midnight":12439,"noc":12440,"##inery":12441,"wise":12442,"##ecies":12443,"encompass":12444,"boom":12445,"wur":12446,"ludwig":12447,"emily":12448,"kee":12449,"underw":12450,"ds":12451,"prosper":12452,"meter":12453,"slo":12454,"oval":12455,"vand":12456,"faster":12457,"arbit":12458,"360":12459,"##aru":12460,"imprisoned":12461,"symmet":12462,"richardson":12463,"##igious":12464,"##etr":12465,"coin":12466,"##oded":12467,"accum":12468,"connects":12469,"##market":12470,"wrestler":12471,"henderson":12472,"strings":12473,"flour":12474,"enact":12475,"jennifer":12476,"tribal":12477,"superintendent":12478,"hess":12479,"shed":12480,"##quer":12481,"cabin":12482,"lighting":12483,"istan":12484,"malaysian":12485,"hik":12486,"glenn":12487,"hak":12488,"136":12489,"negl":12490,"clot":12491,"confused":12492,"guatem":12493,"emma":12494,"echo":12495,"lc":12496,"gra":12497,"##horn":12498,"fourteen":12499,"canterbury":12500,"drain":12501,"fen":12502,"pupp":12503,"spur":12504,"curtis":12505,"resumed":12506,"chambers":12507,"##ystem":12508,"reel":12509,"##vas":12510,"circular":12511,"utc":12512,"observatory":12513,"bradley":12514,"eurovision":12515,"istanbul":12516,"116":12517,"destination":12518,"1500":12519,"terrorist":12520,"ank":12521,"britt":12522,"##oj":12523,"dud":12524,"edmon":12525,"memphis":12526,"kingston":12527,"##irm":12528,"reiss":12529,"failing":12530,"##ateral":12531,"calgary":12532,"provisions":12533,"optical":12534,"seemed":12535,"kills":12536,"navigation":12537,"denomin":12538,"abolished":12539,"albania":12540,"motorcycle":12541,"retreat":12542,"pag":12543,"wend":12544,"batting":12545,"uz":12546,"stir":12547,"laser":12548,"arrives":12549,"breath":12550,"indicating":12551,"##ei":12552,"benedict":12553,"galaxy":12554,"auxiliary":12555,"attacking":12556,"##active":12557,"citing":12558,"pastor":12559,"##esa":12560,"nineteenth":12561,"generations":12562,"comprises":12563,"doctorate":12564,"legendary":12565,"##ecca":12566,"##ados":12567,"##utical":12568,"breaks":12569,"rachel":12570,"rings":12571,"putting":12572,"350":12573,"elabor":12574,"bradford":12575,"##lett":12576,"natal":12577,"ferdinand":12578,"explain":12579,"##ardi":12580,"kilometers":12581,"##47":12582,"##oric":12583,"documented":12584,"fract":12585,"button":12586,"trium":12587,"##jay":12588,"lecturer":12589,"wednes":12590,"chronicle":12591,"och":12592,"neat":12593,"dimensional":12594,"platinum":12595,"shorter":12596,"napoleon":12597,"customer":12598,"##inth":12599,"##avian":12600,"sham":12601,"surnames":12602,"vector":12603,"endangered":12604,"broadcasts":12605,"corrid":12606,"chilean":12607,"137":12608,"##ør":12609,"posthum":12610,"interesting":12611,"conquest":12612,"obsc":12613,"theoretical":12614,"hopkins":12615,"cinemat":12616,"##okes":12617,"cardiff":12618,"victories":12619,"nationwide":12620,"rc":12621,"presbyterian":12622,"governance":12623,"##icking":12624,"ampl":12625,"fay":12626,"##anca":12627,"adjust":12628,"tornado":12629,"criteria":12630,"monitoring":12631,"cdp":12632,"legends":12633,"cuisine":12634,"songwriters":12635,"##arr":12636,"deputies":12637,"tyler":12638,"moderate":12639,"codes":12640,"dund":12641,"stafford":12642,"reprint":12643,"manifest":12644,"##fu":12645,"copyright":12646,"rapper":12647,"edmonton":12648,"martine":12649,"pushed":12650,"banner":12651,"shots":12652,"afc":12653,"yes":12654,"neighboring":12655,"transf":12656,"colored":12657,"gibson":12658,"bhar":12659,"##irk":12660,"ske":12661,"cambod":12662,"orlando":12663,"newfound":12664,"gp":12665,"statements":12666,"amounts":12667,"performer":12668,"overt":12669,"marshal":12670,"receiver":12671,"notre":12672,"handle":12673,"knows":12674,"diplomat":12675,"mechanics":12676,"##etes":12677,"119":12678,"slovenia":12679,"nathan":12680,"doctrine":12681,"designers":12682,"hp":12683,"residing":12684,"algorithm":12685,"nacional":12686,"##rist":12687,"facade":12688,"executives":12689,"procedures":12690,"wheels":12691,"graves":12692,"legit":12693,"teeth":12694,"1834":12695,"consultant":12696,"gan":12697,"gathered":12698,"horizont":12699,"##inda":12700,"pdf":12701,"##aea":12702,"sustained":12703,"kob":12704,"separation":12705,"infin":12706,"pour":12707,"cly":12708,"presenter":12709,"asking":12710,"hollow":12711,"cuts":12712,"trustees":12713,"naming":12714,"toxic":12715,"##asp":12716,"marion":12717,"servant":12718,"mott":12719,"##engths":12720,"wiz":12721,"tril":12722,"nurse":12723,"olive":12724,"bowling":12725,"divorce":12726,"lesb":12727,"estonia":12728,"##iffe":12729,"##tym":12730,"##ilian":12731,"##ombe":12732,"##aked":12733,"edgar":12734,"astronom":12735,"nass":12736,"goalkeeper":12737,"##onne":12738,"##eur":12739,"ethics":12740,"##hp":12741,"focusing":12742,"terrorism":12743,"privil":12744,"proclaim":12745,"bread":12746,"prevention":12747,"boxer":12748,"tissue":12749,"caroline":12750,"hipp":12751,"lucy":12752,"millenn":12753,"ich":12754,"qing":12755,"pursuit":12756,"biblical":12757,"evaluation":12758,"kom":12759,"zoo":12760,"handling":12761,"##hin":12762,"clement":12763,"maintaining":12764,"pom":12765,"retain":12766,"stolen":12767,"rational":12768,"celebrity":12769,"interim":12770,"parishes":12771,"##atsu":12772,"indo":12773,"philosophical":12774,"##ullah":12775,"praise":12776,"##inas":12777,"bones":12778,"anders":12779,"belgrade":12780,"thereby":12781,"reward":12782,"monkey":12783,"##heng":12784,"committees":12785,"kurt":12786,"##vet":12787,"acceler":12788,"thurs":12789,"portions":12790,"clients":12791,"fatal":12792,"walt":12793,"##oping":12794,"editing":12795,"murders":12796,"skull":12797,"##itudes":12798,"theorem":12799,"##child":12800,"zen":12801,"##list":12802,"girlfriend":12803,"recruited":12804,"copa":12805,"arrive":12806,"segments":12807,"subspecies":12808,"twitter":12809,"1815":12810,"nadu":12811,"##37":12812,"brut":12813,"milton":12814,"connor":12815,"##idal":12816,"extending":12817,"drove":12818,"telecommun":12819,"##aneous":12820,"plates":12821,"arsenal":12822,"hap":12823,"tenor":12824,"ultr":12825,"geology":12826,"##apest":12827,"elimination":12828,"transformation":12829,"etym":12830,"##nor":12831,"fount":12832,"##atorial":12833,"bedford":12834,"unre":12835,"guitarists":12836,"preston":12837,"volcan":12838,"convinced":12839,"##oney":12840,"absolute":12841,"ibm":12842,"reid":12843,"suddenly":12844,"alv":12845,"##berger":12846,"situations":12847,"carlo":12848,"jeremy":12849,"##egr":12850,"##ipher":12851,"##arez":12852,"slam":12853,"moor":12854,"##iper":12855,"punishment":12856,"crops":12857,"pam":12858,"beau":12859,"fraser":12860,"rivals":12861,"inscription":12862,"apprent":12863,"doubt":12864,"anarch":12865,"trap":12866,"burton":12867,"##istle":12868,"##force":12869,"nice":12870,"robertson":12871,"andrea":12872,"abund":12873,"wesley":12874,"suite":12875,"foods":12876,"swift":12877,"deliber":12878,"displays":12879,"compounds":12880,"tables":12881,"dome":12882,"prepare":12883,"symbols":12884,"miner":12885,"dealing":12886,"viii":12887,"tent":12888,"supervis":12889,"trek":12890,"rim":12891,"warrior":12892,"ik":12893,"bacteria":12894,"restrictions":12895,"jal":12896,"touchdowns":12897,"sacrament":12898,"stefan":12899,"butterfly":12900,"haj":12901,"##cr":12902,"##ilda":12903,"indie":12904,"##erek":12905,"unfortun":12906,"emil":12907,"stored":12908,"genes":12909,"brent":12910,"maker":12911,"rulers":12912,"advertis":12913,"rost":12914,"tasks":12915,"albany":12916,"shi":12917,"predominantly":12918,"dying":12919,"civilians":12920,"dart":12921,"martyr":12922,"finale":12923,"nikol":12924,"secular":12925,"slovakia":12926,"bik":12927,"exha":12928,"##front":12929,"enzyme":12930,"##oan":12931,"##ede":12932,"##pin":12933,"pace":12934,"manuscripts":12935,"accurate":12936,"marcel":12937,"marian":12938,"carroll":12939,"arctic":12940,"flute":12941,"##the":12942,"neighbouring":12943,"ellen":12944,"reactions":12945,"karen":12946,"jets":12947,"creates":12948,"rochester":12949,"jos":12950,"wan":12951,"radi":12952,"developer":12953,"physicians":12954,"ruins":12955,"chev":12956,"regardless":12957,"middles":12958,"geographical":12959,"challenged":12960,"confidence":12961,"associates":12962,"chelsea":12963,"seas":12964,"##teries":12965,"perceived":12966,"transm":12967,"muscle":12968,"finger":12969,"consequently":12970,"bust":12971,"chim":12972,"verb":12973,"navig":12974,"sulf":12975,"fare":12976,"dolph":12977,"geneva":12978,"##iley":12979,"lying":12980,"loved":12981,"##stadt":12982,"belfast":12983,"mask":12984,"invented":12985,"fewer":12986,"bee":12987,"##alez":12988,"dollar":12989,"tobacco":12990,"ufc":12991,"aka":12992,"hiro":12993,"theolog":12994,"##obs":12995,"guidance":12996,"implic":12997,"edit":12998,"alumin":12999,"footnotes":13000,"consec":13001,"sending":13002,"1831":13003,"memories":13004,"##erver":13005,"gathering":13006,"jesse":13007,"hydrogen":13008,"verte":13009,"upcoming":13010,"verd":13011,"##oly":13012,"drawings":13013,"oriental":13014,"circulation":13015,"crafts":13016,"##add":13017,"##enger":13018,"contestants":13019,"convert":13020,"grain":13021,"##kal":13022,"overlo":13023,"lynn":13024,"##wings":13025,"retiring":13026,"atomic":13027,"##andro":13028,"##uchi":13029,"baroque":13030,"pretty":13031,"coch":13032,"##arta":13033,"##iane":13034,"beaten":13035,"vale":13036,"brien":13037,"cornell":13038,"theodore":13039,"hi":13040,"##osition":13041,"glory":13042,"telegraph":13043,"kaw":13044,"brom":13045,"regiments":13046,"##mu":13047,"khal":13048,"##ondo":13049,"##eley":13050,"utility":13051,"1833":13052,"##rh":13053,"sik":13054,"cats":13055,"intense":13056,"diving":13057,"devot":13058,"holder":13059,"promised":13060,"hugo":13061,"facts":13062,"announcement":13063,"zurich":13064,"hearts":13065,"geological":13066,"veloc":13067,"extends":13068,"dubbed":13069,"americas":13070,"integral":13071,"##ов":13072,"complement":13073,"sanctuary":13074,"sink":13075,"ordin":13076,"hoff":13077,"delegates":13078,"##rough":13079,"allmusic":13080,"bulld":13081,"auction":13082,"prostit":13083,"dish":13084,"plas":13085,"##vor":13086,"suburban":13087,"escort":13088,"hes":13089,"##aper":13090,"commitment":13091,"paralympics":13092,"dramat":13093,"##sburg":13094,"surgeon":13095,"portraits":13096,"hag":13097,"##fol":13098,"privately":13099,"##los":13100,"gav":13101,"fog":13102,"brings":13103,"windsor":13104,"furniture":13105,"suspic":13106,"deport":13107,"sard":13108,"ix":13109,"explosion":13110,"##ilo":13111,"altar":13112,"armies":13113,"destro":13114,"forcing":13115,"constantin":13116,"kenny":13117,"automobile":13118,"ecology":13119,"authen":13120,"##atories":13121,"hul":13122,"embark":13123,"##etics":13124,"mayors":13125,"lessons":13126,"exchang":13127,"concerto":13128,"##cat":13129,"##kinson":13130,"plymouth":13131,"colleagues":13132,"eating":13133,"actively":13134,"bloom":13135,"discovers":13136,"playwright":13137,"beliefs":13138,"cere":13139,"##emann":13140,"rehabil":13141,"twins":13142,"shelter":13143,"lecture":13144,"epit":13145,"bohem":13146,"grab":13147,"vor":13148,"wei":13149,"helm":13150,"score0":13151,"kend":13152,"##rang":13153,"paragu":13154,"mk":13155,"yar":13156,"lomb":13157,"##holders":13158,"observations":13159,"favourite":13160,"troop":13161,"considering":13162,"exterior":13163,"garner":13164,"contribute":13165,"joel":13166,"gaelic":13167,"homosexual":13168,"##auc":13169,"sinc":13170,"139":13171,"spo":13172,"argues":13173,"firms":13174,"springfield":13175,"unt":13176,"typh":13177,"##anti":13178,"engage":13179,"headquartered":13180,"gustav":13181,"##enzo":13182,"1820":13183,"mlb":13184,"sf":13185,"seriously":13186,"remembered":13187,"seoul":13188,"wagner":13189,"##awi":13190,"addressed":13191,"lyric":13192,"mcdonald":13193,"screenwriter":13194,"zar":13195,"##bis":13196,"elector":13197,"wander":13198,"heading":13199,"saving":13200,"##books":13201,"vine":13202,"hook":13203,"infection":13204,"manages":13205,"requiring":13206,"allegedly":13207,"accommodate":13208,"jamie":13209,"##colm":13210,"##anta":13211,"troy":13212,"rept":13213,"gaining":13214,"endings":13215,"##rawn":13216,"linn":13217,"bypass":13218,"kyle":13219,"gonzalez":13220,"moments":13221,"smoke":13222,"investors":13223,"independently":13224,"yo":13225,"##49":13226,"##days":13227,"ups":13228,"iw":13229,"budapest":13230,"stability":13231,"honored":13232,"nato":13233,"##appa":13234,"viola":13235,"outc":13236,"knee":13237,"yuan":13238,"##uku":13239,"counts":13240,"mund":13241,"lec":13242,"##39":13243,"fergus":13244,"reflected":13245,"rosa":13246,"##ifax":13247,"emmy":13248,"zool":13249,"activated":13250,"encounter":13251,"marble":13252,"reynolds":13253,"nm":13254,"##ilder":13255,"##lar":13256,"leather":13257,"holdings":13258,"streak":13259,"##aic":13260,"prestigious":13261,"dinner":13262,"loud":13263,"##cestershire":13264,"allegations":13265,"malcolm":13266,"suspected":13267,"currency":13268,"##ahu":13269,"varieties":13270,"understood":13271,"##recht":13272,"algeria":13273,"##nut":13274,"pab":13275,"shim":13276,"brighton":13277,"vcard":13278,"metab":13279,"##gun":13280,"##apa":13281,"betty":13282,"hiv":13283,"##olin":13284,"promise":13285,"reop":13286,"educator":13287,"##azi":13288,"aberde":13289,"clinic":13290,"tackles":13291,"barnes":13292,"celebrate":13293,"landmarks":13294,"minimal":13295,"recruit":13296,"releasing":13297,"centered":13298,"zam":13299,"eleg":13300,"discipline":13301,"classics":13302,"para":13303,"ussr":13304,"uttar":13305,"ordained":13306,"##ocaust":13307,"messages":13308,"##eded":13309,"rape":13310,"blast":13311,"prehist":13312,"culmin":13313,"beneath":13314,"prevented":13315,"nose":13316,"nicolas":13317,"auditor":13318,"colours":13319,"nominee":13320,"##lete":13321,"stephan":13322,"improving":13323,"newfoundland":13324,"##ashtra":13325,"marl":13326,"nh":13327,"hels":13328,"marines":13329,"vend":13330,"lineup":13331,"sailors":13332,"##gon":13333,"julius":13334,"lancaster":13335,"mats":13336,"dragons":13337,"harvest":13338,"inver":13339,"monroe":13340,"collector":13341,"paradise":13342,"##emon":13343,"strengthen":13344,"compensation":13345,"trinidad":13346,"enabled":13347,"##annon":13348,"leip":13349,"##asian":13350,"treasury":13351,"##optera":13352,"cyber":13353,"laugh":13354,"##riages":13355,"boeing":13356,"##asse":13357,"duchy":13358,"ammun":13359,"rhine":13360,"epid":13361,"archaeology":13362,"##jev":13363,"dancers":13364,"conducting":13365,"atlas":13366,"grim":13367,"##aping":13368,"blank":13369,"mixture":13370,"consens":13371,"cohen":13372,"boxers":13373,"fier":13374,"lawsuit":13375,"fairly":13376,"estonian":13377,"interactions":13378,"stationed":13379,"martha":13380,"glad":13381,"destroyer":13382,"inland":13383,"realized":13384,"strikes":13385,"investigate":13386,"##ulture":13387,"holocaust":13388,"threats":13389,"##regular":13390,"volcano":13391,"medall":13392,"practition":13393,"hm":13394,"palomar":13395,"##amy":13396,"archer":13397,"threw":13398,"quarters":13399,"##employ":13400,"comprising":13401,"followers":13402,"##onna":13403,"##vae":13404,"unoff":13405,"##estrian":13406,"halifax":13407,"750":13408,"1825":13409,"resur":13410,"fbi":13411,"##isle":13412,"##ylum":13413,"agu":13414,"edwin":13415,"1775":13416,"irregular":13417,"dorothy":13418,"raiders":13419,"duration":13420,"rosen":13421,"worlds":13422,"plum":13423,"chate":13424,"elliott":13425,"travelling":13426,"##oye":13427,"kern":13428,"##inia":13429,"ethiopia":13430,"neighb":13431,"##esian":13432,"remar":13433,"##eve":13434,"lobby":13435,"bis":13436,"disorders":13437,"##woman":13438,"accounting":13439,"nou":13440,"anticip":13441,"diana":13442,"oliv":13443,"taste":13444,"croc":13445,"brigadier":13446,"permanently":13447,"pamp":13448,"enterpr":13449,"boarding":13450,"1828":13451,"georges":13452,"ammunition":13453,"julie":13454,"##ilion":13455,"item":13456,"fires":13457,"artif":13458,"requirement":13459,"casting":13460,"merely":13461,"audiences":13462,"bavaria":13463,"winnip":13464,"happen":13465,"marco":13466,"##stead":13467,"##hend":13468,"easter":13469,"##hurst":13470,"impression":13471,"##ylan":13472,"1814":13473,"watching":13474,"numer":13475,"submission":13476,"johns":13477,"trumpet":13478,"encourage":13479,"##eville":13480,"triangle":13481,"tac":13482,"testim":13483,"##zel":13484,"analyst":13485,"polyn":13486,"sg":13487,"entity":13488,"wednesday":13489,"jaw":13490,"ballot":13491,"##elect":13492,"investigations":13493,"dug":13494,"curve":13495,"finalist":13496,"enlisted":13497,"renewed":13498,"embr":13499,"topic":13500,"juven":13501,"owns":13502,"jake":13503,"tasmania":13504,"nicknamed":13505,"shrine":13506,"titan":13507,"morrison":13508,"##ulsion":13509,"intr":13510,"riot":13511,"speedway":13512,"repeatedly":13513,"enlar":13514,"##lining":13515,"configuration":13516,"##stration":13517,"##32":13518,"##idt":13519,"louisville":13520,"burke":13521,"mw":13522,"findings":13523,"yak":13524,"fusion":13525,"severely":13526,"limestone":13527,"shoulder":13528,"##uj":13529,"altered":13530,"hawk":13531,"confron":13532,"revel":13533,"prair":13534,"##hey":13535,"entries":13536,"ernst":13537,"eventual":13538,"##hev":13539,"targeted":13540,"uprising":13541,"magnitude":13542,"yun":13543,"##rition":13544,"##right":13545,"lug":13546,"thames":13547,"salem":13548,"conspiracy":13549,"##agram":13550,"underwent":13551,"##ochem":13552,"equality":13553,"##sted":13554,"frog":13555,"santos":13556,"bassist":13557,"winnipeg":13558,"wart":13559,"cherry":13560,"uruguay":13561,"°c":13562,"maintains":13563,"runway":13564,"cruise":13565,"rifles":13566,"sind":13567,"##core":13568,"kok":13569,"authorized":13570,"lightning":13571,"trend":13572,"til":13573,"lens":13574,"minne":13575,"mog":13576,"tc":13577,"biographical":13578,"synonym":13579,"array":13580,"rowing":13581,"imprisonment":13582,"pomer":13583,"pyram":13584,"pronounced":13585,"wyn":13586,"##dan":13587,"prey":13588,"della":13589,"witt":13590,"convoy":13591,"conversation":13592,"proxim":13593,"ucl":13594,"unemploy":13595,"boris":13596,"mesa":13597,"hierarch":13598,"missionaries":13599,"##agne":13600,"##ku":13601,"##hf":13602,"mentions":13603,"##hero":13604,"herman":13605,"telesc":13606,"dys":13607,"##ications":13608,"thermal":13609,"dayton":13610,"redesign":13611,"sensitive":13612,"revolt":13613,"cluster":13614,"attraction":13615,"##ophor":13616,"evangelical":13617,"porn":13618,"ulster":13619,"disappeared":13620,"homet":13621,"martinez":13622,"saxon":13623,"ct":13624,"annie":13625,"geometry":13626,"wireless":13627,"macedonia":13628,"bolivia":13629,"observer":13630,"dul":13631,"transformed":13632,"##44":13633,"deeply":13634,"##brand":13635,"guerr":13636,"cyn":13637,"zones":13638,"deals":13639,"glacier":13640,"macdonald":13641,"transmit":13642,"websites":13643,"##olith":13644,"bce":13645,"hurling":13646,"relegation":13647,"crawford":13648,"pregnant":13649,"weir":13650,"loves":13651,"heinrich":13652,"hex":13653,"richards":13654,"chrys":13655,"concord":13656,"##igi":13657,"##gent":13658,"automatically":13659,"portal":13660,"wrap":13661,"postal":13662,"bb":13663,"wore":13664,"premiership":13665,"ole":13666,"naples":13667,"madag":13668,"hardy":13669,"kazakhstan":13670,"disk":13671,"operas":13672,"streams":13673,"workshops":13674,"outs":13675,"lal":13676,"expanding":13677,"##cor":13678,"distant":13679,"swamp":13680,"nationally":13681,"soprano":13682,"demanded":13683,"attitude":13684,"crashed":13685,"##ivo":13686,"polyt":13687,"inches":13688,"mell":13689,"devast":13690,"tran":13691,"protagonist":13692,"feels":13693,"wolver":13694,"berry":13695,"##arin":13696,"thursday":13697,"hometown":13698,"relatives":13699,"casino":13700,"demo":13701,"stap":13702,"consequences":13703,"111":13704,"joins":13705,"1829":13706,"authentic":13707,"##amation":13708,"##andra":13709,"confederation":13710,"compat":13711,"deposits":13712,"restore":13713,"innovative":13714,"ley":13715,"alexandria":13716,"alto":13717,"##uru":13718,"syrac":13719,"fet":13720,"##inski":13721,"personally":13722,"conjunction":13723,"specimens":13724,"##alm":13725,"dot":13726,"equity":13727,"##elong":13728,"adoption":13729,"##elt":13730,"circus":13731,"explorer":13732,"1824":13733,"trails":13734,"potentially":13735,"telugu":13736,"dew":13737,"##run":13738,"contents":13739,"moreover":13740,"harmony":13741,"1826":13742,"##rup":13743,"##strom":13744,"##flies":13745,"stronger":13746,"##azar":13747,"developers":13748,"knox":13749,"kul":13750,"seized":13751,"accidents":13752,"rainfall":13753,"arcade":13754,"bulk":13755,"chu":13756,"foundations":13757,"rotation":13758,"assassination":13759,"##ifor":13760,"wickets":13761,"gop":13762,"##iman":13763,"electro":13764,"##iza":13765,"divorced":13766,"unexp":13767,"willie":13768,"particles":13769,"##adal":13770,"closest":13771,"occasional":13772,"inhabited":13773,"##adors":13774,"booth":13775,"rican":13776,"probability":13777,"##ifice":13778,"reef":13779,"silk":13780,"greens":13781,"fond":13782,"##inge":13783,"paying":13784,"cis":13785,"permit":13786,"dimensions":13787,"unve":13788,"vulnerable":13789,"##phone":13790,"withdrawn":13791,"##esia":13792,"cay":13793,"lynch":13794,"hect":13795,"floors":13796,"jub":13797,"##chron":13798,"jab":13799,"cello":13800,"vacc":13801,"leipzig":13802,"schem":13803,"varied":13804,"nj":13805,"fees":13806,"onwards":13807,"##roke":13808,"pend":13809,"rica":13810,"enterprises":13811,"##wyn":13812,"knockout":13813,"transact":13814,"fool":13815,"referee":13816,"upgraded":13817,"confront":13818,"cyclone":13819,"instructor":13820,"##gang":13821,"##linary":13822,"gujar":13823,"millennium":13824,"strategies":13825,"environments":13826,"recognize":13827,"tune":13828,"diploma":13829,"welcome":13830,"raja":13831,"##adh":13832,"institutional":13833,"wikip":13834,"consent":13835,"gian":13836,"detect":13837,"synthesis":13838,"ancestry":13839,"mathematician":13840,"yemen":13841,"courth":13842,"dimension":13843,"rubber":13844,"councils":13845,"##iqu":13846,"hayes":13847,"yankees":13848,"##stock":13849,"humanity":13850,"##raf":13851,"bw":13852,"frig":13853,"itv":13854,"##oline":13855,"claire":13856,"perez":13857,"pipe":13858,"aunt":13859,"##ieri":13860,"subfamily":13861,"decree":13862,"quoted":13863,"pocket":13864,"1821":13865,"marg":13866,"bombers":13867,"nath":13868,"fragment":13869,"personalities":13870,"fertil":13871,"wald":13872,"meh":13873,"syracuse":13874,"shifted":13875,"derek":13876,"inquiry":13877,"larvae":13878,"researcher":13879,"promotional":13880,"nationals":13881,"picks":13882,"##mor":13883,"panels":13884,"##icester":13885,"specified":13886,"elis":13887,"dhar":13888,"armor":13889,"munster":13890,"mysterious":13891,"fever":13892,"ain":13893,"correl":13894,"sear":13895,"##aders":13896,"cameroon":13897,"translator":13898,"##asan":13899,"concentrated":13900,"hano":13901,"enable":13902,"quarterfinals":13903,"economist":13904,"##iu":13905,"empress":13906,"propaganda":13907,"comprom":13908,"absent":13909,"##iens":13910,"noting":13911,"scouts":13912,"terrain":13913,"schl":13914,"maharashtra":13915,"nascar":13916,"##ographies":13917,"crazy":13918,"chop":13919,"extraord":13920,"##ships":13921,"##beat":13922,"hosting":13923,"bea":13924,"tues":13925,"unw":13926,"encountered":13927,"melody":13928,"collecting":13929,"wav":13930,"plateau":13931,"##34":13932,"tah":13933,"phenomenon":13934,"##shore":13935,"forec":13936,"deceased":13937,"##anton":13938,"sequences":13939,"johnston":13940,"hank":13941,"##lean":13942,"norton":13943,"precip":13944,"storyline":13945,"propr":13946,"rhin":13947,"lebanese":13948,"kod":13949,"sofia":13950,"cognitive":13951,"cran":13952,"##lay":13953,"##sten":13954,"##elsen":13955,"##arium":13956,"phant":13957,"staged":13958,"dwar":13959,"decrease":13960,"primera":13961,"bra":13962,"##lord":13963,"##nings":13964,"blade":13965,"ket":13966,"##anmar":13967,"consul":13968,"fault":13969,"hopes":13970,"wilderness":13971,"consensus":13972,"##ienne":13973,"##power":13974,"enhanced":13975,"##acular":13976,"bicycle":13977,"##pc":13978,"colombian":13979,"clothes":13980,"1801":13981,"feeding":13982,"minneapolis":13983,"varies":13984,"##igs":13985,"##chel":13986,"xv":13987,"squadrons":13988,"etymology":13989,"weaken":13990,"portsmouth":13991,"dear":13992,"newman":13993,"zamb":13994,"##escent":13995,"shepher":13996,"##rock":13997,"nobility":13998,"##season":13999,"lum":14000,"silva":14001,"ruf":14002,"estimates":14003,"##imer":14004,"unified":14005,"yuk":14006,"kinder":14007,"translations":14008,"##part":14009,"naked":14010,"lance":14011,"disabled":14012,"reconc":14013,"keen":14014,"battalions":14015,"anto":14016,"stretch":14017,"buddhism":14018,"cia":14019,"treasurer":14020,"topped":14021,"logan":14022,"blair":14023,"intensity":14024,"pounds":14025,"simul":14026,"uncom":14027,"##iae":14028,"1813":14029,"carved":14030,"suffolk":14031,"lucky":14032,"rode":14033,"adolf":14034,"##urated":14035,"##cott":14036,"gaming":14037,"##rations":14038,"potter":14039,"monks":14040,"carpenter":14041,"laps":14042,"diary":14043,"##egie":14044,"aleks":14045,"nsw":14046,"romans":14047,"chicken":14048,"##millan":14049,"apollo":14050,"imposed":14051,"crowned":14052,"treasure":14053,"##iol":14054,"sunk":14055,"extraordinary":14056,"zu":14057,"shallow":14058,"lease":14059,"costume":14060,"hok":14061,"##kett":14062,"astr":14063,"grandmother":14064,"1818":14065,"cooking":14066,"mohammad":14067,"karnat":14068,"define":14069,"##pace":14070,"##cul":14071,"lighthouse":14072,"shrub":14073,"rao":14074,"##atoes":14075,"humor":14076,"synag":14077,"euc":14078,"bengali":14079,"##ean":14080,"portfol":14081,"forbes":14082,"reunion":14083,"remn":14084,"plantation":14085,"impressive":14086,"1810":14087,"maiden":14088,"glob":14089,"tanzania":14090,"##jiang":14091,"flooding":14092,"receptor":14093,"pok":14094,"strang":14095,"expatriates":14096,"abortion":14097,"chains":14098,"vick":14099,"stab":14100,"tribune":14101,"janeiro":14102,"myanmar":14103,"instructions":14104,"manufacture":14105,"clara":14106,"unexpected":14107,"##nai":14108,"diab":14109,"nk":14110,"shu":14111,"lifestyle":14112,"ez":14113,"beast":14114,"puzz":14115,"##etz":14116,"saxony":14117,"##ynam":14118,"hitting":14119,"za":14120,"guided":14121,"pled":14122,"leicester":14123,"graduates":14124,"nab":14125,"proportion":14126,"##si":14127,"rt":14128,"bard":14129,"dell":14130,"##iak":14131,"bankruptcy":14132,"autobiography":14133,"##etto":14134,"easier":14135,"tens":14136,"##quez":14137,"virtually":14138,"trainer":14139,"atp":14140,"##onduct":14141,"reads":14142,"trips":14143,"##onde":14144,"meyer":14145,"proposals":14146,"measurement":14147,"voltage":14148,"cancel":14149,"falcon":14150,"consequence":14151,"bombs":14152,"generate":14153,"griffith":14154,"oxid":14155,"##rams":14156,"linux":14157,"quarterly":14158,"wikipedia":14159,"kv":14160,"roller":14161,"##amine":14162,"##oys":14163,"suggesting":14164,"hoped":14165,"specifications":14166,"laf":14167,"moses":14168,"ves":14169,"neighborhoods":14170,"##aton":14171,"##icit":14172,"bruno":14173,"grac":14174,"recreational":14175,"ort":14176,"##ictions":14177,"madagascar":14178,"##eding":14179,"churchill":14180,"##len":14181,"stabil":14182,"maid":14183,"##itely":14184,"pursued":14185,"dozen":14186,"strait":14187,"explore":14188,"##ophon":14189,"fairy":14190,"mou":14191,"vampire":14192,"114":14193,"boost":14194,"inclusion":14195,"providence":14196,"##onn":14197,"measuring":14198,"prussia":14199,"reluct":14200,"pension":14201,"##rob":14202,"##orne":14203,"prussian":14204,"corridor":14205,"drake":14206,"loans":14207,"charleston":14208,"surfaces":14209,"dynamics":14210,"superc":14211,"impressed":14212,"karnataka":14213,"ald":14214,"courage":14215,"bonds":14216,"viscount":14217,"##elyn":14218,"dash":14219,"##urance":14220,"##enza":14221,"##nar":14222,"rex":14223,"miche":14224,"directions":14225,"pollution":14226,"##atham":14227,"##mail":14228,"mcm":14229,"greene":14230,"kai":14231,"barber":14232,"judgment":14233,"##aceous":14234,"##ifa":14235,"baden":14236,"mock":14237,"lesbian":14238,"certification":14239,"hc":14240,"##minton":14241,"mobil":14242,"rebounds":14243,"striking":14244,"##yd":14245,"##oughton":14246,"vault":14247,"##asis":14248,"ved":14249,"siblings":14250,"darwin":14251,"vegetation":14252,"rivalry":14253,"##isy":14254,"guatemala":14255,"##amas":14256,"varying":14257,"cowboys":14258,"healthy":14259,"##anus":14260,"chef":14261,"guarant":14262,"formats":14263,"layers":14264,"##avier":14265,"constantly":14266,"##harmon":14267,"evalu":14268,"muk":14269,"monet":14270,"consolidated":14271,"amar":14272,"hawks":14273,"balls":14274,"##iffer":14275,"badminton":14276,"capabilities":14277,"browns":14278,"overw":14279,"confusion":14280,"assembled":14281,"papua":14282,"patricia":14283,"vander":14284,"##athi":14285,"confirm":14286,"transpar":14287,"mn":14288,"claus":14289,"consciousness":14290,"provisional":14291,"leopold":14292,"maxwell":14293,"taj":14294,"##occ":14295,"##ativity":14296,"##itative":14297,"rainbow":14298,"melan":14299,"kau":14300,"transported":14301,"horizontal":14302,"rejo":14303,"##itated":14304,"sketch":14305,"roberto":14306,"frost":14307,"supporter":14308,"##ician":14309,"plural":14310,"antib":14311,"leh":14312,"galleries":14313,"magist":14314,"gravity":14315,"moist":14316,"learns":14317,"##mph":14318,"kosovo":14319,"arche":14320,"lia":14321,"thomson":14322,"eighteen":14323,"##itious":14324,"pri":14325,"randy":14326,"ish":14327,"##uke":14328,"institutes":14329,"##aris":14330,"sacramento":14331,"tomas":14332,"yosh":14333,"112":14334,"triumph":14335,"kane":14336,"##iety":14337,"##urai":14338,"##asm":14339,"##piece":14340,"baldwin":14341,"syll":14342,"wildc":14343,"graz":14344,"carnegie":14345,"occurring":14346,"##ilis":14347,"##alon":14348,"accomplished":14349,"draws":14350,"baltic":14351,"malayalam":14352,"properly":14353,"casey":14354,"jewel":14355,"sq":14356,"##icul":14357,"cree":14358,"witnesses":14359,"velocity":14360,"surve":14361,"reass":14362,"##arag":14363,"trace":14364,"cic":14365,"hog":14366,"ceas":14367,"renovation":14368,"assignment":14369,"trucks":14370,"sanche":14371,"tb":14372,"directing":14373,"scorer":14374,"##oya":14375,"##xy":14376,"shak":14377,"traged":14378,"trunk":14379,"##ounce":14380,"desper":14381,"mongol":14382,"gazette":14383,"tourists":14384,"modest":14385,"armoured":14386,"barrier":14387,"bark":14388,"pitt":14389,"loose":14390,"mph":14391,"inventor":14392,"##ск":14393,"regulatory":14394,"tactics":14395,"moham":14396,"conven":14397,"krishna":14398,"cruiser":14399,"trem":14400,"1822":14401,"sweep":14402,"pard":14403,"prairie":14404,"jorge":14405,"cairo":14406,"##anto":14407,"publish":14408,"25th":14409,"##usters":14410,"dispers":14411,"##isers":14412,"teenage":14413,"voluntary":14414,"notor":14415,"zion":14416,"scots":14417,"delegation":14418,"equally":14419,"jungle":14420,"##hart":14421,"francesco":14422,"##enary":14423,"summar":14424,"##amba":14425,"governed":14426,"griffin":14427,"kamp":14428,"hondur":14429,"##pi":14430,"1827":14431,"maple":14432,"sanchez":14433,"##emia":14434,"explanation":14435,"nl":14436,"stack":14437,"tribun":14438,"1816":14439,"panch":14440,"orientation":14441,"barrel":14442,"coordinator":14443,"councillor":14444,"homer":14445,"councillors":14446,"ef":14447,"drives":14448,"powder":14449,"evident":14450,"gerard":14451,"spat":14452,"substance":14453,"jessica":14454,"diagnosis":14455,"convey":14456,"##55":14457,"rafael":14458,"acre":14459,"##erner":14460,"bike":14461,"rectang":14462,"ecclesiast":14463,"submarines":14464,"acquire":14465,"pilgrim":14466,"acknowledged":14467,"##onte":14468,"##ctica":14469,"philippe":14470,"catalina":14471,"latvia":14472,"##oder":14473,"##hail":14474,"vish":14475,"joshua":14476,"##alus":14477,"unanimous":14478,"airing":14479,"##66":14480,"geoffrey":14481,"##cock":14482,"bombardment":14483,"##lore":14484,"##ucts":14485,"rw":14486,"##bone":14487,"cheng":14488,"##des":14489,"holes":14490,"agreements":14491,"walsh":14492,"##ango":14493,"##nic":14494,"113":14495,"interpreted":14496,"mascul":14497,"thrown":14498,"##rium":14499,"chord":14500,"fug":14501,"##atum":14502,"##dc":14503,"##illance":14504,"withdrawal":14505,"stair":14506,"roland":14507,"##ipper":14508,"mature":14509,"wc":14510,"priority":14511,"governmental":14512,"contestant":14513,"pf":14514,"##gard":14515,"fcc":14516,"whate":14517,"citation":14518,"warrant":14519,"solely":14520,"servants":14521,"lj":14522,"presum":14523,"##enny":14524,"involve":14525,"deutsche":14526,"cumber":14527,"invitation":14528,"zhu":14529,"knowing":14530,"harp":14531,"##aceutical":14532,"supers":14533,"jeffrey":14534,"variab":14535,"venezuelan":14536,"preparing":14537,"hurt":14538,"summers":14539,"scales":14540,"admission":14541,"cameras":14542,"darkness":14543,"cooperative":14544,"hydra":14545,"mechanisms":14546,"perf":14547,"gains":14548,"wash":14549,"exhibits":14550,"##rates":14551,"kara":14552,"##otten":14553,"fuller":14554,"trailer":14555,"whatever":14556,"aberdeen":14557,"jing":14558,"superman":14559,"practiced":14560,"wwe":14561,"css":14562,"fights":14563,"##bh":14564,"fiji":14565,"dylan":14566,"naturally":14567,"mccar":14568,"##ether":14569,"##db":14570,"kilometres":14571,"telecommunications":14572,"millions":14573,"climbing":14574,"forbid":14575,"hermann":14576,"##antes":14577,"angry":14578,"apartments":14579,"opposing":14580,"##enues":14581,"##ocer":14582,"rak":14583,"frust":14584,"fratern":14585,"rd2":14586,
[...]
