{"version":"1.0","truncation":null,"padding":null,"added_tokens":[{"id":0,"special":true,"content":"[PAD]","single_word":false,"lstrip":false,"rstrip":false,"normalized":false},{"id":1,"special":true,"content":"[UNK]","single_word":false,"lstrip":false,"rstrip":false,"normalized":false},{"id":2,"special":true,"content":"[CLS]","single_word":false,"lstrip":false,"rstrip":false,"normalized":false},{"id":3,"special":true,"content":"[SEP]","single_word":false,"lstrip":false,"rstrip":false,"normalized":false},{"id":4,"special":true,"content":"[MASK]","single_word":false,"lstrip":false,"rstrip":false,"normalized":false}],"normalizer":null,"pre_tokenizer":{"type":"ByteLevel","add_prefix_space":false,"trim_offsets":true},"post_processor":{"type":"ByteLevel","add_prefix_space":true,"trim_offsets":false},"decoder":{"type":"ByteLevel","add_prefix_space":true,"trim_offsets":true},"model":{"dropout":null,"unk_token":null,"continuing_subword_prefix":null,"end_of_word_suffix":null,"fuse_unk":false,"vocab":{"[PAD]":0,"[UNK]":1,"[CLS]":2,"[SEP]":3,"[MASK]":4,"!":5,"\"":6,"#":7,"$":8,"%":9,"&":10,"'":11,"(":12,")":13,"*":14,"+":15,",":16,"-":17,".":18,"/":19,"0":20,"1":21,"2":22,"3":23,"4":24,"5":25,"6":26,"7":27,"8":28,"9":29,":":30,";":31,"<":32,"=":33,">":34,"?":35,"@":36,"A":37,"B":38,"C":39,"D":40,"E":41,"F":42,"G":43,"H":44,"I":45,"J":46,"K":47,"L":48,"M":49,"N":50,"O":51,"P":52,"Q":53,"R":54,"S":55,"T":56,"U":57,"V":58,"W":59,"X":60,"Y":61,"Z":62,"[":63,"\\":64,"]":65,"^":66,"_":67,"`":68,"a":69,"b":70,"c":71,"d":72,"e":73,"f":74,"g":75,"h":76,"i":77,"j":78,"k":79,"l":80,"m":81,"n":82,"o":83,"p":84,"q":85,"r":86,"s":87,"t":88,"u":89,"v":90,"w":91,"x":92,"y":93,"z":94,"{":95,"|":96,"}":97,"~":98,"¡":99,"¢":100,"£":101,"¤":102,"¥":103,"¦":104,"§":105,"¨":106,"©":107,"ª":108,"«":109,"¬":110,"®":111,"¯":112,"°":113,"±":114,"²":115,"³":116,"´":117,"µ":118,"¶":119,"·":120,"¸":121,"¹":122,"º":123,"»":124,"¼":125,"½":126,"¾":127,"¿":128,"À":129,"Á":130,"Â":131,"Ã":132,"Ä":133,"Å":134,"Æ":135,"Ç":136,"È":137,"É":138,"Ê":139,"Ë":140,"Ì":141,"Í":142,"Î":143,"Ï":144,"Ð":145,"Ñ":146,"Ò":147,"Ó":148,"Ô":149,"Õ":150,"Ö":151,"×":152,"Ø":153,"Ù":154,"Ú":155,"Û":156,"Ü":157,"Ý":158,"Þ":159,"ß":160,"à":161,"á":162,"â":163,"ã":164,"ä":165,"å":166,"æ":167,"ç":168,"è":169,"é":170,"ê":171,"ë":172,"ì":173,"í":174,"î":175,"ï":176,"ð":177,"ñ":178,"ò":179,"ó":180,"ô":181,"õ":182,"ö":183,"÷":184,"ø":185,"ù":186,"ú":187,"û":188,"ü":189,"ý":190,"þ":191,"ÿ":192,"Ā":193,"ā":194,"Ă":195,"ă":196,"Ą":197,"ą":198,"Ć":199,"ć":200,"Ĉ":201,"ĉ":202,"Ċ":203,"ċ":204,"Č":205,"č":206,"Ď":207,"ď":208,"Đ":209,"đ":210,"Ē":211,"ē":212,"Ĕ":213,"ĕ":214,"Ė":215,"ė":216,"Ę":217,"ę":218,"Ě":219,"ě":220,"Ĝ":221,"ĝ":222,"Ğ":223,"ğ":224,"Ġ":225,"ġ":226,"Ģ":227,"ģ":228,"Ĥ":229,"ĥ":230,"Ħ":231,"ħ":232,"Ĩ":233,"ĩ":234,"Ī":235,"ī":236,"Ĭ":237,"ĭ":238,"Į":239,"į":240,"İ":241,"ı":242,"Ĳ":243,"ĳ":244,"Ĵ":245,"ĵ":246,"Ķ":247,"ķ":248,"ĸ":249,"Ĺ":250,"ĺ":251,"Ļ":252,"ļ":253,"Ľ":254,"ľ":255,"Ŀ":256,"ŀ":257,"Ł":258,"ł":259,"Ń":260,"Ġt":261,"he":262,"in":263,"Ġa":264,"er":265,"on":266,"or":267,"Ġthe":268,"at":269,"an":270,"en":271,"es":272,"ed":273,"Ġo":274,"is":275,"Ġs":276,"ar":277,"al":278,"Ġw":279,"it":280,"Ġof":281,"nd":282,"Ġin":283,"Ġf":284,"re":285,"Ġc":286,"Ġb":287,"ic":288,"as":289,"Ġp":290,"ing":291,"Ġand":292,"ion":293,"ro":294,"le":295,"ĠS":296,"Ġto":297,"Ġm":298,"ĠC":299,"Ġd":300,"ou":301,"ĠA":302,"il":303,"ent":304,"Ġ1":305,"ĠT":306,"Ġh":307,"am":308,"ĠM":309,"ate":310,"om":311,"ol":312,"el":313,"st":314,"Ġ(":315,"ĠB":316,"ct":317,"ur":318,"Ġl":319,"ĠP":320,"ad":321,"ory":322,"et":323,"ch":324,"iv":325,"ir":326,"ĠH":327,"ers":328,"ation":329,"Ġ2":330,"Ġre":331,"Ġn":332,"Ġwas":333,"ĠI":334,"ig":335,"ateg":336,"ategory":337,"id":338,"Category":339,"ot":340,"ĠR":341,"Ġth":342,"us":343,"Ġe":344,"Ġfor":345,"ce":346,"ly":347,"Ġon":348,"ĠD":349,"ay":350,"im":351,"ĠL":352,"ter":353,"Ġ19":354,"Ġis":355,"ĠF":356,"ut":357,"Ġg":358,"ist":359,"ra":360,"ĠG":361,"ow":362,"Ġas":363,"ĠN":364,"un":365,"em":366,"ĠThe":367,"ĠW":368,"th":369,"ith":370,"Ġ20":371,"her":372,"and":373,"Ġst":374,"Ġbe":375,"ul":376,"ĠE":377,"ĠJ":378,"Ġwith":379,"Ġal":380,"âĢ":381,"Ġby":382,"ag":383,"est":384,"um":385,"os":386,"Ġr":387,"op":388,"rom":389,"ver":390,"ac":391,"Ġat":392,"'s":393,"ri":394,"ĠO":395,"Ġwh":396,"Ġan":397,"oc":398,"Ġcon":399,"ian":400,"Ġfrom":401,"ess":402,"Ġhe":403,"Ġde":404,"ĠK":405,"Ġv":406,"ia":407,"ain":408,"od":409,"Ġthat":410,"ity":411,"all":412,"ber":413,"ies":414,"âĢĵ":415,"Ġ\"":416,"av":417,"ĠU":418,"art":419,"Ġcom":420,"if":421,"ab":422,"ill":423,"Ġpro":424,"ew":425,"up":426,"ort":427,"ard":428,"Ġse":429,"ud":430,"ĠĊ":431,"pe":432,"ĠSt":433,"Ġit":434,"Ġpl":435,"ak":436,"igh":437,"19":438,"ub":439,"ip":440,"Ġhis":441,"ich":442,"Ġor":443,"ap":444,"ov":445,"qu":446,"ld":447,"00":448,"ated":449,"ant":450,"ment":451,"ary":452,"ĠIn":453,"The":454,"ĠCh":455,"ge":456,"ish":457,"oun":458,"fer":459,"se":460,"ĠV":461,"ive":462,"our":463,"mer":464,"Ġ201":465,"end":466,"og":467,"ear":468,"ial":469,"ong":470,"Ġare":471,"ug":472,"Ġch":473,"ast":474,"ces":475,"ks":476,"Ġex":477,"ine":478,"und":479,"ell":480,"ere":481,"ust":482,"Ġ200":483,"ep":484,"ore":485,"ord":486,"ction":487,"so":488,"ame":489,"uc":490,"ran":491,"Ġwere":492,"ight":493,"ical":494,"ie":495,"ost":496,"Ġle":497,"tern":498,"Ġ|":499,"ue":500,"),":501,"ign":502,"Ġalso":503,"ĠUn":504,"ĠHe":505,"Ġwhich":506,"ric":507,"Ġcomp":508,"cl":509,"ther":510,"Ġsh":511,"Ġy":512,"rit":513,"Ġk":514,"Ġplay":515,"age":516,"ry":517,"Ġ18":518,"ass":519,"ure":520,"ff":521,"ount":522,"Ġ||":523,"man":524,"ire":525,"port":526,"feren":527,"irst":528,"res":529,"ous":530,"Re":531,"ition":532,"ĠâĢĵ":533,"Ġun":534,"te":535,"ork":536,"Ġ3":537,"iz":538,"Ġar":539,"ts":540,"erv":541,"ond":542,"ational":543,"ack":544,"ide":545,"Ġcl":546,"per":547,"ĠY":548,"Ġhad":549,"Ġte":550,"land":551,"Ġhas":552,"own":553,"ok":554,"hed":555,"ang":556,"ations":557,"Ġnot":558,"ice":559,"pl":560,"orn":561,"ave":562,"Ġfirst":563,"ome":564,"ferences":565,"ican":566,"ĠIt":567,"Ġres":568,"Ġwhe":569,"ib":570,"fter":571,"ey":572,"Ġro":573,"ater":574,"ect":575,"Ġus":576,"ens":577,"References":578,"amp":579,"Ġcont":580,"ĠAl":581,"wo":582,"ach":583,"ĠTh":584,"ph":585,"In":586,"ec":587,"Ġ199":588,"ree":589,"ates":590,"Ġad":591,"ions":592,"to":593,"ult":594,"ĠAr":595,"Ġpart":596,"Ġ-":597,"ime":598,"ited":599,"ople":600,"ilm":601,"ool":602,"Ġtheir":603,"Ġwho":604,"Ġap":605,"ound":606,"ru":607,"Ġits":608,"aw":609,"Ġj":610,").":611,"ath":612,"20":613,"ĠMar":614,"Ġher":615,"ubl":616,"ivers":617,"out":618,"ik":619,"ember":620,"over":621,"pt":622,"ild":623,"ee":624,"ace":625,"merican":626,"Ġab":627,"Ġbut":628,"ite":629,"ors":630,"iss":631,"ence":632,"cc":633,"ents":634,"Ġyear":635,"clud":636,"Ġone":637,"eople":638,"oll":639,"are":640,"ugh":641,"ile":642,"inal":643,"Ġ4":644,"ng":645,"old":646,"eb":647,"ual":648,"for":649,"Ġper":650,"ĠNew":651,"ĠĠ":652,"Ġrec":653,"ade":654,"ress":655,"wn":656,"ould":657,"Ġman":658,"eg":659,"les":660,"chool":661,"act":662,"Ġag":663,"Ġhave":664,"hip":665,"oy":666,"Ġsc":667,"ward":668,"uring":669,"Ġtwo":670,"ons":671,"Ġinclud":672,"oot":673,"Ġbec":674,"Ġthis":675,"io":676,"ased":677,"ss":678,"Ġall":679,"oin":680,"Ġen":681,"vel":682,"Ġdes":683,"ark":684,"ob":685,"ail":686,"ings":687,"ĠCom":688,"ton":689,"ied":690,"ind":691,"Ġ198":692,"Ġcomm":693,"Ġbeen":694,"Ġother":695,"ball":696,"gh":697,"urn":698,"Ġfilm":699,"ics":700,"uch":701,"outh":702,"Ġdis":703,"ted":704,"Ġ5":705,"Ġim":706,"Ġlin":707,"Ġafter":708,"able":709,"we":710,"ral":711,"ĠDe":712,"oh":713,"ance":714,"Ġoff":715,"Ġsp":716,"ah":717,"ft":718,"ren":719,"Ġup":720,"gan":721,"orld":722,"ood":723,"iversity":724,"ished":725,"ĠLe":726,"one":727,"Ġover":728,"Ġout":729,"pec":730,"18":731,"ne":732,"ision":733,"Ġserv":734,"ram":735,"way":736,"Ġ197":737,"Ex":738,"ase":739,"olog":740,"Ġpeople":741,"lect":742,"Ġnew":743,"Ġev":744,"ĠAmerican":745,"red":746,"ury":747,"Ġshe":748,"Ġund":749,"Ġloc":750,"Ġthey":751,"ans":752,"ĠAn":753,"rib":754,"ough":755,"Ġinto":756,"Âł":757,"ternal":758,"Ġra":759,"Ġact":760,"Ġtra":761,"Ġgro":762,"orth":763,"200":764,"Ġwork":765,"ĠSh":766,"ale":767,"ames":768,"eral":769,"ont":770,"ex":771,"che":772,"Ġ6":773,"Ġcan":774,"ason":775,"Ġatt":776,"ists":777,"ĠUnited":778,"ose":779,"du":780,"ick":781,"ake":782,"Ġpre":783,"ict":784,"ll":785,"ock":786,"Ã©":787,"Ġtime":788,"rough":789,"az":790,"Ġbu":791,"Ġlinks":792,"ily":793,"rans":794,"iel":795,"ootball":796,"Ġsec":797,"Ġunder":798,"ious":799,"Ġ196":800,"Ġkn":801,"External":802,"ix":803,"ince":804,"rad":805,"oth":806,"ĠInd":807,"ĠPro":808,"ĠZ":809,"ĠUniversity":810,"als":811,"pr":812,"form":813,"eat":814,"cent":815,"oci":816,"ĠCol":817,"Ġhim":818,"Ġreg":819,"ident":820,"ife":821,"ever":822,"Ġpol":823,"Ġbet":824,"ities":825,"Ġpr":826,"reat":827,"inn":828,"ck":829,"Ġpubl":830,"ins":831,"ier":832,"aj":833,"use":834,"ouse":835,"duc":836,"ely":837,"ĠâĢ":838,"Ġwhen":839,"Ġteam":840,"ann":841,"air":842,"ars":843,"Ġmore":844,"ina":845,"emb":846,"usic":847,"Ġyears":848,"bum":849,"Ġcent":850,"iving":851,"Ġcons":852,"att":853,"Ġop":854,"ular":855,"ollow":856,"Ġwould":857,"Ġind":858,"ween":859,"ev":860,"Ġplayers":861,"Ġcol":862,"Ġ7":863,"ative":864,"Ġest":865,"ober":866,"Ġstud":867,"raph":868,"Ġform":869,"Ġco":870,"overn":871,"ĠCl":872,"ĠSc":873,"der":874,"resent":875,"any":876,"Ġbo":877,"eries":878,"Ġwhere":879,"enn":880,"Ġagain":881,"Ġsub":882,"Ġduring":883,"Ġret":884,"ounty":885,"lish":886,"ohn":887,"Ġqu":888,"Ġsup":889,"ĠEng":890,"Ġonly":891,"Ġ194":892,"arl":893,"Ġass":894,"ced":895,"ĠStates":896,"irect":897,"ley":898,"Ġgen":899,"Ġsy":900,"Ġfound":901,"Ġme":902,"Ġfam":903,"201":904,"Ġfl":905,"ash":906,"pro":907,"round":908,"ional":909,"Ġmost":910,"Ġrel":911,"iam":912,"Ġrele":913,"Ġbetween":914,"Ġbir":915,"Ġspec":916,"istory":917,"erman":918,"cess":919,"ific":920,"Ġinter":921,"Ġ195":922,"Ġ17":923,"Ġacc":924,"Ġed":925,"Ġabout":926,"istric":927,"ĠShe":928,"Ġ8":929,"Ġalbum":930,"Ġthree":931,"Ġthrough":932,"ield":933,"Ġart":934,"Ġfootball":935,"ths":936,"Ġused":937,"ron":938,"ague":939,"ĠFor":940,"iver":941,"Ġsing":942,"Ġrem":943,"hen":944,"ank":945,"ten":946,"ating":947,"Ġnum":948,"Ġthem":949,"Ġmade":950,"Ġthere":951,"fore":952,"ĠAs":953,"Ġac":954,"erm":955,"Ġschool":956,"Ġso":957,"Ġend":958,"Ġpop":959,"Ġlater":960,"Ġfollow":961,"Ġmov":962,"ower":963,"ĠIs":964,"velop":965,"ĠThis":966,"Ġseason":967,"Ġwrit":968,"ograph":969,"Ġthen":970,"ures":971,"\".":972,"ĠQ":973,"ĠFran":974,"son":975,"ern":976,"arg":977,"ject":978,"mp":979,"erson":980,"Ġdef":981,"Ġsecond":982,".\"":983,"ines":984,"ĠCounty":985,"ived":986,"Ġ9":987,"uss":988,"oss":989,"ĠSp":990,"une":991,"ve":992,"Ġsuch":993,"ĠWar":994,"Ġknown":995,"ĠJohn":996,"Ġtrans":997,"arly":998,"Ġinv":999,"ĠComm":1000,"Ġrecord":1001,"ept":1002,"lection":1003,"199":1004,"ĠOn":1005,"ĠWorld":1006,"iew":1007,"Ġthan":1008,"Ġent":1009,"ism":1010,"ĠAust":1011,"its":1012,"istrict":1013,"Ġset":1014,"ĠNational":1015,"Ġinc":1016,"Ġprov":1017,"ĠCon":1018,"stit":1019,"\",":1020,"uro":1021,"Ġ10":1022,"Ġph":1023,"Ġsome":1024,"Ġmed":1025,"cy":1026,"Ġbecame":1027,"ural":1028,"lev":1029,"ĠBl":1030,"ments":1031,"ĠPh":1032,"Ġ&":1033,"Ġam":1034,"ement":1035,"ty":1036,"ĠJan":1037,"ai":1038,"ĠSchool":1039,"Ġbl":1040,"ternational":1041,"Ġestab":1042,"ĠMay":1043,"ax":1044,"eth":1045,"ise":1046,"els":1047,"ĠBrit":1048,"urch":1049,"pos":1050,"Ġdo":1051,"Ġcall":1052,"omen":1053,"ute":1054,"ĠPl":1055,"Ġbeing":1056,"Ġmon":1057,"Ġseries":1058,"Ġlead":1059,"Ġfour":1060,"ays":1061,"Ġwell":1062,"very":1063,"ike":1064,"tain":1065,"stem":1066,"Ġ16":1067,"arn":1068,"Ġ193":1069,"Ġgroup":1070,"ĠCan":1071,"ister":1072,"ĠAt":1073,"other":1074,"til":1075,"let":1076,"Ġsong":1077,"Ġappe":1078,"Ġincluding":1079,"ather":1080,"Ġ15":1081,"arri":1082,"Ġdirect":1083,"ĠYork":1084,"Ġint":1085,"rid":1086,"ĠSouth":1087,"ĠAd":1088,"ull":1089,"ys":1090,"rist":1091,"ution":1092,"Ġdeath":1093,"ĠGerman":1094,"Ġagainst":1095,"000":1096,"born":1097,"ampions":1098,"my":1099,"ives":1100,"Ġsur":1101,"Ġadd":1102,"ology":1103,"ians":1104,"Ġdevelop":1105,"by":1106,"ĠOr":1107,"uary":1108,"Ġmany":1109,"|-":1110,"Ġoper":1111,"Ġmay":1112,"ĠNov":1113,"ĠJu":1114,"Ġbefore":1115,"elf":1116,"ef":1117,"Ġbro":1118,"amed":1119,"ke":1120,"Ġmod":1121,"Ġshow":1122,"Ġrece":1123,"owever":1124,"ugust":1125,"Ġwhile":1126,"Ġno":1127,"Ġdec":1128,"ica":1129,"areer":1130,"ract":1131,"Ġown":1132,"overnment":1133,"ĠPr":1134,"Ġhigh":1135,"Ġmusic":1136,"eptember":1137,"Ġsign":1138,"Ġcap":1139,"au":1140,"ues":1141,"gram":1142,"Ġmain":1143,"Ġbuild":1144,"ĠCent":1145,"ets":1146,"ae":1147,"Ġoffic":1148,"ized":1149,"Ġchar":1150,"Ġgo":1151,"Ġ.":1152,"Ġmin":1153,"ently":1154,"eng":1155,"Ġfamily":1156,"ctober":1157,"Ġnumber":1158,"aid":1159,"ired":1160,"Ġorig":1161,"Ġuntil":1162,"lege":1163,"Ġname":1164,"ting":1165,"rand":1166,"Ġboth":1167,"istor":1168,"Ġbirths":1169,"Ġstate":1170,"oman":1171,"led":1172,"Ġpolit":1173,"uth":1174,"por":1175,"embers":1176,"ĠMarch":1177,"ĠâĢĶ":1178,"ĠGe":1179,"fess":1180,"Ġ12":1181,"Ġcre":1182,"17":1183,"pect":1184,"ulation":1185,"ient":1186,"ĠAustral":1187,"ĠAugust":1188,"ĠSeptember":1189,"sh":1190,"ium":1191,"ĠMan":1192,"Ġback":1193,"Ch":1194,"198":1195,"Ġem":1196,"ple":1197,"pril":1198,"ants":1199,"arm":1200,"ĠWh":1201,"ajor":1202,"Ġgu":1203,"Ġplayed":1204,"mber":1205,"isc":1206,"wards":1207,"Ġsever":1208,"ital":1209,"ĠOctober":1210,"imes":1211,"Ġreleased":1212,"ior":1213,"Ġdesign":1214,"ission":1215,"ĠTe":1216,"urr":1217,"yl":1218,"Ġdif":1219,"ages":1220,"Ġfeat":1221,"Ġrep":1222,"Ġarea":1223,"ĠJanuary":1224,"ved":1225,"ered":1226,"ĠNorth":1227,"Ġcount":1228,"ĠĠĠĠ":1229,"the":1230,"ross":1231,"ery":1232,"Ġexp":1233,"ĠBritish":1234,"ris":1235,"See":1236,"Ġclass":1237,"ruct":1238,"ĠAss":1239,"Ġsystem":1240,"ually":1241,"cember":1242,"Ġprodu":1243,"iet":1244,"Ġformer":1245,"ĠCity":1246,"10":1247,"Ġorgan":1248,"ĠEuro":1249,"ĠJune":1250,"Ġwill":1251,"Ġsm":1252,"ĠCo":1253,"ĠGu":1254,"Ġdesc":1255,"ird":1256,"Ġstart":1257,"Ġmat":1258,"ott":1259,"Ġrun":1260,"Ġvar":1261,"icip":1262,"St":1263,"ret":1264,"Ġopen":1265,"rop":1266,"ĠLeague":1267,"ĠJuly":1268,"ĠApril":1269,"ĠPol":1270,"ampionship":1271,"ared":1272,"ause":1273,"fl":1274,"resident":1275,"Ġwon":1276,"Ġob":1277,"ĠEd":1278,"com":1279,"Ġext":1280,"ports":1281,"cept":1282,"ĠCal":1283,"ĠState":1284,"ket":1285,"ĠNovember":1286,"American":1287,"Ġdr":1288,"ography":1289,"âĢĻ":1290,"ales":1291,"ove":1292,"Ġpublic":1293,"Ġlong":1294,"levision":1295,"Ġann":1296,"Ġcalled":1297,"inc":1298,"ĠBo":1299,"Ġgame":1300,"ĠII":1301,"anc":1302,"Ġlife":1303,"ilt":1304,"Ġfilms":1305,"ĠCar":1306,"chn":1307,"ĠReg":1308,"ung":1309,"ĠRep":1310,"ĠAll":1311,"Ġcommun":1312,"ĠDecember":1313,"Ġne":1314,"ĠKing":1315,"apan":1316,"Ġ192":1317,"vent":1318,"ĠBro":1319,"Ġair":1320,"Ġsame":1321,"=\"":1322,"ĠWill":1323,"Ġelect":1324,"ices":1325,"Ġ14":1326,"amb":1327,"..":1328,"Ġpar":1329,"Ġseveral":1330,"aking":1331,"ven":1332,"ility":1333,"Ġcity":1334,"yn":1335,"Ġtown":1336,"ĠCanad":1337,"Ġ2010":1338,"ible":1339,"af":1340,"Ġdep":1341,"Ġsuc":1342,"Ġ13":1343,"Ġnear":1344,"Ġchild":1345,"ner":1346,"Ġprogram":1347,"Ġproduc":1348,"ony":1349,"ebru":1350,"ange":1351,"ebruary":1352,"ilit":1353,"ĠRe":1354,"On":1355,"rench":1356,"Ġ'":1357,"Ġfin":1358,"ful":1359,"Ġbas":1360,"Ġreturn":1361,"ured":1362,"itt":1363,"orks":1364,"Ġearly":1365,"Ġfinal":1366,"lished":1367,"ped":1368,"16":1369,"ĠBe":1370,"Ġlist":1371,"Ġcontin":1372,"min":1373,"ially":1374,"right":1375,"Ġinst":1376,"con":1377,"Ġbel":1378,"ally":1379,"Ġany":1380,"ience":1381,"reen":1382,"rat":1383,"Ġfollowing":1384,"ĠEx":1385,"lor":1386,"oint":1387,"197":1388,"ble":1389,"ĠEurope":1390,"Ġcareer":1391,"Ġdisc":1392,"bo":1393,"ham":1394,"sp":1395,"Ã¡":1396,"Ġsince":1397,"Ġthese":1398,"angu":1399,"ĠAf":1400,"15":1401,"Ġoriginal":1402,"ĠAm":1403,"ese":1404,"orm":1405,"ĠMin":1406,"ival":1407,"ĠPar":1408,"cer":1409,"hes":1410,"ille":1411,"ane":1412,"ided":1413,"Ġvill":1414,"ata":1415,"ised":1416,"ĠFebruary":1417,"Ġwe":1418,"Ġbased":1419,"Ġcompet":1420,"Ġuse":1421,"Ġplace":1422,"ourn":1423,"ued":1424,"Ġ2011":1425,"ĠThey":1426,"Ġhead":1427,"ctions":1428,"Ġeff":1429,"ains":1430,"ze":1431,"ĠBar":1432,"ĠUS":1433,"Ġcomple":1434,"ended":1435,"Ġland":1436,"Ġ2008":1437,"ĠAir":1438,"12":1439,"Ġbegan":1440,"iness":1441,"Ġmet":1442,"Ġdist":1443,"Ġtr":1444,"ĠWest":1445,"ster":1446,"Ġtit":1447,"Ġsupport":1448,"Ġmembers":1449,"ington":1450,"ically":1451,"Ġprom":1452,"Ġclub":1453,"Ġ2012":1454,"Ġnamed":1455,"ĠHar":1456,"ĠGeor":1457,"Ġeng":1458,"yle":1459,"ality":1460,"Ġband":1461,"ĠHis":1462,"ained":1463,"Ġlocated":1464,"Ġpass":1465,"ĠChrist":1466,"ode":1467,"urg":1468,"Ġ2009":1469,"augh":1470,"Ġcharact":1471,"ĠAnd":1472,"Ġestablished":1473,"me":1474,"itions":1475,"ford":1476,"Ġsim":1477,"Ġeach":1478,"ondon":1479,"ien":1480,"Ġgovernment":1481,"Ġalong":1482,"ivision":1483,"Ġocc":1484,"Ġ2006":1485,"Ġmember":1486,"Ġheld":1487,"Ġdescrib":1488,"ĠJapan":1489,"Ġsmall":1490,"ĠSw":1491,"ĠAfter":1492,"ĠGen":1493,"row":1494,"aces":1495,"Ġdid":1496,"view":1497,"He":1498,"ĠMc":1499,"Ġ2007":1500,"ky":1501,"Ġ11":1502,"par":1503,"ino":1504,"ana":1505,"Ġstr":1506,"alth":1507,"aster":1508,"ĠCollege":1509,"ĠEnglish":1510,"ĠEl":1511,"century":1512,"ĠSe":1513,"ator":1514,"Ġlaw":1515,"Ġ2014":1516,"que":1517,"ounc":1518,"ublic":1519,"sc":1520,"Ġmajor":1521,"ĠPart":1522,"ociation":1523,"aced":1524,"Ġ2013":1525,"Ġhouse":1526,"ety":1527,"Th":1528,"erg":1529,"Ġpopulation":1530,"Ġbus":1531,"Ġworld":1532,"lymp":1533,"oung":1534,"ats":1535,"uk":1536,"ches":1537,"ps":1538,"ards":1539,"Ġpos":1540,"ined":1541,"aving":1542,"rew":1543,"Ġstation":1544,"ored":1545,"Ġtook":1546,"Ġhome":1547,"aul":1548,"ĠRo":1549,"ffic":1550,"Ġcompany":1551,"Ġvers":1552,"ights":1553,"ĠLondon":1554,"Ġsl":1555,"ĠDistrict":1556,"eter":1557,"ĠAb":1558,"Ġ$":1559,"Ġlocal":1560,"illion":1561,"ĠX":1562,"arge":1563,"Ġtelevision":1564,"Ġ2015":1565,"adem":1566,"Ġwomen":1567,"med":1568,"Ġterm":1569,"196":1570,"ourt":1571,"col":1572,"Ġ190":1573,"Ġsuccess":1574,"Ġcentury":1575,"ĠWilliam":1576,"ĠHigh":1577,"Ġappro":1578,"ĠMed":1579,"Ġbuilt":1580,"ature":1581,"Ġnational":1582,"Ġperson":1583,"14":1584,"ĠFrench":1585,"Ġgeneral":1586,"Ġcould":1587,"Ġborn":1588,"estern":1589,"ĠHer":1590,"ĠChampionship":1591,"ords":1592,"Ġ2016":1593,"Ġleg":1594,"Ġserved":1595,"ides":1596,"side":1597,"rol":1598,"Ġline":1599,"Ġsingle":1600,"Ġgames":1601,"Al":1602,"tt":1603,"ĠAfric":1604,"Ġdown":1605,"ows":1606,"Ġpo":1607,"Ġold":1608,"ately":1609,"ling":1610,"Ġnow":1611,"Living":1612,"ief":1613,"ĠSy":1614,"Ġreceived":1615,"Ġaround":1616,"Ġevent":1617,"Ġmanag":1618,"ilitary":1619,"vers":1620,"ĠRuss":1621,"Ġprofess":1622,"ified":1623,"Ġage":1624,"ĠEn":1625,"Ġhel":1626,"ĠRec":1627,"uthor":1628,"Ġdeb":1629,"Ġjoin":1630,"Ġpublished":1631,"Ġcar":1632,"ummer":1633,"ĠSec":1634,"13":1635,"omin":1636,"earch":1637,"ring":1638,"Ġlast":1639,"Ġty":1640,"Ġconst":1641,"Ġ25":1642,"ording":1643,"ĠComp":1644,"ĠCup":1645,"People":1646,"ara":1647,"Ġpresent":1648,"idd":1649,"ouncil":1650,"ĠHouse":1651,"Ġeduc":1652,"arried":1653,"Ġep":1654,"van":1655,"ration":1656,"Ġalign":1657,"iod":1658,"ĠDav":1659,"raft":1660,"reet":1661,"aus":1662,"Ġspecies":1663,"Ġrest":1664,"artment":1665,"ison":1666,"ĠHowever":1667,"Ġhistory":1668,"oph":1669,"aint":1670,"Ġleft":1671,"akes":1672,"ocial":1673,"ĠPark":1674,"ization":1675,"ĠCor":1676,"aim":1677,"Ã³":1678,"tal":1679,"ĠAng":1680,"Ġvillage":1681,"ĠItal":1682,"ĠBr":1683,"umn":1684,"Ġ189":1685,"ĠArt":1686,"Ġcamp":1687,"iven":1688,"Ġla":1689,"Ġorder":1690,"ink":1691,"Ġnorth":1692,"Ġred":1693,"Un":1694,"Ġsix":1695,"ĠTr":1696,"Ġdet":1697,"Ġwithin":1698,"Ġinclude":1699,"uf":1700,"ĠRes":1701,"Ġ2017":1702,"Ġdue":1703,"Ġdiffer":1704,"Ġplayer":1705,"Ġtop":1706,"ether":1707,"Ġelection":1708,"ĠSup":1709,"though":1710,"day":1711,"Ġshort":1712,"ĠLa":1713,"Ġapp":1714,"oks":1715,"Ġbecause":1716,"ĠPhil":1717,"anguage":1718,"iforn":1719,"Ġ30":1720,"Ġtri":1721,"umb":1722,"Ġ2005":1723,"ideo":1724,"urs":1725,"Ġrequ":1726,"ones":1727,"alk":1728,"ler":1729,"Ġday":1730,"ĠInternational":1731,"co":1732,"ĠRiver":1733,"Ġfive":1734,"hem":1735,"ifornia":1736,"ert":1737,"Ġsaid":1738,".,":1739,"ene":1740,"Ġlarge":1741,"Ġ0":1742,"Ġcurr":1743,"oyal":1744,"int":1745,"urther":1746,"50":1747,"Ġdied":1748,"Ġrepresent":1749,"ĠMe":1750,"Ġref":1751,"ument":1752,"Ġ2018":1753,"Ġstand":1754,"ote":1755,"Ġpower":1756,"ridge":1757,"leg":1758,"ĠNo":1759,"ĠIndian":1760,"Ġbuilding":1761,"adio":1762,"Ġmark":1763,"Ġav":1764,"reg":1765,"Ġconsid":1766,"eek":1767,"uck":1768,"Ġchildren":1769,"ference":1770,"Ġdescribed":1771,"ett":1772,"ald":1773,"ĠEngland":1774,"riend":1775,"Ġsouth":1776,"Ġthird":1777,"ively":1778,"Ġ,":1779,"Ġincluded":1780,"Ġmen":1781,"ĠSan":1782,"ody":1783,"Ġpost":1784,"Ġcor":1785,"Ġdem":1786,"Ġresult":1787,"ĠCalifornia":1788,"conom":1789,"Ġlo":1790,"ico":1791,"ĠGl":1792,"ĠThere":1793,"Ġlarg":1794,"uman":1795,"Ġson":1796,"ĠMich":1797,"ency":1798,"useum":1799,"Ġ24":1800,"Ġ2000":1801,"ĠDep":1802,"vious":1803,"Ġbook":1804,"rag":1805,"Ã¼":1806,"ÃŃ":1807,"ox":1808,"inning":1809,"ĠOlymp":1810,"Ġreport":1811,"iter":1812,"lands":1813,"History":1814,"Ġdifferent":1815,"osp":1816,"Ġwater":1817,"Ġ2004":1818,"Ġarch":1819,"Ar":1820,"ves":1821,"Ġjust":1822,"ext":1823,"Ġappear":1824,"Ġperform":1825,"ĠAustralia":1826,"Ġcr":1827,"ka":1828,"Ġnon":1829,"Ġiss":1830,"Ġlike":1831,"ize":1832,"Ġrefer":1833,"ĠMon":1834,"An":1835,"omb":1836,"Ġperiod":1837,"Ġservice":1838,"194":1839,"Ġif":1840,"alf":1841,"Ġfac":1842,"ociety":1843,"Ġvis":1844,"era":1845,"ining":1846,"Ġtrad":1847,"Ġequ":1848,"ĠSch":1849,"Ġincre":1850,"Ġ188":1851,"Ġstill":1852,"Ġwar":1853,"ĠAg":1854,"oon":1855,"Ġvery":1856,"na":1857,"ius":1858,"Ġthose":1859,"Ġaddition":1860,"Ġdeaths":1861,"Ġrepl":1862,"ours":1863,"11":1864,"ki":1865,"otes":1866,"Ġdistrict":1867,"avy":1868,"ched":1869,"Ġkill":1870,"of":1871,"ering":1872,"Ġresp":1873,"Ġfield":1874,"Ġhand":1875,"lin":1876,"ribut":1877,"Ġcrit":1878,"ĠAc":1879,"iber":1880,"Ġanother":1881,"Ġship":1882,"Ġbusiness":1883,"Ġweb":1884,"Ġarr":1885,"Ġbest":1886,"arch":1887,"ĠAward":1888,"Ġexper":1889,"ops":1890,"dom":1891,"ama":1892,"ĠEast":1893,"lo":1894,"ĠPer":1895,"hern":1896,"ander":1897,"ĠGro":1898,"Ġcompos":1899,"alt":1900,"Ġfem":1901,"line":1902,"ĠAmer":1903,"Ġmoved":1904,"Ġcharacter":1905,"ivil":1906,"epend":1907,"ries":1908,"ruction":1909,"Ġmale":1910,"Ġel":1911,"Ġproject":1912,"Ġannoun":1913,"Ġoften":1914,"field":1915,"Ġauthor":1916,"ness":1917,"Ġport":1918,"ĠAct":1919,"ugg":1920,"Ġhistor":1921,"Ġlevel":1922,"Ġcountry":1923,"Ġfather":1924,"ĠIndia":1925,"21":1926,"ested":1927,"uel":1928,"ĠParty":1929,"30":1930,"Ġsold":1931,"Ġled":1932,"Ġnov":1933,"ense":1934,"ael":1935,"ĠRoman":1936,"ĠChurch":1937,"Ġstyle":1938,"195":1939,"ament":1940,"Ġpat":1941,"Ġmake":1942,"Ġdel":1943,"attle":1944,"ms":1945,"ush":1946,"read":1947,"work":1948,"itar":1949,"Ġ2019":1950,"ases":1951,"Ġactiv":1952,"ĠPort":1953,"ests":1954,"ĠFrance":1955,"Ġ186":1956,"âĢĶ":1957,"color":1958,"Ġinternational":1959,"ĠArmy":1960,"lex":1961,"Ġmag":1962,"Com":1963,"gin":1964,"Ġcult":1965,"Ġtechn":1966,"site":1967,"Ġspe":1968,"ĠMor":1969,"olution":1970,"Ġside":1971,"Ġtitle":1972,"app":1973,"ript":1974,"Ġread":1975,"Ġthough":1976,"ĠSm":1977,"orthern":1978,"Ġeven":1979,"Ġproduced":1980,"aff":1981,"Ġamong":1982,"formation":1983,"Ġaward":1984,"ournal":1985,"anish":1986,"ories":1987,"cast":1988,"Ġwin":1989,"ape":1990,"Ġ22":1991,"forman":1992,"Ġexpl":1993,"Ġevery":1994,"unicip":1995,"ploy":1996,"Ġlate":1997,"Ġval":1998,"Ġworks":1999,"ĠChar":2000,"ĠQu":2001,"Ġround":2002,"Ġposs":2003,"Ġ2003":2004,"ĠPresident":2005,"abor":2006,"Ġaff":2007,"esc":2008,"Ġimport":2009,"Ġfe":2010,"Ġepis":2011,"Ġwritten":2012,"Ġinvol":2013,"irc":2014,"atch":2015,"ĠCanada":2016,"raw":2017,"Ġestablish":2018,"Ġsite":2019,"ĠNor":2020,"ole":2021,"Ġprevious":2022,"ĠQue":2023,"rack":2024,"ĠEm":2025,"ĠAmerica":2026,"As":2027,"ront":2028,"rem":2029,"omet":2030,"ney":2031,"olic":2032,"Ġrole":2033,"Ġturn":2034,"acks":2035,"astern":2036,"Ġ21":2037,"minist":2038,"Ġdebut":2039,"ĠRober":2040,"ivid":2041,"Ġengine":2042,"stitute":2043,"Ġeffect":2044,"ĠAp":2045,"ĠJames":2046,"Ġcame":2047,"Ġmillion":2048,"Ġsit":2049,"Ġ187":2050,"Ġallow":2051,"off":2052,"ĠCouncil":2053,"ipp":2054,"ĠBel":2055,"ville":2056,"Ġ2002":2057,"Ġofficial":2058,"Ġgrad":2059,"ĠRoyal":2060,"Ġwhat":2061,"ĠGeneral":2062,"Ġ23":2063,"itor":2064,"ctor":2065,"Ġyoung":2066,"iment":2067,"Ġcreated":2068,"Ġcover":2069,"Ġvol":2070,"ean":2071,"ĠDivision":2072,"Ġcommunity":2073,"Ġmuch":2074,"Ġadv":2075,"Ġstruct":2076,"ĠThom":2077,"atic":2078,"ĠPal":2079,"Ġgiven":2080,"rote":2081,"ĠOne":2082,"thern":2083,"ĠVal":2084,"irl":2085,"Ġstarted":2086,"Ã¶":2087,"ij":2088,"ĠGeorge":2089,"rap":2090,"ground":2091,"eal":2092,"Ġ2001":2093,"Ġprocess":2094,"Ġfact":2095,"ĠBy":2096,"Ġcommon":2097,"gcolor":2098,"ĠRev":2099,"outhern":2100,"Ġclos":2101,"Ġchang":2102,"Ġdevelopment":2103,"Ġwent":2104,"ots":2105,"Ġversion":2106,"reek":2107,"Ġfre":2108,"ĠStreet":2109,"itect":2110,"iron":2111,"Ġgr":2112,"ĠHol":2113,"eration":2114,"Ġmarried":2115,"ĠDr":2116,"bert":2117,"Ġsw":2118,"Ġspecial":2119,"lected":2120,"ha":2121,"ago":2122,"Ġvarious":2123,"Ġinit":2124,"ĠRich":2125,"ĠBra":2126,"Ġrail":2127,"ĠLou":2128,"Ġ26":2129,"Ġbecome":2130,"self":2131,"BC":2132,"Ġtotal":2133,"ya":2134,"xt":2135,"ena":2136,"eh":2137,"Ġpolitic":2138,"ĠPaul":2139,"ĠEuropean":2140,"Ġtw":2141,"Ġpe":2142,"iol":2143,"ĠAssociation":2144,"Ġpolitical":2145,"Ġannounced":2146,"val":2147,"ĠMal":2148,"ults":2149,"bor":2150,"posed":2151,"'t":2152,"Ġusing":2153,"Ġbre":2154,"Ġ28":2155,"hers":2156,"ological":2157,"ti":2158,"ead":2159,"mit":2160,"ĠMount":2161,"Ġprote":2162,"âĢĿ":2163,"Ġconf":2164,"Ġ27":2165,"Ġvideo":2166,"Ġmilitary":2167,"ream":2168,"193":2169,"Ġpres":2170,"ma":2171,"hel":2172,"Ġbgcolor":2173,"Pl":2174,"Ġstudents":2175,"Ġnext":2176,"ĠRed":2177,"erb":2178,"ĠGermany":2179,"ĠFl":2180,"Ġintro":2181,"Ġtem":2182,"Ġproduction":2183,"Ġfew":2184,"Ġ100":2185,"Ġhaving":2186,"ogn":2187,"ilar":2188,"ached":2189,"de":2190,"Ġfun":2191,"Ġmiss":2192,"Ġclaim":2193,"ĠDavid":2194,"ĠAustralian":2195,"Ġtake":2196,"Ġpopular":2197,"ope":2198,"iction":2199,"ĠSen":2200,"Ġhost":2201,"umni":2202,"urb":2203,"ittle":2204,"Ġstat":2205,"ĠGr":2206,"hold":2207,"hib":2208,"oe":2209,"ointed":2210,"ari":2211,"Ġworked":2212,"Ġway":2213,"flu":2214,"ividual":2215,"oor":2216,"Ġsol":2217,"aken":2218,"Ġsongs":2219,"Ġ[":2220,"ĠPe":2221,"Ġjoined":2222,"Ġprim":2223,"rain":2224,"ĠHall":2225,"ĠUnion":2226,"ĠStud":2227,"Ġalbums":2228,"ĠDem":2229,"Ġpri":2230,"Ġgl":2231,"Ġ1990":2232,"Ġsent":2233,"Ġneed":2234,"iography":2235,"Ġbeh":2236,"ashington":2237,"Ġbeg":2238,"Ġperforman":2239,"ĠVir":2240,"ĠBer":2241,"Ġgreat":2242,"icle":2243,"Ġposition":2244,"iles":2245,"Ġsk":2246,"mon":2247,"Ġtimes":2248,"ship":2249,"Ġhig":2250,"ibr":2251,"Ġprofessional":2252,"Ġstory":2253,"align":2254,"Ġreturned":2255,"ination":2256,"berg":2257,"ida":2258,"oints":2259,"ĠBas":2260,"ĠÃ":2261,"ming":2262,"rian":2263,"Ġhowever":2264,"Ġchurch":2265,"itte":2266,"Ġevents":2267,"lement":2268,"Ġservices":2269,"Ġsee":2270,"Ġsqu":2271,"ule":2272,"aur":2273,"ention":2274,"ĠProv":2275,"ning":2276,"stitut":2277,"sequ":2278,"duct":2279,"ample":2280,"ĠTown":2281,"Ġfriend":2282,"ĠClub":2283,"Ġopened":2284,"wood":2285,"Ġimp":2286,"ĠMag":2287,"odes":2288,"ston":2289,"ances":2290,"iddle":2291,"ĠMart":2292,"ources":2293,"Ġsett":2294,"Ġfull":2295,"ĠMary":2296,"ĠRoad":2297,"ĠMusic":2298,"=#":2299,"ills":2300,"CA":2301,"itz":2302,"Ġwithout":2303,"ĠCompany":2304,"ĠHen":2305,"ĠDes":2306,"ĠAcadem":2307,"Ġ1999":2308,"Pro":2309,"ĠHistor":2310,"After":2311,"Ġpract":2312,"anies":2313,"ĠMex":2314,"ĠâĢľ":2315,"Ġwrote":2316,"ĠDuring":2317,"Ġmatch":2318,"ĠChina":2319,"Ġwebsite":2320,"Ġbroad":2321,"rated":2322,"rab":2323,"ecut":2324,"ending":2325,"ĠJos":2326,"Ġattack":2327,"Ġcontrol":2328,"arliam":2329,"Ġteams":2330,"icular":2331,"ĠKh":2332,"25":2333,"Ġindust":2334,"Ġvoc":2335,"craft":2336,"nect":2337,"ĠWhen":2338,"ani":2339,"Ġparticip":2340,"ccording":2341,"Ġ29":2342,"aughter":2343,"Ġmult":2344,"ym":2345,"Ġroad":2346,"ĠThese":2347,"Ġcomb":2348,"Ġbrother":2349,"Ġter":2350,"Ġregion":2351,"Ġattem":2352,"ĠMy":2353,"Ġ=":2354,"arliament":2355,"ĠLaw":2356,"ĠPat":2357,"It":2358,"ges":2359,"ĠKingdom":2360,"burg":2361,"ying":2362,"wh":2363,"ĠIsland":2364,"Ġproper":2365,"less":2366,"Ġlim":2367,"ising":2368,"aign":2369,"ators":2370,"estival":2371,"ĠSociety":2372,"atter":2373,"Ġsocial":2374,"Ġaver":2375,"ĠCenter":2376,"ĠWashington":2377,"Ġeconom":2378,"ĠRecords":2379,"Ġinf":2380,"Ġgroups":2381,"uit":2382,"Ġhalf":2383,"acy":2384,"ĠCath":2385,"Ġright":2386,"Ġhon":2387,"Ġcontinued":2388,"ways":2389,"Ġmid":2390,"Ġfounded":2391,"ocrat":2392,"Ġident":2393,"Ġdirector":2394,"used":2395,"Ġresearch":2396,"now":2397,"ership":2398,"ĠFirst":2399,"Ġ1980":2400,"Ġlost":2401,"Ġreal":2402,"||":2403,"year":2404,"Ġeducation":2405,"Ġfind":2406,"arth":2407,"ĠSl":2408,"atural":2409,"gy":2410,"Ġdays":2411,"ification":2412,"aining":2413,"ĠRail":2414,"Ġareas":2415,"ĠList":2416,"Ġrecorded":2417,"ketball":2418,"ĠServ":2419,"etwork":2420,"Ġdest":2421,"Ġkm":2422,"ĠPri":2423,"Ġpresident":2424,"uff":2425,"isl":2426,"ĠPress":2427,"ĠGroup":2428,"ĠMiss":2429,"ĠCourt":2430,"aper":2431,"Ġcompleted":2432,"ĠCanadian":2433,"icles":2434,"ĠBlack":2435,"Ġ1998":2436,"Ġsimilar":2437,"Ġconsidered":2438,"ĠTra":2439,"Ġdirected":2440,"ona":2441,"ells":2442,"Ġview":2443,"ĠRobert":2444,"Ġfootballers":2445,"Ġindividual":2446,"men":2447,"ĠNe":2448,"ĠChe":2449,"ĠMad":2450,"ĠCap":2451,"ensus":2452,"ĠDepartment":2453,"Cl":2454,"Ġinvest":2455,"ĠSam":2456,"Ġsurv":2457,"ĠTex":2458,"Ġpoint":2459,"Ġtog":2460,"ictor":2461,"ĠOlympics":2462,"ishing":2463,"ĠFlor":2464,"ĠArch":2465,"inese":2466,"Ġwife":2467,"ĠTur":2468,"mar":2469,"ĠInstitute":2470,"40":2471,"ĠWe":2472,"Ġparty":2473,"ĠAngel":2474,"Ġtogether":2475,"ili":2476,"eph":2477,"back":2478,"rick":2479,"Ġhold":2480,"Ġpriv":2481,"Ġcaus":2482,"Ġimportant":2483,"Ġappeared":2484,"rd":2485,"ĠGames":2486,"Ġappl":2487,"ĠSummer":2488,"Ġrelations":2489,"idence":2490,"ged":2491,"Ġ/":2492,"Ġrace":2493,"yd":2494,"ĠMuseum":2495,"ĠCentral":2496,"Ġinflu":2497,"Ġpoints":2498,"Ġfurther":2499,"Ġdeveloped":2500,"ĠDon":2501,"ĠTV":2502,"Ġren":2503,"duced":2504,"oted":2505,"ĠSal":2506,"olit":2507,"Ġguitar":2508,"Ġstar":2509,"Ġdeg":2510,"ĠJapanese":2511,"ĠSing":2512,"asons":2513,"ĠVol":2514,"ittee":2515,"rish":2516,"Eng":2517,"Film":2518,"Ġmy":2519,"oul":2520,"ĠBest":2521,"Ġaut":2522,"Ġnovel":2523,"Ġcase":2524,"Ġeast":2525,"Ġcoach":2526,"ederal":2527,"ĠThomas":2528,"Ġavail":2529,"ellow":2530,"Ġins":2531,"Ġschools":2532,"ĠMont":2533,"Ġcoll":2534,"ulated":2535,"Ġ1996":2536,"ĠWith":2537,"enc":2538,"Ġhelp":2539,"uation":2540,"ique":2541,"Ġless":2542,"Ġappointed":2543,"Ġcer":2544,"ĠFootball":2545,"Ġelected":2546,"rey":2547,"Ġgood":2548,"ĠAcademy":2549,"Ġhous":2550,"ither":2551,"Ġfund":2552,"tar":2553,"Ġtrack":2554,"):":2555,"ĠGrand":2556,"ĠFranc":2557,"Ġrelease":2558,"Ġparticular":2559,"Ġten":2560,"Ġweek":2561,"Ġcond":2562,"ota":2563,"Ġleague":2564,"ger":2565,"Ġtradition":2566,"ĠOp":2567,"Ġformed":2568,"Ġdoes":2569,"roll":2570,"ĠLouis":2571,"Ġmar":2572,"ump":2573,"ĠGreen":2574,"Ġoffer":2575,"ĠAlex":2576,"ula":2577,"thlet":2578,"Ġalumni":2579,"Ġmeet":2580,"ĠVirgin":2581,"ĠBay":2582,"ably":2583,"Ġgrow":2584,"Ġz":2585,"Ġtyp":2586,"Ġlive":2587,"Ġoffice":2588,"Ġwest":2589,"Ġbirth":2590,"cks":2591,"Ġreview":2592,"cial":2593,"ĠCharles":2594,"Ġsigned":2595,"Ġdiv":2596,"Ġshould":2597,"Ġpain":2598,"Ġworking":2599,"Ġlanguage":2600,"ication":2601,"Sh":2602,"cle":2603,"Ġrock":2604,"Ġmot":2605,"23":2606,"ĠMet":2607,"aker":2608,"itive":2609,"iding":2610,"Ġexample":2611,"Ġmaking":2612,"ĠFilm":2613,"ĠYou":2614,"idae":2615,"Ġ1997":2616,"azine":2617,"ĠCong":2618,"nel":2619,"uter":2620,"Ġ1970":2621,"imately":2622,"Ġfail":2623,"Ġhuman":2624,"apt":2625,"Ġphot":2626,"iting":2627,"ĠGold":2628,"Ġarchitect":2629,"Ġothers":2630,"ĠGreat":2631,"rig":2632,"ĠWestern":2633,"Ġ185":2634,"reland":2635,"Ġ()":2636,"here":2637,"iers":2638,"24":2639,"ĠCommun":2640,"ĠĠĊ":2641,"Ġphys":2642,"Ġget":2643,"alls":2644,"ĠScott":2645,"Ġmother":2646,"sy":2647,"Ġhimself":2648,"usical":2649,"be":2650,"ĠAfrica":2651,"Ġlaun":2652,"ude":2653,"ras":2654,"Ġemploy":2655,"Ġmater":2656,"edy":2657,"ĠRepublic":2658,"ini":2659,"ĠZeal":2660,"ĠItalian":2661,"rest":2662,"ensive":2663,"west":2664,"Ġground":2665,"istic":2666,"isted":2667,"viron":2668,"Ġdoc":2669,"Ġrul":2670,"anding":2671,"Ġreported":2672,"ĠCont":2673,"ĠPenn":2674,"ĠMac":2675,"Ġconc":2676,"Ġbody":2677,"aying":2678,"Ġrev":2679,"Ġindepend":2680,"arter":2681,"ĠZealand":2682,"ĠTexas":2683,"ume":2684,"aries":2685,"Ġaverage":2686,"olf":2687,"aut":2688,"ĠYear":2689,"ala":2690,"Ġcast":2691,"ĠUK":2692,"ĠSim":2693,"Ġmodern":2694,"Ġlow":2695,"ĠCarol":2696,"Ġvict":2697,"Ġplaces":2698,"Ġadminist":2699,"ĠMinister":2700,"ened":2701,"ades":2702,"hi":2703,"Ġdi":2704,"This":2705,"ĠMer":2706,"Ġnever":2707,"Ġrecogn":2708,"ĠAfrican":2709,"center":2710,"band":2711,"ĠMichael":2712,",\"":2713,"Ġavailable":2714,"ethod":2715,"atives":2716,"Ã¤":2717,"ĠĠĠĠĠĠĠĠ":2718,"Ġ50":2719,"Ġstations":2720,"ria":2721,"ada":2722,"Ġdecl":2723,"Ġanim":2724,"most":2725,"Ġet":2726,"Ġdata":2727,"ĠJew":2728,"Ġliving":2729,"chie":2730,"ducation":2731,"oice":2732,"Ġradio":2733,"ĠChristian":2734,"gar":2735,"Ġmunicip":2736,"Ġfire":2737,"ceed":2738,"eball":2739,"22":2740,"Ġblack":2741,"ĠLeg":2742,"Ġbecom":2743,"ta":2744,"ospital":2745,"ux":2746,"uz":2747,"New":2748,"Ġepisode":2749,"Ġtro":2750,"Ġ1995":2751,"ĠRussian":2752,"Ġcle":2753,"Ġfree":2754,"atre":2755,"overnor":2756,"Ġdaughter":2757,"Ġcontract":2758,"Ġ1992":2759,"ĠTrans":2760,"Ġbuildings":2761,"Ġinformation":2762,"ĠIm":2763,"anted":2764,"iff":2765,"ele":2766,"Ġacross":2767,"Ġbelie":2768,"Ġ#":2769,"uild":2770,"ĠKore":2771,"Ġlight":2772,"ĠTo":2773,"ĠCatholic":2774,"Ġplaying":2775,"Ġder":2776,"udd":2777,"ĠDel":2778,"Ġcompanies":2779,"ĠWil":2780,"Ġfemale":2781,"II":2782,"Ġ1994":2783,"gress":2784,"Ġdev":2785,"Ġhow":2786,"rael":2787,"Ġstrong":2788,"ĠTom":2789,"emor":2790,"Ġcross":2791,"roy":2792,"ender":2793,"Ġalthough":2794,"Ġsuccessful":2795,"go":2796,"ricket":2797,"ĠTer":2798,"aly":2799,"km":2800,"utes":2801,"rel":2802,"Ġmedal":2803,"Ġcost":2804,"Ġeight":2805,"ential":2806,"pite":2807,"Ġsepar":2808,"fficial":2809,"ĠWhite":2810,"ĠPet":2811,"Ġcampaign":2812,"26":2813,"27":2814,"Ġperformed":2815,"time":2816,"bour":2817,"uated":2818,"Ġide":2819,"ĠFrom":2820,"ĠParis":2821,"28":2822,"ishop":2823,"ibrary":2824,"ids":2825,"gen":2826,"ĠCro":2827,"ĠFrank":2828,"ĠTor":2829,"De":2830,"ilities":2831,"Ġstage":2832,"Ġ1960":2833,"ought":2834,"ĠInter":2835,"Ġproduct":2836,"aval":2837,"Ġwinn":2838,"Ġfoc":2839,"ked":2840,"Ġmust":2841,"atory":2842,"Sc":2843,"Ġaway":2844,"airs":2845,"elling":2846,"For":2847,"Ġtaken":2848,"vironment":2849,"ockey":2850,"ĠDan":2851,"ĠChinese":2852,"istry":2853,"Ġfight":2854,"ĠVictor":2855,"ĠPeter":2856,"Ġcurrent":2857,"Ġperformance":2858,"aves":2859,"Ġfeatures":2860,"ĠLat":2861,"oz":2862,"writ":2863,"Ind":2864,"Ġcour":2865,"Ġviol":2866,"Ġincludes":2867,"Ġassoci":2868,"Ġbar":2869,"ĠBill":2870,"Ġkilled":2871,"ĠRichard":2872,"Ġtour":2873,"ella":2874,"oviet":2875,"English":2876,"Ġcirc":2877,"duction":2878,"ano":2879,"head":2880,"AR":2881,"ĠIreland":2882,"ura":2883,"ylvan":2884,"Ġmonths":2885,"itch":2886,"Ġconstruction":2887,"Ġmarket":2888,"Ġlab":2889,"serv":2890,"ilies":2891,"Ġ1993":2892,"incip":2893,"Ġ31":2894,"ware":2895,"ranch":2896,"ĠDay":2897,"Ġmaterial":2898,"icago":2899,"idents":2900,"29":2901,"ww":2902,"Ġqual":2903,"Ġgave":2904,"ĠHenry":2905,"Ġdesigned":2906,"ications":2907,"utch":2908,"Ġbooks":2909,"Ġacqu":2910,"zil":2911,"ĠCons":2912,"Ġaccess":2913,"Ġonce":2914,"ĠLake":2915,"Ġfollowed":2916,"ĠHistory":2917,"Ġimpro":2918,"Ġplan":2919,"ams":2920,"Ġ:":2921,"asc":2922,"igned":2923,"Ġput":2924,"ĠSmith":2925,"oms":2926,"iation":2927,"ita":2928,"Ge":2929,"imate":2930,"Ġyou":2931,"ĠLos":2932,"Ġsports":2933,"ĠMel":2934,"onst":2935,"hood":2936,"ems":2937,"ĠDirect":2938,"aps":2939,"Ġfront":2940,"Ġattempt":2941,"Ġrelig":2942,"eep":2943,"ror":2944,"erous":2945,"Ġfinished":2946,"Ġdram":2947,"Ġoriginally":2948,"Ġpress":2949,"Ġsound":2950,"Ġ1991":2951,"ificant":2952,"ny":2953,"ĠSpanish":2954,"hest":2955,"\"|":2956,"Ġaircraft":2957,"Ġcurrently":2958,"ĠSur":2959,"ylvania":2960,"oma":2961,"Ġlargest":2962,"ource":2963,"Ġfeatured":2964,"Ġmodel":2965,"Ġrank":2966,"Ġregular":2967,"60":2968,"Ġproble":2969,"och":2970,"mb":2971,"Ġ184":2972,"ĠDemocrat":2973,"road":2974,"ĠVirginia":2975,"ĠSant":2976,"Ġagre":2977,"unk":2978,"ĠGeorg":2979,"ĠBen":2980,"At":2981,"Ġ40":2982,"Ġinj":2983,"ĠBut":2984,"ĠCamp":2985,"Ġtest":2986,"icy":2987,"ĠRock":2988,"ĠHam":2989,"istan":2990,"Ġforces":2991,"Ġcy":2992,"Ġcollection":2993,"Ġseen":2994,"urity":2995,"embly":2996,"icated":2997,"igan":2998,"ĠMass":2999,"atri":3000,"ola":3001,"Ġawarded":3002,"ado":3003,"Ġstudy":3004,"ĠForce":3005,"Ġmount":3006,"isting":3007,"ĠHill":3008,"ĠOb":3009,"Ġgoal":3010,"olk":3011,"Ġenc":3012,"Ġjournal":3013,"Ġtraining":3014,"Ġsil":3015,"annel":3016,"Ġprot":3017,"Ġremained":3018,"Ġhealth":3019,"Ġthroughout":3020,"aged":3021,"80":3022,"andid":3023,"AS":3024,"Ġartists":3025,"Notes":3026,"Ġmix":3027,"kn":3028,"orpor":3029,"ĠUp":3030,"ĠSuper":3031,"Ġill":3032,"Ġestablishments":3033,"rim":3034,"ayed":3035,"aching":3036,"Wh":3037,"Ġtourn":3038,"ios":3039,"Ġhousehold":3040,"ĠProvince":3041,"Ã¨":3042,"TV":3043,"Ġcivil":3044,"Ġseven":3045,"ites":3046,"ĠSwed":3047,"yp":3048,"Ġleading":3049,"aches":3050,"ements":3051,"Ġwid":3052,"Ġshows":3053,"sylvania":3054,"Ġsignificant":3055,"people":3056,"Ġpolitician":3057,"190":3058,"Ġsinger":3059,"unt":3060,"ĠEmp":3061,"ĠRob":3062,"Ġearl":3063,"ĠGo":3064,"sec":3065,"ving":3066,"Ġliter":3067,"Ġstri":3068,"ein":3069,"ufact":3070,"Ġdam":3071,"Ġrespect":3072,"Ġjud":3073,"ayer":3074,"Äģ":3075,"Ġentire":3076,"2010":3077,"Ġcou":3078,"order":3079,"List":3080,"uture":3081,"uns":3082,"Ġkey":3083,"aught":3084,"Ġcountries":3085,"Ġcourt":3086,"ĠHistoric":3087,"ĠMa":3088,"ugby":3089,"Ġpast":3090,"ĠKn":3091,"atal":3092,"ĠSecond":3093,"Ġrespons":3094,"inals":3095,"Ġdou":3096,"Ġeventually":3097,"ĠNavy":3098,"Ġinvolved":3099,"ores":3100,"ĠOrder":3101,"Ġsugg":3102,"Ġwhite":3103,"Ġable":3104,"Ġintroduced":3105,"Ġ1988":3106,"ĠScot":3107,"Ġtransl":3108,"ĠMexico":3109,"Ġcapt":3110,"iÄ":3111,"eck":3112,"istics":3113,"vert":3114,"Ġprivate":3115,"Early":3116,"ĠMr":3117,"ĠCommission":3118,"ĠChicago":3119,"Ġearn":3120,"Ġtreat":3121,"lant":3122,"Ġ1989":3123,"ĠChampionships":3124,"ĠGra":3125,"ĠSaint":3126,"ĠCast":3127,"Ġrights":3128,"Ġartist":3129,"...":3130,"Ġassist":3131,"Ġstates":3132,"Ġspace":3133,"Ġlisted":3134,"ĠGod":3135,"ĠSqu":3136,"Ġreb":3137,"ability":3138,"Ġes":3139,"mercial":3140,"Ġcentral":3141,"Ġaud":3142,"Ġadded":3143,"ĠDo":3144,"Ġsem":3145,"Ġabove":3146,"Ġgold":3147,"ĠIsrael":3148,"iences":3149,"ĠArts":3150,"Ġsen":3151,"Ġcollege":3152,"ĠOl":3153,"Ġreplaced":3154,"ĠWomen":3155,"asing":3156,"cher":3157,"ĠJust":3158,"ĠFestival":3159,"ĠBur":3160,"ĠItaly":3161,"iqu":3162,"ĠAngeles":3163,"Ġ(\"":3164,"omm":3165,"ples":3166,"Ġeither":3167,"iro":3168,"Ġsubsequ":3169,"Ġrange":3170,"Te":3171,"Ġusually":3172,"Ġmedia":3173,"iana":3174,"ĠWin":3175,"Ġwind":3176,"ĠPennsylvania":3177,"face":3178,"Ġunits":3179,"ĠIll":3180,"Ġcommand":3181,"Ġwriter":3182,"ulty":3183,"iano":3184,"Ġser":3185,"Ġtransfer":3186,"rial":3187,"Ġcompetition":3188,"Ġdiscover":3189,"sych":3190,");":3191,"ĠBrown":3192,"Ġran":3193,"Ġpolice":3194,"Ġexecut":3195,"ribution":3196,"oys":3197,"Ġvia":3198,"za":3199,"Ġscored":3200,"yr":3201,"ĠParliament":3202,"Ġactress":3203,"Ġchart":3204,"Ġupon":3205,"Ġclose":3206,"porary":3207,"Ġbroadcast":3208,"Ġlearn":3209,"ask":3210,"ĠOff":3211,"arian":3212,"Ġbi":3213,"Ġleast":3214,"retary":3215,"Ġcop":3216,"Ġachie":3217,"Ġprovided":3218,"ĠMil":3219,"Ã³n":3220,"ĠÂ":3221,"ĠDu":3222,"Ġfig":3223,"Ġcur":3224,"Ph":3225,"ĠFlorida":3226,".)":3227,"Ġsubject":3228,"hire":3229,"ply":3230,"ĠWales":3231,"rup":3232,"sel":3233,"There":3234,"Ġvocals":3235,"Ġconv":3236,"enth":3237,"Ġboard":3238,"sk":3239,"Ġinterest":3240,"Ġbasketball":3241,"medi":3242,"Ġconduct":3243,"Åį":3244,"ĠCarl":3245,"oke":3246,"Ġpur":3247,"board":3248,"ĠTurk":3249,"shire":3250,"ends":3251,"ĠÐ":3252,"eated":3253,"rought":3254,"ette":3255,"ĠMus":3256,"Se":3257,"Ġhom":3258,"Ġtype":3259,"oo":3260,"ĠTechn":3261,"Ġchange":3262,"Ġwriters":3263,"Ġtravel":3264,"IN":3265,"189":3266,"Ġresults":3267,"Ġloss":3268,"ĠPublic":3269,"Ġfourth":3270,"Ġsch":3271,"ĠCommittee":3272,"Ġstated":3273,"ĠAnn":3274,"FA":3275,"Sp":3276,"ription":3277,"Ġhit":3278,"ye":3279,"Ġknow":3280,"Ġcenter":3281,"ĠCongress":3282,"ĠMark":3283,"ĠCarolina":3284,"Ġapprox":3285,"azz":3286,"Ġexpress":3287,"Ġfar":3288,"Ġsaw":3289,"Ġfav":3290,"ĠPre":3291,"erve":3292,"Ġcandid":3293,"ĠCount":3294,"ĠWhile":3295,"35":3296,"ĠSir":3297,"ĠSome":3298,"Ġcapital":3299,"ises":3300,"ua":3301,"ĠGovernment":3302,"Ġdegree":3303,"ients":3304,"ibl":3305,"Ġ1987":3306,"ĠIts":3307,"ĠScience":3308,"Ġmean":3309,"ĠPan":3310,"Ġmethod":3311,"ental":3312,"Ġcritic":3313,"elt":3314,"eds":3315,"ĠLand":3316,"ength":3317,"Ġche":3318,"known":3319,"Ġcontribut":3320,"Ġdocument":3321,"ees":3322,"Ġmeas":3323,"Ġnight":3324,"Ġcharacters":3325,"ĠClass":3326,"ca":3327,"ĠSoviet":3328,"eleb":3329,"Ġmissing":3330,"Ġaction":3331,"amily":3332,"ĠRegister":3333,"Ġreached":3334,"den":3335,"Ġplant":3336,"ping":3337,"uty":3338,"Ġpot":3339,"mun":3340,"Ġ1984":3341,"ĠOh":3342,"ĠService":3343,"Ġ1986":3344,"ption":3345,"Ad":3346,"pts":3347,"Ġconnect":3348,"\")":3349,"stitution":3350,"fic":3351,"nder":3352,"Ġnatural":3353,"Le":3354,"ometimes":3355,"chan":3356,"Ġfamilies":3357,"ĠStar":3358,"Ġtax":3359,"lam":3360,"Ġprovide":3361,"Ġrailway":3362,"ipl":3363,"Ġplaced":3364,"ĠFound":3365,"Ġdu":3366,"ĠEr":3367,"Ġexhib":3368,"Ġarg":3369,"Ġfir":3370,"ĠAwards":3371,"Ġ1950":3372,"Ġprem":3373,"FC":3374,"Ġnomin":3375,"Ġdecided":3376,"ĠAccording":3377,"ersey":3378,"Ġsize":3379,"uan":3380,"ception":3381,"ulture":3382,"Ġfif":3383,"lim":3384,"Ġcreat":3385,"Ġmass":3386,"Ġwhose":3387,"Ġseasons":3388,"Ġsex":3389,"Ġchampionship":3390,"ĠRussia":3391,"abit":3392,"ĠDen":3393,"ĠIrish":3394,"ero":3395,"ĠMod":3396,"Ġsystems":3397,"Ġriver":3398,"Ġsection":3399,"ĠRh":3400,"ultural":3401,"la":3402,"ĠTour":3403,"Ġplays":3404,"bur":3405,"heast":3406,"owers":3407,"ansas":3408,"Ġparts":3409,"ĠStev":3410,"well":3411,"uments":3412,"Ġeffort":3413,"ĠOld":3414,"va":3415,"Ġactor":3416,"Ġnetwork":3417,"70":3418,"ĠPac":3419,"Ġpoet":3420,"ĠLiber":3421,"Ġaccount":3422,"ĠBrazil":3423,"pan":3424,"Ġ1985":3425,"Ġcensus":3426,"based":3427,"ĠHon":3428,"Ġi":3429,"Ġrather":3430,"aled":3431,"ĠLove":3432,"ĠSil":3433,"Ġoccup":3434,"Ġreve":3435,"ĠJun":3436,"ĠOther":3437,"FL":3438,"ĠBoard":3439,"adium":3440,"Ġobject":3441,"Ġmusical":3442,"Ġleader":3443,"oring":3444,"Career":3445,"2000":3446,"Ġtournament":3447,"illa":3448,"ĠNot":3449,"ato":3450,"arily":3451,"ils":3452,"Ġfarm":3453,"ĠRos":3454,"ension":3455,"ĠEmpire":3456,"Ġreading":3457,"Ġmanufact":3458,"Ġinstead":3459,"Ġnorthern":3460,"Con":3461,"Ġscient":3462,"ĠNorthern":3463,"Ġdivision":3464,"Ġpark":3465,"rative":3466,"ergy":3467,"ĠColumb":3468,"Ġorganiz":3469,"Ġedition":3470,"mond":3471,"Ġrelationship":3472,"gl":3473,"anda":3474,"Ġaccept":3475,"Ġforce":3476,"Ġsingles":3477,"Ġste":3478,"Ġsouthern":3479,"Ġculture":3480,"isco":3481,"teg":3482,"Ġneigh":3483,"ongs":3484,"Ġattended":3485,"ĠGall":3486,"ĠMos":3487,"pecially":3488,"John":3489,"Ġdefeated":3490,"reme":3491,"Ġpossible":3492,"Ġdraw":3493,"Ġindustry":3494,"ĠFin":3495,"ĠMartin":3496,"ĠMill":3497,"Ġpred":3498,"Ġmovement":3499,"ĠSk":3500,"Ġhard":3501,"Films":3502,"ora":3503,"Ġbrought":3504,"Ġpurch":3505,"Ġgrand":3506,"urt":3507,"Ġcoast":3508,"Ġcut":3509,"ĠTwo":3510,"Ġdeal":3511,"Ġstudio":3512,"orse":3513,"icro":3514,"igital":3515,"imb":3516,"Ġactive":3517,"Pop":3518,"Ġmur":3519,"gent":3520,"ĠFort":3521,"ĠArab":3522,"ĠProfess":3523,"Ġlower":3524,"ĠAv":3525,"Ġoutside":3526,"Ġbehind":3527,"ĠJoseph":3528,"clus":3529,"Ġfrequ":3530,"cel":3531,"ady":3532,"war":3533,"Ġplann":3534,"Ġfall":3535,"ĠOper":3536,"ĠEducation":3537,"ĠWood":3538,"oral":3539,"Ġneg":3540,"ih":3541,"Ġpers":3542,"Ġbelow":3543,"Ġalmost":3544,"aud":3545,"Ġpreviously":3546,"Ġwinning":3547,"Ġanc":3548,"Ġbank":3549,"stra":3550,"Ġorganization":3551,"ift":3552,"Col":3553,"wan":3554,"ampion":3555,"Ġtre":3556,"Ġsyn":3557,"Ġruns":3558,"lements":3559,"Ġscience":3560,"ĠSpec":3561,"Ġ1983":3562,"33":3563,"Ġsum":3564,"ros":3565,"ounter":3566,"ĠLu":3567,"position":3568,"Ġproducer":3569,"ĠBus":3570,"Mar":3571,"90":3572,"ĠGar":3573,"ancial":3574,"Ġgirl":3575,"like":3576,"Ġcricket":3577,"ider":3578,"ĠSun":3579,"ublican":3580,"Ġfunction":3581,"elled":3582,"ĠSeries":3583,"ĠBattle":3584,"aring":3585,"Ġesc":3586,"Ġnewsp":3587,"Ġisland":3588,"Ġlik":3589,"All":3590,"Ġprimary":3591,"Ġregard":3592,"alled":3593,"Ġ1982":3594,"Ġstructure":3595,"ĠSpain":3596,"Ass":3597,"oir":3598,"Ġchanged":3599,"Ġge":3600,"Sports":3601,"ecess":3602,"ĠChief":3603,"ĠValley":3604,"Ġprograms":3605,"inary":3606,"mark":3607,"ĠDou":3608,"//":3609,"eign":3610,"lying":3611,"Ġking":3612,"BA":3613,"overs":3614,"Ġdispl":3615,"Ġcred":3616,"iger":3617,"During":3618,"Ġben":3619,"Ġwood":3620,"ĠTimes":3621,"Ġprison":3622,"ollowing":3623,"wer":3624,"Ġacadem":3625,"Ġapproximately":3626,"Ġinvestig":3627,"Ġmagazine":3628,"ĠSer":3629,"Ġever":3630,"Ġenter":3631,"Ġprincip":3632,"ĠGreek":3633,"org":3634,"airman":3635,"ati":3636,"75":3637,"SA":3638,"ĠAlb":3639,"Ġwriting":3640,"ĠFred":3641,"Ġfood":3642,"ĠHot":3643,"Ġphil":3644,"ĠLife":3645,"left":3646,"iÄĩ":3647,"ao":3648,"Ġpersonal":3649,"Ġgoals":3650,"Ġdeterm":3651,"Ġdefeat":3652,"ĠCD":3653,"press":3654,"mm":3655,"ĠJim":3656,"ĠEngine":3657,"Ġoperations":3658,"ĠOut":3659,"etts":3660,"Aust":3661,"Ġmaintain":3662,"ĠHaw":3663,"ĠAssembly":3664,"ĠCross":3665,"text":3666,"Ġitself":3667,"Ġallowed":3668,"Ġ1972":3669,"ĠAtlant":3670,"Ġtransport":3671,"Ġstop":3672,"Ġbeginning":3673,"Ġsus":3674,"Ġdestroy":3675,"Ġ1979":3676,"itors":3677,"iety":3678,"ĠHow":3679,"2007":3680,"Ġrepresented":3681,"Ġclosed":3682,"Ġowned":3683,"ĠSub":3684,"Ġball":3685,"Person":3686,"ĠFre":3687,"Ġmer":3688,"ĠOx":3689,"awa":3690,"Ġindependent":3691,"45":3692,"://":3693,"Ġtext":3694,"ĠResearch":3695,"38":3696,"rich":3697,"2008":3698,"esh":3699,"ibility":3700,"Can":3701,"velopment":3702,"ĠIran":3703,"Ġsoon":3704,"Ġden":3705,"Ġanti":3706,"itiz":3707,"ĠCivil":3708,"cing":3709,"Ġcal":3710,"Ġlittle":3711,"isions":3712,"aine":3713,"2009":3714,"Ġcommercial":3715,"with":3716,"ĠSpace":3717,"Ġended":3718,"Ġbreak":3719,"ĠDef":3720,"ĠEv":3721,"ĠDirector":3722,"Ġtaking":3723,"Ġarmy":3724,"Ġstudies":3725,"Ġobserv":3726,"erry":3727,"etic":3728,"win":3729,"ĠSpr":3730,"36":3731,"Ġlet":3732,"inois":3733,"Ġself":3734,"Ġcomplet":3735,"Ġbur":3736,"Ġpay":3737,"Ġrequired":3738,"oid":3739,"Ġbase":3740,"state":3741,"Ġdate":3742,"Ġbattle":3743,"Ġ1976":3744,"Ġcomplex":3745,"igg":3746,"Ġtoo":3747,"Ġnames":3748,"NA":3749,"Ġveh":3750,"ĠYoung":3751,"Ġcare":3752,"Ġwhom":3753,"Ġlook":3754,"ĠCam":3755,"Ġshot":3756,"action":3757,"han":3758,"iy":3759,"2011":3760,"Ġtowards":3761,"ĠHa":3762,"ection":3763,"ĠBank":3764,"Ġespecially":3765,"fect":3766,"Ġschol":3767,"Ġstandard":3768,"Ġaccording":3769,"anks":3770,"Ġhigher":3771,"Ġ1981":3772,"Ġconcern":3773,"Bl":3774,"Ġoccur":3775,"Ġlaunched":3776,"ands":3777,"Ġceleb":3778,"ols":3779,"ennis":3780,"bury":3781,"Ġquest":3782,"à¤":3783,"ĠOhio":3784,"Ġtraditional":3785,"ences":3786,"Ġmeans":3787,"ĠCamb":3788,"iga":3789,"atriate":3790,"achus":3791,"Ġsummer":3792,"eff":3793,"Ġsoft":3794,"oston":3795,"Ġminor":3796,"Ġprof":3797,"Ġterrit":3798,"Ġmoney":3799,"Ġhighest":3800,"ĠLee":3801,"2006":3802,"Ġfuture":3803,"ĠIII":3804,"Ġstudent":3805,"inated":3806,"ĠPlaces":3807,"National":3808,"Ã§":3809,"Ġissues":3810,"Ġant":3811,"She":3812,"bon":3813,"ĠRailway":3814,"ĠBelg":3815,"Ġremov":3816,"Ġbox":3817,"Ġrelated":3818,"ĠMichigan":3819,"ias":3820,"ĠAre":3821,"ĠJack":3822,"ko":3823,"king":3824,"Ġcontains":3825,"Ġwoman":3826,"ĠSar":3827,"Ġ1968":3828,"ĠTeam":3829,"34":3830,"Ġplat":3831,"uffer":3832,"37":3833,"Gen":3834,"Ġproperty":3835,"ĠPak":3836,"ĠSol":3837,"Ġconstruct":3838,"language":3839,"Ġspent":3840,"Ġstaff":3841,"Ġrad":3842,"ĠRadio":3843,"Ġ1978":3844,"Ġroute":3845,"Ġmatches":3846,"Ġscreen":3847,"ĠPoland":3848,"usband":3849,"Ġ1945":3850,"ĠMo":3851,"ĠSouthern":3852,"Ġnar":3853,"ready":3854,"Ġcounty":3855,"ĠKar":3856,"venue":3857,"Ġ1974":3858,"ĠBul":3859,"aya":3860,"Ġadditional":3861,"ĠJersey":3862,"ĠMost":3863,"39":3864,"standing":3865,"Ġcome":3866,"Ġmission":3867,"ĠAlthough":3868,"Ġsometimes":3869,"acher":3870,"ĠInc":3871,"change":3872,"inct":3873,"Ġfocus":3874,"arden":3875,"emporary":3876,"Ġenvironment":3877,"ĠSocial":3878,"ify":3879,"Ġdon":3880,"arriage":3881,"ĠLord":3882,"achusetts":3883,"Ġcommission":3884,"Ġnoted":3885,"Brit":3886,"ĠLuc":3887,"ĠMen":3888,"acing":3889,"ĠEdward":3890,"ĠJud":3891,"tra":3892,"2012":3893,"Ġfootballer":3894,"Ġgenerally":3895,"vention":3896,"obal":3897,"Ġkeep":3898,"ook":3899,"house":3900,"Ġpaint":3901,"uate":3902,"Ġunit":3903,"ĠKent":3904,"kins":3905,"ĠBritain":3906,"ĠHel":3907,"ĠNews":3908,"Ġmanager":3909,"Ġappearance":3910,"ĠSoc":3911,"Ġlived":3912,"ĠFC":3913,"Ġ1975":3914,"iple":3915,"Ġinterview":3916,"Ġcertain":3917,"ĠMat":3918,"enced":3919,"Ġadop":3920,"ĠWeb":3921,"ĠTro":3922,"ums":3923,"188":3924,"ĠQueen":3925,"Ġrunning":3926,"orporated":3927,"Ġuses":3928,"ĠLong":3929,"Ġstructures":3930,"Ġlocation":3931,"Ġbass":3932,"ali":3933,"oper":3934,"Ġpractice":3935,"Ġmonth":3936,"Ġanal":3937,"Ġthus":3938,"Ġships":3939,"ĠAsian":3940,"rown":3941,"ĠLine":3942,"ĠGovernor":3943,"Ġactivities":3944,"Ġmanagement":3945,"ĠJul":3946,"Ġopening":3947,"Ġearlier":3948,"Ġprotect":3949,"Other":3950,"Ġsuper":3951,"rying":3952,"Ġsurround":3953,"Ġassociated":3954,"ĠIllinois":3955,"inet":3956,"Ġ1977":3957,"Ġpromot":3958,"ĠPacific":3959,"rate":3960,"Ġpie":3961,"ĠScotland":3962,"ĠTri":3963,"burgh":3964,"pon":3965,"ĠBig":3966,"not":3967,"ĠMah":3968,"ds":3969,"aka":3970,"ĠJo":3971,"ache":3972,"Ġdrama":3973,"ĠDutch":3974,"Ġcourse":3975,"Ð°":3976,"Ġofficer":3977,"Ġcases":3978,"Ġ1973":3979,"emorial":3980,"Ġlength":3981,"ĠRou":3982,"Ġ1940":3983,"Ġsquad":3984,"ĠBob":3985,"Ġfeature":3986,"Ġprior":3987,"Ġscore":3988,"yan":3989,"Ġdom":3990,"2005":3991,"Ġer":3992,"Ġtrade":3993,"Ġexam":3994,"ĠSystem":3995,"ĠGal":3996,"ador":3997,"Ġolder":3998,"Ġlove":3999,"Ġgenus":4000,"Ġequip":4001,"iled":4002,"add":4003,"uten":4004,"Ġ1971":4005,"Year":4006,"down":4007,"ima":4008,"ties":4009,"ĠAsia":4010,"Ġdepartment":4011,"ĠRepresent":4012,"Ġtrain":4013,"AT":4014,"Ġseat":4015,"vey":4016,"ela":4017,"Ġnews":4018,"Ġchief":4019,"Ġwestern":4020,"Ġmove":4021,"Ġsuffer":4022,"Ġelev":4023,"Ġdiffic":4024,"Ġterms":4025,"Ġentered":4026,"Ġnumerous":4027,"Ġgra":4028,"adel":4029,"Ġcust":4030,"Ġprob":4031,"Ġfamous":4032,"Ġemer":4033,"ira":4034,"Ġsu":4035,"anded":4036,"Ġannual":4037,"Ġ1969":4038,"Ġwide":4039,"ja":4040,"Ġeditor":4041,"Ġactors":4042,"Ġretired":4043,"iance":4044,"Ġbetter":4045,"Ġemb":4046,"Ġhusband":4047,"Members":4048,"wa":4049,"Ġarran":4050,"ĠPhilipp":4051,"ĠMassachusetts":4052,"AC":4053,"Ġsenior":4054,"Ġalready":4055,"Ġtrib":4056,"ĠConference":4057,"isk":4058,"Ġimm":4059,"Ġchanges":4060,"ĠRepublican":4061,"2013":4062,"British":4063,"Ġincreased":4064,"plement":4065,"Ġvir":4066,"asy":4067,"Ġissue":4068,"Ġstudied":4069,"ila":4070,"een":4071,"ucle":4072,"ulf":4073,"amm":4074,"Ġincome":4075,"ĠInf":4076,"Ġselected":4077,"ĠOpen":4078,"Ġsaf":4079,"Ġpen":4080,"ĠGeorgia":4081,"gypt":4082,"Ġens":4083,"ĠLibrary":4084,"irit":4085,"rief":4086,"Ġinstr":4087,"Ġlegal":4088,"Ġlines":4089,"isation":4090,"ĠMP":4091,"Ġfederal":4092,"ken":4093,"antry":4094,"Res":4095,"Ġ1930":4096,"Ġord":4097,"ĠFrancisco":4098,"ĠVer":4099,"Ġvictory":4100,"ĠJones":4101,"ĠPrem":4102,"ĠDemocratic":4103,"Ġmunicipality":4104,"Ġcaused":4105,"German":4106,"Ġelections":4107,"ĠDev":4108,"Ġpercent":4109,"Ġclubs":4110,"Ġgener":4111,"Ġmedical":4112,"Ġ60":4113,"Ġabs":4114,"Ġdecision":4115,"ysis":4116,"Ġcomplete":4117,"het":4118,"ĠSo":4119,"Ġobtain":4120,"Ġbecoming":4121,"Ġsea":4122,"ĠPrince":4123,"Ġinstitut":4124,"ĠThat":4125,"Ġoperated":4126,"Ġreligious":4127,"ĠBook":4128,"Ġ1967":4129,"pected":4130,"ĠPortug":4131,"ĠWal":4132,"mitted":4133,"Ġthought":4134,"eeks":4135,"Ġ1964":4136,"ĠHung":4137,"ĠCentre":4138,"Ġhum":4139,"wide":4140,"ĠPeople":4141,"2014":4142,"ĠWilliams":4143,"Ð¾":4144,"ĠJewish":4145,"ĠBh":4146,"Ġdrop":4147,"Ġquarter":4148,"ĠOver":4149,"itation":4150,"Ġtheory":4151,"Ġcommunities":4152,"Ġrap":4153,"Ġ180":4154,"put":4155,"ĠJournal":4156,"omy":4157,"Ġcentre":4158,"ĠCoast":4159,"Ġsom":4160,"ĠSince":4161,"ĠTheatre":4162,"bl":4163,"31":4164,"isters":4165,"ĠHealth":4166,"Ġmajority":4167,"ĠCr":4168,"BS":4169,"ĠOxford":4170,"mission":4171,"ĠÅ":4172,"ĠMot":4173,"unn":4174,"ĠUr":4175,"ĠLab":4176,"2004":4177,"IS":4178,"ĠOk":4179,"Med":4180,"Ġeconomic":4181,"ĠPlay":4182,"ĠBoston":4183,"Or":4184,"ĠMatt":4185,"isher":4186,"ĠBow":4187,"Ġhot":4188,"Ġlimited":4189,"rast":4190,"ĠKong":4191,"Ġaccom":4192,"Ã±":4193,"Ġcreate":4194,"Ġcollabor":4195,"Ġmurder":4196,"ÅĤ":4197,"abeth":4198,"ĠMiddle":4199,"ĠBre":4200,"arters":4201,"32":4202,"ĠUnder":4203,"ĠFoundation":4204,"ĠTw":4205,"ograp":4206,"ĠOs":4207,"ĠElect":4208,"ĠCle":4209,"chen":4210,"Ġshown":4211,"ĠTim":4212,"Ġgive":4213,"Ġthreat":4214,"ĠOffice":4215,"ires":4216,"Ġjob":4217,"Ġimmedi":4218,"ĠManag":4219,"ĠBC":4220,"Ġdiscuss":4221,"umber":4222,"ĠColumbia":4223,"agn":4224,"Ġstatus":4225,"Ġtechnology":4226,"Ġded":4227,"Ġtakes":4228,"Ġconcer":4229,"ĠRam":4230,"Ġaltern":4231,"Ġoccas":4232,"ĠDi":4233,"mann":4234,"Ġunion":4235,"Ġ35":4236,"ĠCreek":4237,"ails":4238,"Ġword":4239,"ervation":4240,"reater":4241,"ĠEastern":4242,"osoph":4243,"Ġforced":4244,"Ġarm":4245,"cean":4246,"ĠScottish":4247,"track":4248,"ĠTime":4249,"ackson":4250,"Ġpil":4251,"Ġremains":4252,"2015":4253,"47":4254,"Å¡":4255,"Ġlegisl":4256,"bers":4257,"Be":4258,"48":4259,"Ġrecording":4260,"inem":4261,"iant":4262,"AF":4263,"Ġcolon":4264,"ĠBet":4265,"ĠPost":4266,"Ġindic":4267,"aters":4268,"Ġpassed":4269,"uge":4270,"Ġcompeted":4271,"ault":4272,"Ġinitially":4273,"Ġmach":4274,"Ġappears":4275,"Ġsequ":4276,"ĠOfficial":4277,"riz":4278,"Ġgoing":4279,"Ġrate":4280,"ulpt":4281,"Ġexc":4282,"Ġenergy":4283,"pose":4284,"ĠStation":4285,"attal":4286,"Ġsister":4287,"inent":4288,"ĠBor":4289,"Ġfle":4290,"aily":4291,"Ġbomb":4292,"Ġhockey":4293,"tainment":4294,"ĠCorps":4295,"stein":4296,"Ġserving":4297,"Ġexist":4298,"uer":4299,"Ġ1966":4300,"enty":4301,"ieuten":4302,"ips":4303,"ledge":4304,"Ġhours":4305,"Ġ1920":4306,"ĠJac":4307,"usc":4308,"ĠCharl":4309,"ĠMajor":4310,"Ġ1965":4311,"ube":4312,"inger":4313,"omer":4314,"Ġmuseum":4315,"Ġmostly":4316,"Ġpolicy":4317,"Ġcell":4318,"ailed":4319,"ĠTem":4320,"imum":4321,"Ġlack":4322,"Ġuniversity":4323,"nam":4324,"Ġevidence":4325,"Ġminutes":4326,"Ġcomedy":4327,"ĠStep":4328,"bre":4329,"ĠJr":4330,"ĠStan":4331,"Ġbound":4332,"Ġparticularly":4333,"65":4334,"bit":4335,"onia":4336,"ĠBlue":4337,"ĠUk":4338,"Ġnorm":4339,"Ġsupported":4340,"stitu":4341,"United":4342,"ĠDie":4343,"anguages":4344,"ii":4345,"igr":4346,"Ġamount":4347,"ĠGood":4348,"Am":4349,"ĠSecretary":4350,"onic":4351,"Ġpoliticians":4352,"Ġlonger":4353,"Ġopt":4354,"ĠAz":4355,"Ġmovie":4356,"University":4357,"ĠJohnson":4358,"Ġquick":4359,"poration":4360,"ĠWind":4361,"ĠJean":4362,"itage":4363,"Ġmiddle":4364,"ĠVan":4365,"ĠAlbert":4366,"istricts":4367,"illy":4368,"ĠSea":4369,"vement":4370,"Ġpresented":4371,"Ġshoot":4372,"ĠField":4373,"ĠEll":4374,"phy":4375,"ĠPo":4376,"ĠGh":4377,"Ġ1944":4378,"ĠSand":4379,"onto":4380,"ession":4381,"Ġâ":4382,"ĠOf":4383,"encies":4384,"Ġnine":4385,"ĠMcC":4386,"ingu":4387,"ĠLatin":4388,"Ġ45":4389,"Ġgot":4390,"Ġlic":4391,"Ġtoday":4392,"Ġforeign":4393,"Ġhapp":4394,"Ġclaimed":4395,"onse":4396,"ĠFar":4397,"chester":4398,"ĠDis":4399,"Is":4400,"2003":4401,"Ġreferred":4402,"ĠBal":4403,"Ġice":4404,"99":4405,"apers":4406,"rance":4407,"Ġhistorical":4408,"rice":4409,"Ġmeeting":4410,"ĠShow":4411,"Ġdescent":4412,"Ġincrease":4413,"Ġ65":4414,"ouri":4415,"zech":4416,"Ġpsych":4417,"Ã¡n":4418,"Ġspecific":4419,"Ġraised":4420,"Ġver":4421,"Ġlarger":4422,"Ġstep":4423,"ĠWild":4424,"mir":4425,"unc":4426,"Ġchall":4427,"akers":4428,"Ġofficers":4429,"Ġorganizations":4430,"Ġoverall":4431,"Ġweeks":4432,"ĠFed":4433,"thur":4434,"Ġregional":4435,"da":4436,"Ġmem":4437,"arts":4438,"urban":4439,"ĠBroad":4440,"Ġinn":4441,"Ġlog":4442,"ĠMur":4443,"ĠMid":4444,"ĠVictoria":4445,"ĠIf":4446,"Ġdise":4447,"Further":4448,"onn":4449,"Ġremain":4450,"ĠTre":4451,"Ġmultiple":4452,"izing":4453,"ĠHead":4454,"vis":4455,"selves":4456,"ĠEarth":4457,"Ġtracks":4458,"Ġrecords":4459,"class":4460,"Ġforms":4461,"Ġthemselves":4462,"Ġmention":4463,"Austral":4464,"ĠBern":4465,"ried":4466,"Ġfinancial":4467,"Ġsubsequently":4468,"teen":4469,"zy":4470,"ieutenant":4471,"Ġfailed":4472,"ĠNight":4473,"ĠTop":4474,"Ġcomposed":4475,"ĠEgypt":4476,"Ġgovern":4477,"Ġcities":4478,"Man":4479,"Ġhouses":4480,"peror":4481,"Ġdra":4482,"Ġprovides":4483,"Ġparents":4484,"Ġawards":4485,"tario":4486,"una":4487,"Ġalways":4488,"Ġ2020":4489,"ĠPolish":4490,"Ġleaving":4491,"Ġcouncil":4492,"Ġeastern":4493,"Ġbelieved":4494,"ĠChild":4495,"ĠSund":4496,"ĠAlexander":4497,"ĠLittle":4498,"Ġhelped":4499,"ĠBerlin":4500,"ares":4501,"Ġroom":4502,"ĠInt":4503,"enge":4504,"Ġcrew":4505,"Ġvariety":4506,"Ġdire":4507,"ĠSyd":4508,"Ġcitiz":4509,"2002":4510,"Ġinsp":4511,"Ġplatform":4512,"Ġsurface":4513,"Ġtarg":4514,"ĠGirl":4515,"49":4516,"2001":4517,"ĠLater":4518,"Ġappearances":4519,"SS":4520,"Ġoffered":4521,"Ġearned":4522,"2016":4523,"ogue":4524,"ulations":4525,"ĠSpecial":4526,"ĠWater":4527,"Ġrequire":4528,"Ġsource":4529,"Ġtroops":4530,"Rec":4531,"Ġarticle":4532,"Ġprofessor":4533,"ĠEnter":4534,"Ġvon":4535,"Ġepisodes":4536,"EC":4537,"Ġinteg":4538,"46":4539,"ĠDet":4540,"ronic":4541,"itude":4542,"Ġcollect":4543,"rin":4544,"Ġlos":4545,"Ġlabel":4546,"ĠUnivers":4547,"Ġchem":4548,"ĠArgent":4549,"Ġblock":4550,"ĠIslam":4551,"Ġmeaning":4552,"Ġsociety":4553,"ĠRay":4554,"ĠMax":4555,"akh":4556,"no":4557,"weg":4558,"Ġindividuals":4559,"ĠSa":4560,"ĠIslands":4561,"ĠBang":4562,"ĠHong":4563,"ĠConst":4564,"Ġheavy":4565,"ĠAnton":4566,"hew":4567,"Ġbrand":4568,"Ġcarried":4569,"ĠEp":4570,"ĠKorea":4571,"Ð¸":4572,"Ġresponse":4573,"uts":4574,"Ġfort":4575,"Ġacquired":4576,"ker":4577,"ellig":4578,"Ġremaining":4579,"ĠCorn":4580,"ĠPop":4581,"ĠCard":4582,"Ġunivers":4583,"ĠTheir":4584,"ĠWay":4585,"Ġ1963":4586,"Ġ1962":4587,"Ġess":4588,"ione":4589,"Ġseparate":4590,"ĠKenn":4591,"Ġeth":4592,"Ġconsists":4593,"Ġpage":4594,"Ġcat":4595,"ova":4596,"ray":4597,"1990":4598,"Ġmakes":4599,"ĠJackson":4600,"ĠCat":4601,"enger":4602,"Ġwinner":4603,"uries":4604,"ĠSat":4605,"obile":4606,"phia":4607,"ĠAirport":4608,"ĠTam":4609,"ĠDevelopment":4610,"ais":4611,"Populated":4612,"ĠFinal":4613,"Ġ1942":4614,"55":4615,"ĠBBC":4616,"ĠRel":4617,"ĠSenate":4618,"Ġadj":4619,"sen":4620,"ĠUl":4621,"town":4622,"ĠMov":4623,"With":4624,"lav":4625,"ĠWall":4626,"icks":4627,"ĠMu":4628,"span":4629,"Ġexcept":4630,"ĠFer":4631,"ĠOntario":4632,"ĠHospital":4633,"innes":4634,"ĠBoy":4635,"Ġexperience":4636,"ĠSydney":4637,"Ġdone":4638,"Ġestim":4639,"Ġbring":4640,"Ġproblems":4641,"ĠRegiment":4642,"yer":4643,"mas":4644,"Ġtemper":4645,"Ġprevent":4646,"Music":4647,"Ġpoor":4648,"Ġspl":4649,"Ġproposed":4650,"Ġsn":4651,"ologist":4652,"ĠAndrew":4653,"Ġdeliver":4654,"ĠLy":4655,"Ġmechan":4656,"Ġmarriage":4657,"Ġbridge":4658,"izabeth":4659,"ĠFour":4660,"Ġcultural":4661,"ifying":4662,"Ġmaster":4663,"itted":4664,"emet":4665,"Ġspeed":4666,"Ġnative":4667,"Ġfoot":4668,"Ġonline":4669,"Ġrecent":4670,"aven":4671,"Ġbrief":4672,"Ġmainly":4673,"illed":4674,"Ġdiss":4675,"ocal":4676,"rovers":4677,"adelphia":4678,"ĠBir":4679,"ĠSpe":4680,"edd":4681,"Ġhospital":4682,"78":4683,"Ġoperation":4684,"ously":4685,"Ġstarting":4686,"Ġlatter":4687,"Ġyouth":4688,"Ġbaseball":4689,"Ġturned":4690,"innesota":4691,"Olymp":4692,"ĠOlympic":4693,"ĠPolice":4694,"eld":4695,"Ġconditions":4696,"From":4697,"tle":4698,"Ġproducts":4699,"Ġvote":4700,"chestra":4701,"ez":4702,"ĠPrize":4703,"Ġfeaturing":4704,"onsin":4705,"Ġfaculty":4706,"RA":4707,"Ġmerg":4708,"Ġmight":4709,"Ġnewspaper":4710,"Ġ1943":4711,"Ġven":4712,"ĠTownship":4713,"According":4714,"Ġprop":4715,"ronze":4716,"Ġ1948":4717,"ĠMany":4718,"resp":4719,"Ġcharg":4720,"Ġdeep":4721,"isconsin":4722,"ĠQueens":4723,"light":4724,"ĠBand":4725,"Ġinfluence":4726,"ĠPrime":4727,"Association":4728,"Ã¸":4729,"Ġdifficult":4730,"ĠHome":4731,"get":4732,"Ġsucceed":4733,"Ġborder":4734,"atively":4735,"ĠCy":4736,"Ġoil":4737,"Ġmusicians":4738,"Ġpeak":4739,"adian":4740,"Ġour":4741,"ims":4742,"Ġcomment":4743,"Ġhere":4744,"Ġresponsible":4745,"Ġfinally":4746,"ĠAk":4747,"aria":4748,"ĠVill":4749,"ocks":4750,"range":4751,"Ġreduc":4752,"more":4753,"worth":4754,"44":4755,"Ġ1961":4756,"ĠKen":4757,"iot":4758,"undred":4759,"uilding":4760,"pet":4761,"Ġserve":4762,"Art":4763,"Ġprin":4764,"Ġ1956":4765,"Ġpersonnel":4766,"Ġtable":4767,"Ġpromoted":4768,"76":4769,"58":4770,"Ġpartn":4771,"Ġdouble":4772,"Ġdepart":4773,"rupt":4774,"ĠLes":4775,"Ġjun":4776,"Ġparties":4777,"French":4778,"2017":4779,"ounds":4780,"uing":4781,"agon":4782,"ĠBab":4783,"etherlands":4784,"Ġbenef":4785,"bec":4786,"icine":4787,"Ġstories":4788,"anth":4789,"Ġbr":4790,"When":4791,"Ġsched":4792,"emy":4793,"Ġlisting":4794,"alle":4795,"Ġnearly":4796,"omot":4797,"ĠGame":4798,"Not":4799,"CC":4800,"Ġaffect":4801,"astic":4802,"ĠUSA":4803,"Ġcompl":4804,"Ġconfir":4805,"stone":4806,"Ġgraduated":4807,"ji":4808,"ĠPres":4809,"Ġface":4810,"OS":4811,"Ġdyn":4812,"Ġcapac":4813,"Ġalleg":4814,"ĠAsh":4815,"ĠÂ£":4816,"Ðµ":4817,"ĠJustice":4818,"Ġcorn":4819,"Ġcomputer":4820,"ĠJer":4821,"Ġnature":4822,"ternet":4823,"Ġ1941":4824,"1999":4825,"Ġelements":4826,"istance":4827,"ĠProfessor":4828,"Ġdiscovered":4829,"erland":4830,"Ġenough":4831,"wick":4832,"ighter":4833,"ĠRome":4834,"icted":4835,"Trans":4836,"ĠViet":4837,"Ġcause":4838,"Ġnumbers":4839,"Ġvalue":4840,"ĠKorean":4841,"ensity":4842,"Ġ+":4843,"writer":4844,"Ġnecess":4845,"Ġplans":4846,"ĠRaj":4847,"Ġrow":4848,"ĠKe":4849,"Ġissued":4850,"ĠMedal":4851,"ttp":4852,"gu":4853,"rong":4854,"hens":4855,"ĠRod":4856,"aylor":4857,"ĠBell":4858,"rics":4859,"Ġsquare":4860,"ĠArm":4861,"vest":4862,"Ġextended":4863,"ĠTy":4864,"ening":4865,"ĠPen":4866,"Sw":4867,"Ġnearby":4868,"ĠSports":4869,"66":4870,"Ġlives":4871,"ancy":4872,"osh":4873,"ĠDaniel":4874,"verse":4875,"ĠProgram":4876,"bourne":4877,"ĠSong":4878,"ava":4879,"Ġconstructed":4880,"Ġfifth":4881,"Ġdespite":4882,"ully":4883,"Ġ1958":4884,"Ġathlet":4885,"Ġredu":4886,"ĠLim":4887,"Ġhonor":4888,"Ġresidents":4889,"Ġcovered":4890,"ĠAnt":4891,"osa":4892,"ĠJeff":4893,"Ġprovince":4894,"ĠPeak":4895,"ĠOtt":4896,"hemat":4897,"Ġ1946":4898,"Ġraces":4899,"perial":4900,"ĠEconom":4901,"Ġ1959":4902,"lers":4903,"Ġsculpt":4904,"ĠAvenue":4905,"vanced":4906,"Ġgun":4907,"Ġwords":4908,"rison":4909,"Ġelectric":4910,"ĠTechnology":4911,"vin":4912,"95":4913,"Ġancient":4914,"ĠColl":4915,"Ġ80":4916,"ibliography":4917,"Ġkind":4918,"Ġvoice":4919,"Ġaddress":4920,"Polit":4921,"Ġwhole":4922,"ĠCambridge":4923,"Ġprogress":4924,"ĠEs":4925,"Ġsoldiers":4926,"Ġdirectly":4927,"ĠRog":4928,"ĠVen":4929,"Ġfriends":4930,"Ġmanaged":4931,"Ġarrived":4932,"Ġprojects":4933,"Ġvan":4934,"World":4935,"attalion":4936,"ĠCommon":4937,"Ġlanguages":4938,"Ġleave":4939,"Ġdead":4940,"Olympic":4941,"Ġtold":4942,"Ġasked":4943,"Ġconsider":4944,"Ġlevels":4945,"ading":4946,"ĠRevolution":4947,"Don":4948,"ĠEnd":4949,"ĠCorporation":4950,"Ġincreasing":4951,"reng":4952,"Ġcard":4953,"hy":4954,"ydro":4955,"Ġ1939":4956,"Ġrugby":4957,"owa":4958,"ĠJoe":4959,"quarters":4960,"Ġarchitecture":4961,"Ġang":4962,"ĠToronto":4963,"Sportspeople":4964,"ĠFederal":4965,"Ġdrug":4966,"thing":4967,"ĠLew":4968,"ging":4969,"ĠCop":4970,"wegian":4971,"olitan":4972,"Track":4973,"ĠSerb":4974,"Ġpath":4975,"book":4976,"enness":4977,"nes":4978,"98":4979,"Ġpick":4980,"ucky":4981,"amber":4982,"iat":4983,"Ġpp":4984,"Ġfa":4985,"Ġsilver":4986,"South":4987,"orning":4988,"ĠSquad":4989,"Ġsolo":4990,"Ġtransferred":4991,"Ġorigin":4992,"ĠRoute":4993,"Ed":4994,"Ġcandidate":4995,"ropical":4996,"ĠLight":4997,"Ġsport":4998,"Biography":4999,"Ġwinners":5000,"IA":5001,"oration":5002,"ĠBishop":5003,"umed":5004,"Ġsoftware":5005,"Ã£":5006,"ĠPakistan":5007,"rolled":5008,"orado":5009,"Ġsaying":5010,"US":5011,"enz":5012,"Ġsecurity":5013,"ĠEst":5014,"ĠPubl":5015,"Ġconfl":5016,"Ġcycl":5017,"ĠMinistry":5018,"Ġ1957":5019,"oto":5020,"ĠBrig":5021,"inson":5022,"Ġacademic":5023,"ĠDuke":5024,"Ġconcept":5025,"ables":5026,"ĠChap":5027,"Ġrenamed":5028,"''":5029,"ĠGuard":5030,"Ġweap":5031,"His":5032,"ĠDar":5033,"Ġ1947":5034,"Ġwhether":5035,"Ġdemonst":5036,"Ġ1952":5037,"Ġfirm":5038,"Ġchannel":5039,"1998":5040,"secut":5041,"Ġneighbor":5042,"ĠAff":5043,"ĠWisconsin":5044,"part":5045,"Ġpit":5046,"Ġprimarily":5047,"MA":5048,"ĠMir":5049,"Ġsal":5050,"ĠAthlet":5051,"portun":5052,"ĠElizabeth":5053,"Ġpra":5054,"Ġlikely":5055,"Ġthr":5056,"yo":5057,"ĠRegion":5058,"ishes":5059,"Ġdomin":5060,"ĠLt":5061,"ĠBol":5062,"weight":5063,"ĠNations":5064,"oud":5065,"Ġconstitu":5066,"iginal":5067,"77":5068,"orship":5069,"Cast":5070,"Ġinh":5071,"urches":5072,"ĠMuslim":5073,"Ġsubs":5074,"68":5075,"Ġsubst":5076,"Ġult":5077,"ilton":5078,"Ġpan":5079,"ĠJon":5080,"ĠLi":5081,"Will":5082,"Ġleaders":5083,"Ġwanted":5084,"arp":5085,"ĠSom":5086,"Ġreason":5087,"Ġeffects":5088,"regon":5089,"ania":5090,"ois":5091,"ĠLem":5092,"Ġrevealed":5093,"Ġassistant":5094,"ĠTod":5095,"ĠNetherlands":5096,"MS":5097,"Ġconver":5098,"ech":5099,"ĠSab":5100,"ĠMinnesota":5101,"living":5102,"ĠSupreme":5103,"ĠThree":5104,"Ġexecutive":5105,"Ã©e":5106,"itled":5107,"Ġbecomes":5108,"Personal":5109,"Ġheart":5110,"By":5111,"Ġsat":5112,"Ġrules":5113,"Ġinitial":5114,"International":5115,"ĠAcc":5116,"ĠDown":5117,"edom":5118,"Ġrule":5119,"aped":5120,"ĠProject":5121,"ĠWork":5122,"Ġstrateg":5123,"raq":5124,"Ġ70":5125,"Ġmetal":5126,"ĠBa":5127,"Ġlif":5128,"ĠCE":5129,"Ġparish":5130,"dis":5131,"ĠCas":5132,"Ġ1955":5133,"Ġdark":5134,"ributed":5135,"Ġspread":5136,"Pr":5137,"El":5138,"Ġgas":5139,"Ġsources":5140,"Ġstars":5141,"Ġnotable":5142,"ĠPhiladelphia":5143,"ĠBrad":5144,"Ġmunicipal":5145,"ĠSher":5146,"rical":5147,"Ġcolor":5148,"ĠAut":5149,"Ġtowns":5150,"iest":5151,"ĠCa":5152,"1997":5153,"ba":5154,"ĠSanta":5155,"Ġidea":5156,"Ġfell":5157,"Ġscene":5158,"respond":5159,"nic":5160,"ĠBaron":5161,"ĠBad":5162,"athan":5163,"eller":5164,"Ġparticipated":5165,"Ġshare":5166,"Ġliterature":5167,"Ġimplement":5168,"Ġreplace":5169,"Ġhouseholds":5170,"heim":5171,"ĠBu":5172,"Ġletter":5173,"Ġdisp":5174,"Ġnation":5175,"ĠHuman":5176,"Ġadministrative":5177,"emetery":5178,"2018":5179,"Ġofficially":5180,"ĠSwedish":5181,"ĠIndepend":5182,"ĠFair":5183,"ĠMain":5184,"Ġconducted":5185,"Ġpaper":5186,"FF":5187,"Ġchap":5188,"Ġpiano":5189,"Ġlies":5190,"ensis":5191,"Ġbasis":5192,"Ġlaws":5193,"erc":5194,"ĠBoth":5195,"Ġfemales":5196,"Ġcontinue":5197,"inity":5198,"ĠHind":5199,"aging":5200,"ES":5201,"08":5202,"Ġproduce":5203,"Ġdirection":5204,"ĠFore":5205,"Ġhighly":5206,"eman":5207,"ĠHy":5208,"ĠBusiness":5209,"Ġ)":5210,"ĠMike":5211,"www":5212,"ĠWilson":5213,"Ġarticles":5214,"iced":5215,"ĠBridge":5216,"Ġtal":5217,"ĠIndiana":5218,"Ġgrowth":5219,"ounded":5220,"Ġdedicated":5221,"ĠOrgan":5222,"ĠÎ":5223,"Ne":5224,"ĠSweden":5225,"Ġly":5226,"rict":5227,"ĠWinter":5228,"Ġprominent":5229,"ĠMore":5230,"ĠJes":5231,"Ġ1954":5232,"Ġchampion":5233,"enna":5234,"enes":5235,"42":5236,"Ġcampus":5237,"ĠSus":5238,"Ġtypes":5239,"ĠKir":5240,"ocated":5241,"Ġrat":5242,"ographic":5243,"ĠCommunity":5244,"ĠMaster":5245,"olis":5246,"Ġremoved":5247,"force":5248,"ĠAtt":5249,"Ġhistoric":5250,"1996":5251,"Ġmountain":5252,"ĠPremier":5253,"Ġnovels":5254,"ibb":5255,"iring":5256,"Ġdigital":5257,"izes":5258,"ivity":5259,"ĠCaptain":5260,"Ġautom":5261,"formed":5262,"Ġsettlement":5263,"Ġyet":5264,"Ġgrew":5265,"roup":5266,"rie":5267,"ĠSte":5268,"And":5269,"Ġsusp":5270,"Ġuns":5271,"ĠLady":5272,"Ġimpact":5273,"Ġera":5274,"ĠSev":5275,"fort":5276,"Ġ1949":5277,"Ġut":5278,"Ġadministration":5279,"Ġclear":5280,"Ġfollows":5281,"Ġbehav":5282,"ĠĠĠ":5283,"ĠMissouri":5284,"General":5285,"Awards":5286,"aded":5287,"Ġinside":5288,"Ġquickly":5289,"Ġsmaller":5290,"Back":5291,"unct":5292,"ĠCzech":5293,"Ġ32":5294,"Ital":5295,"Ġcomes":5296,"Ġdistricts":5297,"ĠAnth":5298,"Ġnucle":5299,"resh":5300,"Ġintended":5301,"ervative":5302,"ĠPower":5303,"Ġ1953":5304,"Ġdivided":5305,"Ġgreen":5306,"Ġdestroyed":5307,"Ġdance":5308,"Ġrural":5309,"Ġcomposer":5310,"One":5311,"79":5312,"ads":5313,"Ġfacilities":5314,"eather":5315,"Women":5316,"imal":5317,"ĠHay":5318,"Ġactivity":5319,"Ġtreatment":5320,"Ġability":5321,"Ġcapacity":5322,"ĠSciences":5323,"Ġpotential":5324,"Ġmedalists":5325,"ĠStudies":5326,"Ġunknown":5327,"Ġequipment":5328,"Ġinstitutions":5329,"iated":5330,"real":5331,"Ġordered":5332,"Ġmedian":5333,"Ġpositive":5334,"kin":5335,"Ġpurs":5336,"Ġbranch":5337,"41":5338,"ĠClark":5339,"lyn":5340,"1995":5341,"asty":5342,"ennessee":5343,"Ġcounter":5344,"Ġsites":5345,"Ġbackground":5346,"Ġworkers":5347,"Ġcaptain":5348,"je":5349,"Ġopportun":5350,"ami":5351,"Ġquestion":5352,"Ġalongside":5353,"Ġproblem":5354,"edia":5355,"ĠIndust":5356,"efef":5357,"ĠCub":5358,"Ġtouch":5359,"Ġstreet":5360,"ropolitan":5361,"Ġmodels":5362,"500":5363,"ĠTok":5364,"ĠId":5365,"yard":5366,"Ġphysical":5367,"sex":5368,"ĠWars":5369,"hu":5370,"Ġ90":5371,"present":5372,"iform":5373,"100":5374,"ĠTai":5375,"Ġsurn":5376,"ears":5377,"Ġsymb":5378,"Ġcommonly":5379,"Ġassociation":5380,"Ġattend":5381,"Ġoperating":5382,"ĠHal":5383,"background":5384,"bro":5385,"ĠRepresentatives":5386,"Ġfeel":5387,"Ġcontrovers":5388,"estab":5389,"ixed":5390,"Ġwithd":5391,"Ġformat":5392,"88":5393,"ĠChris":5394,"Ãº":5395,"Ġagric":5396,"ĠOregon":5397,"Ġillust":5398,"Ġplanned":5399,"Ġcontact":5400,"ĠMedia":5401,"Ġforward":5402,"ĠEP":5403,"pre":5404,"Par":5405,"ĠAdd":5406,"Ġ1951":5407,"Ġtitles":5408,"ĠForest":5409,"Ġplants":5410,"Ġmixed":5411,"ression":5412,"Ġscholars":5413,"Ġimmediately":5414,"bed":5415,"Ġthink":5416,"1980":5417,"ĠBudd":5418,"ĠPers":5419,"anga":5420,"ĠFI":5421,"ĠNetwork":5422,"Ġstore":5423,"Canadian":5424,"grad":5425,"cow":5426,"ĠColon":5427,"Ġmax":5428,"Ġhosted":5429,"Ġmotor":5430,"Ġpurchased":5431,"ules":5432,"Ġmiles":5433,"Ġmoving":5434,"Ã£o":5435,"Ġconne":5436,"ĠFle":5437,"greg":5438,"bass":5439,"amin":5440,"Ġcars":5441,"ĠWalk":5442,"VD":5443,"05":5444,"urd":5445,"Ġstreng":5446,"Ð½":5447,"ĠCastle":5448,"onym":5449,"aki":5450,"water":5451,"Ġhousing":5452,"Ġrepe":5453,"Ġefforts":5454,"Ġcaptured":5455,"ĠEarl":5456,"ĠTaylor":5457,"Ġblood":5458,"ĠâĢĺ":5459,"Ġwrest":5460,"ĠAh":5461,"CO":5462,"ĠArthur":5463,"Ġquality":5464,"anna":5465,"ĠOffic":5466,"Ġupper":5467,"Ġcitizens":5468,"opher":5469,"ĠDam":5470,"ĠRom":5471,"andon":5472,"outheast":5473,"Ġminister":5474,"Ġflight":5475,"ĠBi":5476,"1994":5477,"ĠBeach":5478,"ader":5479,"Ġstra":5480,"Ġextra":5481,"rizona":5482,"LA":5483,"Ġhop":5484,"Ġ36":5485,"illery":5486,"ĠGolden":5487,"yal":5488,"bles":5489,"ER":5490,"oln":5491,"Ġneeded":5492,"Ġaffili":5493,"orph":5494,"Ġfr":5495,"ĠUt":5496,"ymn":5497,"Ġreach":5498,"apore":5499,"osophy":5500,"Ġrecover":5501,"odies":5502,"43":5503,"Ġfloor":5504,"ĠJoh":5505,"Ġassigned":5506,"ĠMaria":5507,"Ġfounder":5508,"ething":5509,"ĠGree":5510,"Ġestate":5511,"Ä±":5512,"Ġbig":5513,"Ġtarget":5514,"ĠMilitary":5515,"Ġapproach":5516,"ĠHighway":5517,"urer":5518,"96":5519,"fefef":5520,"fefefe":5521,"ĠBarb":5522,"Dem":5523,"ĠAlso":5524,"ĠStadium":5525,"Ġroles":5526,"watch":5527,"elligence":5528,"ĠFire":5529,"erick":5530,"Bibliography":5531,"kh":5532,"Ġbad":5533,"ĠGallery":5534,"Ġdistance":5535,"%)":5536,"eder":5537,"Ġpal":5538,"Ġcharge":5539,"ĠFox":5540,"arry":5541,"ĠRet":5542,"Ġgiving":5543,"iang":5544,"estic":5545,"En":5546,"ĠMexican":5547,"Ġowner":5548,"Ġadopted":5549,"met":5550,"Ġ1936":5551,"ĠLegisl":5552,"uls":5553,"Ġ...":5554,"We":5555,"Ġcontest":5556,"Ġfiction":5557,"ĠMarsh":5558,"rog":5559,"Ġwalk":5560,"ĠMun":5561,"Ġserves":5562,"ĠSu":5563,"mes":5564,"ĠCirc":5565,"Ġsens":5566,"Ġorganized":5567,"istered":5568,"Ġrespectively":5569,"Ġpet":5570,"sey":5571,"Ġleaves":5572,"olid":5573,"ĠArea":5574,"Ġwing":5575,"Ġrecently":5576,"Ġoffers":5577,"Ġ1918":5578,"Ġattention":5579,"ika":5580,"ĠFrancis":5581,"Ġlay":5582,"ĠKansas":5583,"ĠMedical":5584,"Ġbeat":5585,"aga":5586,"Ġanalysis":5587,"ito":5588,"ĠBaseball":5589,"rade":5590,"Ġfigure":5591,"ĠHamp":5592,"Ġhundred":5593,"aph":5594,"ĠAlf":5595,"Ġfavor":5596,"unte":5597,"ĠMarc":5598,"Ġfellow":5599,"ĠNaz":5600,"ÑĢ":5601,"Ġbelong":5602,"Nov":5603,"Ġteacher":5604,"elle":5605,"emic":5606,"Ġprobably":5607,"bot":5608,"Ġstone":5609,"ĠCountry":5610,"ĠMountain":5611,"Ġcerem":5612,"igen":5613,"Ġprec":5614,"Ġpeace":5615,"Ġsingers":5616,"Ġ500":5617,"Ġwidely":5618,"Ġcombined":5619,"ĠIraq":5620,"Ġexpatriate":5621,"Ġcoin":5622,"06":5623,"56":5624,"ĠTest":5625,"iate":5626,"orney":5627,"Ġswim":5628,"ĠHu":5629,"Ġdeclared":5630,"Ġpositions":5631,"osen":5632,"ĠFollowing":5633,"Ã¼r":5634,"ĠStephen":5635,"Ġtrial":5636,"09":5637,"1992":5638,"Ġindustrial":5639,"Ã¢":5640,"ĠAtlantic":5641,"1993":5642,"ibly":5643,"ĠRad":5644,"ĠDavis":5645,"ĠBall":5646,"oster":5647,"Ġsoc":5648,"ipe":5649,"Ġwa":5650,"ĠMunicip":5651,"ighth":5652,"Ġcorrespond":5653,"orge":5654,"Japan":5655,"jan":5656,"ĠSteve":5657,"ashion":5658,"Fran":5659,"inner":5660,"oven":5661,"Ġx":5662,"ĠâĢł":5663,"aug":5664,"works":5665,"07":5666,"western":5667,"itness":5668,"Ġtypically":5669,"TA":5670,"ori":5671,"ĠRem":5672,"Ġcontent":5673,"Ġconcent":5674,"May":5675,"ĠBec":5676,"HL":5677,"ĠNorway":5678,"Ġgained":5679,"ansion":5680,"Ġperman":5681,"alo":5682,"Ġ1938":5683,"ĠTennessee":5684,"Ġ(,":5685,"gn":5686,"Ġcode":5687,"lah":5688,"Ġattract":5689,"itional":5690,"Ġelim":5691,"Ġterritory":5692,"ga":5693,"ĠHan":5694,"ĠHo":5695,"oles":5696,"Ġdisease":5697,"miss":5698,"ĠLind":5699,"ĠTurkey":5700,"uildings":5701,"Ġbegins":5702,"ĠLo":5703,"ĠBrook":5704,"Ġsearch":5705,"ĠForm":5706,"iplom":5707,"Ġagreed":5708,"Ġtitled":5709,"kes":5710,"ĠKel":5711,"ĠConf":5712,"ĠIndones":5713,"ilation":5714,"Ġestimated":5715,"Ġfast":5716,"Ġpressure":5717,"acter":5718,"Ġvs":5719,"ĠDiv":5720,"Ġarts":5721,"ĠJunior":5722,"bi":5723,"sky":5724,"ĠDec":5725,"Ġsemi":5726,"Ġstarring":5727,"ĠColorado":5728,"ancing":5729,"tic":5730,"Ġdocumentary":5731,"59":5732,"Ġclassical":5733,"Ġtherefore":5734,"ĠKim":5735,"ĠTal":5736,"Ġvess":5737,"ĠBrother":5738,"Ġ38":5739,"cles":5740,"mouth":5741,"hedral":5742,"Ġlargely":5743,"eline":5744,"ĠHun":5745,"Ġconference":5746,"Ġengineering":5747,"ĠPhilippines":5748,"Ġdistribution":5749,"ĠAdminist":5750,"Ab":5751,"ĠReview":5752,"Geography":5753,"usion":5754,"Ġjourn":5755,"ĠLive":5756,"Ġengineer":5757,"Ġaccepted":5758,"olved":5759,"Ġversions":5760,"Ġagreement":5761,"ĠMaryland":5762,"Ġir":5763,"Ġresident":5764,"Ġsplit":5765,"Ġoccurred":5766,"ĠMemorial":5767,"Ġmess":5768,"Ġactually":5769,"Ġreviews":5770,"ogs":5771,"uese":5772,"Ġmentioned":5773,"iders":5774,"Ġvotes":5775,"ĠKal":5776,"Gu":5777,"ĠTa":5778,"Ġsuffered":5779,"INE":5780,"former":5781,"ĠGreg":5782,"ĠMoh":5783,"Australian":5784,"Ġcontemporary":5785,"ĠSquadron":5786,"ĠEngineering":5787,"pass":5788,"ĠDespite":5789,"Ġpict":5790,"li":5791,"Ġlabor":5792,"Ġjoint":5793,"wealth":5794,"andy":5795,"aks":5796,"01":5797,"Ġflag":5798,"Co":5799,"Ġeducated":5800,"Ġcam":5801,"orro":5802,"Ġleadership":5803,"agh":5804,"ĠPier":5805,"Ġweight":5806,"Ġinstrument":5807,"pson":5808,"rect":5809,"Ġboy":5810,"oths":5811,"ĠSav":5812,"Ġconcert":5813,"ĠPrim":5814,"raine":5815,"Ġsales":5816,"2019":5817,"Ġpair":5818,"72":5819,"Ġetc":5820,"inus":5821,"ÃŃa":5822,"ĠSon":5823,"Ġcompared":5824,"Ġgraph":5825,"ĠVo":5826,"mad":5827,"Ġpolitics":5828,"ictional":5829,"Ġhor":5830,"Ġhar":5831,"ĠCur":5832,"which":5833,"Ġrecognized":5834,"ĠKitt":5835,"ĠRoss":5836,"cluding":5837,"1991":5838,"Ġcolumn":5839,"Ġtim":5840,"iling":5841,"ĠPit":5842,"ĠSpring":5843,"SP":5844,"chers":5845,"Ġmill":5846,"Ġ1937":5847,"rec":5848,"ID":5849,"Ġknowledge":5850,"Ġcoming":5851,"Ġcrime":5852,"Ġacting":5853,"Ġseats":5854,"ĠFamily":5855,"asters":5856,"Ġvillages":5857,"vard":5858,"Ġblue":5859,"Ġimage":5860,"Ġpresence":5861,"mers":5862,"ĠCommand":5863,"Ġparliament":5864,"Indian":5865,"Ġsevent":5866,"ĠFe":5867,"Disc":5868,"ello":5869,"Ġperformances":5870,"ĠWeek":5871,"Ġsecondary":5872,"Ġabandon":5873,"ented":5874,"ĠFederation":5875,"Ġappar":5876,"Ġspons":5877,"ĠBooks":5878,"Ġencou":5879,"ĠPolit":5880,"Ġcancer":5881,"iques":5882,"rÃ©":5883,"Ġnet":5884,"ĠQueensland":5885,"isa":5886,"Ġpack":5887,"ĠMoscow":5888,":#":5889,"Ġdamage":5890,"Ġsecret":5891,"ĠLewis":5892,"Ġresulted":5893,"ician":5894,"ĠOcean":5895,"law":5896,"ĠManagement":5897,"Ġbal":5898,"cont":5899,"Äį":5900,"ĠLeon":5901,"ĠPass":5902,"Ġtrue":5903,"ĠMember":5904,"Ġcarri":5905,"Ġnominated":5906,"Ġbronze":5907,"ĠMic":5908,"uct":5909,"Ġdrums":5910,"Ġyards":5911,"Sources":5912,"Ġurban":5913,"Ġcoal":5914,"Ġexpanded":5915,"ussian":5916,"ĠInst":5917,"Ġcreation":5918,"ructure":5919,"ecutive":5920,"Ġfish":5921,"Ġreduced":5922,"claim":5923,"IC":5924,"Char":5925,"incoln":5926,"ante":5927,"ĠArk":5928,"Ġproviding":5929,"incial":5930,"Ġresulting":5931,"ĠEmperor":5932,"room":5933,"atell":5934,"86":5935,"ouses":5936,"Ġpoll":5937,"Ġpattern":5938,"Ġranked":5939,"Ġcab":5940,"ĠVi":5941,"Ġcritical":5942,"Ġexpected":5943,"mph":5944,"ambig":5945,"No":5946,"atus":5947,"Ġdistinct":5948,"Â°":5949,"rum":5950,"also":5951,"Ġsexual":5952,"Ġserious":5953,"Ġstre":5954,"Ġsays":5955,"Ġcontinues":5956,"Ġjournalist":5957,"Ġhabit":5958,"ĠMalays":5959,"Ġidentified":5960,"rage":5961,"Ġretire":5962,"ivals":5963,"Ġwild":5964,"Ġattacks":5965,"ĠBru":5966,"',":5967,"ĠWat":5968,"last":5969,"oly":5970,"idi":5971,"ĠSem":5972,"Ġprogramming":5973,"lywood":5974,"Ġtheatre":5975,"ordin":5976,"Ġrecomm":5977,"Ġofficials":5978,"ĠStock":5979,"West":5980,"ĠAnother":5981,"ban":5982,"Ġmicro":5983,"57":5984,"IT":5985,"ĠDer":5986,"ĠMelbourne":5987,"ĠBat":5988,"ĠSri":5989,"ĠTrust":5990,"lementary":5991,"ques":5992,"Ġdensity":5993,"ĠNic":5994,"CAA":5995,"Ġnewly":5996,"Ġgives":5997,"Ġmagn":5998,"William":5999,"hips":6000,"Ġtwice":6001,"Ġreform":6002,"Ġ1919":6003,"itzerland":6004,"Ġburied":6005,"Ġcompon":6006,"Ġtaught":6007,"ĠUs":6008,"Ġreceive":6009,"Ġbow":6010,"itter":6011,"iller":6012,"Ġdefend":6013,"Ġvot":6014,"Ġtells":6015,"oli":6016,"Ġthous":6017,"97":6018,"Ġgranted":6019,"ĠUN":6020,"Ġvac":6021,"ĠArizona":6022,"ĠAst":6023,"Ġexperiment":6024,"aro":6025,"aling":6026,"Ġdial":6027,"ocese":6028,"AA":6029,"ager":6030,"ĠKentucky":6031,"gg":6032,"Ġ1914":6033,"ĠMas":6034,"ordon":6035,"Rail":6036,"Ġallows":6037,"Ġconfirmed":6038,"pri":6039,"Ġ1935":6040,"Ġliber":6041,"Ġspirit":6042,"Ġgreater":6043,"Å«":6044,"Ġcouple":6045,"Ġwall":6046,"lahoma":6047,"Ġsurrounding":6048,"Ġpaid":6049,"Ġpainting":6050,"iÃ³n":6051,"Ġcannot":6052,"Ġpurpose":6053,"rell":6054,"ĠDesign":6055,"Ġlibrary":6056,"iny":6057,"Ġfestival":6058,"Ġsuppl":6059,"ĠPhilip":6060,"osis":6061,"Ġbott":6062,"First":6063,"uv":6064,"can":6065,"Ġ1917":6066,"esign":6067,"ĠBarn":6068,"Ġ33":6069,"ĠHart":6070,"ĠBon":6071,"ĠHard":6072,"ĠConnect":6073,"Ġfeet":6074,"umes":6075,"ĠJews":6076,"Ġalone":6077,"Ñģ":6078,"uled":6079,"Ġstream":6080,"Sing":6081,"Ġscoring":6082,"ĠNY":6083,"anning":6084,"ĠRen":6085,"Ġtwenty":6086,"Ġclaims":6087,"Ġstrugg":6088,"Ġracing":6089,"Ġnort":6090,"Ġtraffic":6091,"ĠMagazine":6092,"1989":6093,"ambiguation":6094,"Ġkept":6095,"TC":6096,"Ġformation":6097,"Ġfelt":6098,"ĠBalt":6099,"ĠAustria":6100,"bell":6101,"igrants":6102,"pur":6103,"icut":6104,"Ġtree":6105,"cluded":6106,"ĠInfantry":6107,"aints":6108,"Ġlosing":6109,"Ġ44":6110,"iti":6111,"Ġshop":6112,"Ġbasic":6113,"ĠPlan":6114,"Ġyounger":6115,"anger":6116,"see":6117,"Comp":6118,"ĠKhan":6119,"life":6120,"Ġtrains":6121,"186":6122,"lections":6123,"Ġbatt":6124,"Ġcells":6125,"uous":6126,"abama":6127,"organ":6128,"ĠFree":6129,"ionally":6130,"Ġtalk":6131,"pool":6132,"Ġmeasure":6133,"Ġburn":6134,"ĠSpacewatch":6135,"Qu":6136,"ĠLabor":6137,"Ġspring":6138,"Ġmales":6139,"Ġslight":6140,"Ġrom":6141,"Ġregions":6142,"1970":6143,"Sec":6144,"ĠSingapore":6145,"Ġformerly":6146,"Ġunique":6147,"urance":6148,"PS":6149,"ĠCra":6150,"awn":6151,"ruit":6152,"Ġsituated":6153,"ĠNorwegian":6154,"ĠForeign":6155,"54":6156,"ĠGil":6157,"Ġchairman":6158,"Ġhy":6159,"52":6160,"La":6161,"Ġeas":6162,"yes":6163,"Vill":6164,"Ġtheme":6165,"Ġforest":6166,"ĠHou":6167,"Ġmaterials":6168,"03":6169,"94":6170,"ĠStand":6171,"Ġast":6172,"ĠIowa":6173,"bra":6174,"bums":6175,"Ġapplied":6176,"Ġshowed":6177,"lan":6178,"ãĥ":6179,"Ġvehicles":6180,"Ġfigures":6181,"Ġvocal":6182,"ĠSocorro":6183,"Ġclasses":6184,"ĠTs":6185,"ĠFame":6186,"ĠAnderson":6187,"ographer":6188,"ulate":6189,"Ġobtained":6190,"Ġsupply":6191,"Ġslow":6192,"ĠBah":6193,"Ġcondition":6194,"roit":6195,"Ġ1928":6196,"Ġnotes":6197,"Ġfacility":6198,"Ġpropos":6199,"Ġscientific":6200,"Ġfinish":6201,"Ġgovernor":6202,"Ġsuggested":6203,"Ġmarked":6204,"Ġlaunch":6205,"ĠWrit":6206,"Ġreports":6207,"ĠDor":6208,"04":6209,"Ġprep":6210,"Ġcrim":6211,"Ġ1933":6212,"Ġhands":6213,"ĠLtd":6214,"Ġ1929":6215,"po":6216,"ĠNap":6217,"ĠAffairs":6218,"Death":6219,"Ġgoes":6220,"74":6221,"Ġthings":6222,"Ġtried":6223,"CD":6224,"Ġdesignated":6225,"Ġspot":6226,"ĠLINE":6227,"ĠVietnam":6228,"Ġcommittee":6229,"Ġgrowing":6230,"ĠHarry":6231,"Ġec":6232,"51":6233,"ĠChristmas":6234,"Background":6235,"ĠFord":6236,"Ġsuit":6237,"vo":6238,"ĠPrin":6239,"ovak":6240,"ĠShort":6241,"Ġrestaur":6242,"Ġ64":6243,"Ġaccident":6244,"ureau":6245,"utt":6246,"keep":6247,"Ġcoaches":6248,"Ġinjury":6249,"ĠIV":6250,"ĠOd":6251,"71":6252,"ĠCape":6253,"ĠTen":6254,"Ġsimply":6255,"53":6256,"glas":6257,"ĠChannel":6258,"Ġteaching":6259,"ublin":6260,"engers":6261,"uther":6262,"ĠLINEAR":6263,"Ġoppos":6264,"ifications":6265,"Public":6266,"Best":6267,"ON":6268,"Ġreserv":6269,"ĠHoly":6270,"Ġcert":6271,"ĠBos":6272,"1988":6273,"Ġearth":6274,"Ġpainter":6275,"idge":6276,"Ġcart":6277,"Ġconsum":6278,"Ġconflict":6279,"Ġconnected":6280,"Ġmap":6281,"ĠEntertainment":6282,"ĠCab":6283,"ĠTony":6284,"Ġheav":6285,"Ġentry":6286,"Ġcustom":6287,"ĠAbb":6288,"ĠHor":6289,"02":6290,"Hon":6291,"Ġ1900":6292,"Ġauthorities":6293,"Ġadapt":6294,"abad":6295,"Ġmom":6296,"Ġpartner":6297,"Ġmut":6298,"ĠFa":6299,"Ġheadquarters":6300,"ĠTelevision":6301,"Ġadvanced":6302,"Ġcommander":6303,"incorporated":6304,"Ġsucceeded":6305,"Ġfully":6306,"related":6307,"ĠSimon":6308,"wing":6309,"Ġoldest":6310,"iser":6311,"uties":6312,"ĠRoy":6313,"Ġwins":6314,"Life":6315,"Ġhall":6316,"Ġfighting":6317,"unch":6318,"Ġvisit":6319,"ĠGreece":6320,"ĉĉ":6321,"ĠSurvey":6322,"ĠMiller":6323,"ĠNev":6324,"Ġdefined":6325,"Ġallowing":6326,"erald":6327,"Ġwant":6328,"Ġpremier":6329,"Ġsituation":6330,"Ġaired":6331,"disambiguation":6332,"Ġenj":6333,"Ġ1934":6334,"Ġcompletely":6335,"Ġexisting":6336,"Ġreference":6337,"Ġdoctor":6338,"ĠNiger":6339,"ĠDrag":6340,"GB":6341,"ek":6342,"ĠManchester":6343,"ordan":6344,"ĠSwitzerland":6345,"season":6346,"Ġtele":6347,"Ġsurvey":6348,";\"|":6349,"wich":6350,"rator":6351,"play":6352,"uerto":6353,"ĠSound":6354,"ĠBurn":6355,"92":6356,"ĠTurn":6357,"eding":6358,"ippi":6359,"ĠJane":6360,"Ġ1910":6361,"ĠOt":6362,"ĠLincoln":6363,"cha":6364,"enny":6365,"ĠPict":6366,"Ġachieved":6367,"Ġdefin":6368,"ĠIr":6369,"Ġpublication":6370,"ĠDun":6371,"Ġfair":6372,"Ġloan":6373,"Ġanimals":6374,"Euro":6375,"ĠWalter":6376,"Commun":6377,"enez":6378,"ski":6379,"achers":6380,"Ġple":6381,"bar":6382,"Ġcritics":6383,"Ġaim":6384,"Ġ1932":6385,"North":6386,"PA":6387,"Ġlot":6388,"lines":6389,"pects":6390,"ĠServices":6391,"Ġcontain":6392,"Ġce":6393,"Ġ1924":6394,"Ġarrested":6395,"outs":6396,"olas":6397,"ĠRD":6398,"Dav":6399,"key":6400,"Ġsafety":6401,"Äĥ":6402,"Ġinspired":6403,"1987":6404,"Ġ34":6405,"ikh":6406,"Ġchosen":6407,"Ġhorse":6408,"ĠPoint":6409,"ugu":6410,"ĠEach":6411,"ooth":6412,"ĠStaff":6413,"ateur":6414,"illing":6415,"Christ":6416,"ĠEth":6417,"Ġtower":6418,"Ġholds":6419,"atab":6420,"93":6421,"Spec":6422,"ĠGi":6423,"Ġrapid":6424,"Ġmachine":6425,"ĠNar":6426,"pa":6427,"fit":6428,"ĠTransport":6429,"ĠBillboard":6430,"rees":6431,"Ac":6432,"ĠHur":6433,"Bo":6434,"Notable":6435,"Ġportion":6436,"asion":6437,"Ġconsist":6438,"ĠRon":6439,"Ġsets":6440,"Ġbillion":6441,"Ġopposition":6442,"Ġsides":6443,"antic":6444,"Ġthir":6445,"Ġmethods":6446,"Ġguest":6447,"ĠBattalion":6448,"Bas":6449,"Ġmusician":6450,"EE":6451,"ĠLank":6452,"ĠAlabama":6453,"Ġmetres":6454,"Ġroll":6455,"ridges":6456,"urrent":6457,"Ġgall":6458,"anton":6459,"Since":6460,"Born":6461,"Ġadvert":6462,"Ġnecessary":6463,"Ap":6464,"Ġtemple":6465,"Ġauthority":6466,"ĠOfficer":6467,"Ġarms":6468,"ournament":6469,"Ġresources":6470,"onom":6471,"ĠRa":6472,"inder":6473,"ĠIns":6474,"Ġexchange":6475,"ĠRound":6476,"Ġopera":6477,"Ġ1912":6478,"Ġmemory":6479,"Ġflow":6480,"iable":6481,"Ġagent":6482,"Ġroyal":6483,"imens":6484,"ĠQuebec":6485,"ĠStr":6486,"agan":6487,"elsh":6488,"inth":6489,"Education":6490,"Ġcontaining":6491,"Ġsixth":6492,"1986":6493,"Ġlocomot":6494,"everal":6495,"Ġfans":6496,"Ġprincipal":6497,"Mon":6498,"leep":6499,"ĠTemple":6500,"ĠOklahoma":6501,"agu":6502,"73":6503,"ĠNick":6504,"Ġsons":6505,"Ġsuggest":6506,"ĠDisc":6507,"ĠBulgar":6508,"Ġstatistics":6509,"bs":6510,"rip":6511,"oes":6512,"enh":6513,"ĠSecurity":6514,"ressed":6515,"ĠSum":6516,"achelor":6517,"Ġmeant":6518,"style":6519,"Ġ1931":6520,"Official":6521,"Ġbrothers":6522,"under":6523,"ĠSenior":6524,"rations":6525,"ardo":6526,"Ġ1927":6527,"Ġ48":6528,"ĠModern":6529,"Television":6530,"ĠWhit":6531,"Cont":6532,"Ġprofile":6533,"ĠHoward":6534,"lad":6535,"ĠTit":6536,"rence":6537,"Def":6538,"Ġvehicle":6539,"Ġrisk":6540,"ĠFront":6541,"Ð¾Ð":6542,"Ġinters":6543,"ĠDoctor":6544,"Ġprotection":6545,"Ġsomething":6546,"ĠBrigade":6547,"opter":6548,"cell":6549,"ĠMarine":6550,"Ġbeaut":6551,"elve":6552,"ĠÄ":6553,"Ġentitled":6554,"ĠAnne":6555,"igration":6556,"ĠYour":6557,"Ġbought":6558,"ĠJacob":6559,"ĠSix":6560,"ĠGab":6561,"Ġfrequently":6562,"rif":6563,"ĠLemmon":6564,"Ġglobal":6565,"ĠSunday":6566,"ĠLin":6567,"Ġprepar":6568,"Ġproperties":6569,"Ġlake":6570,"Ġrelatively":6571,"Ġ1922":6572,"udget":6573,"SR":6574,"Plot":6575,"Ġsurname":6576,"aming":6577,"à¸":6578,"issippi":6579,"Ġlyrics":6580,"ĠConnecticut":6581,"Ġnob":6582,"aver":6583,"Ġjazz":6584,"ĠHand":6585,"Ġproceed":6586,"istant":6587,"ĠStat":6588,"Ġpromotion":6589,"Jan":6590,"ogy":6591,"Ġreturning":6592,"rait":6593,"prise":6594,"gor":6595,"antly":6596,"ĠVice":6597,"Ġcreating":6598,"iva":6599,"ĠHans":6600,"aux":6601,"Phil":6602,"ĠEric":6603,"ĠHamilton":6604,"Ġnarrow":6605,"ÑĤ":6606,"Ġpilot":6607,"Ġyellow":6608,"odox":6609,"Buildings":6610,"ĠWolf":6611,"aron":6612,"ologists":6613,"agen":6614,"Ġpiece":6615,"Ġattempts":6616,"ĠForces":6617,"ifically":6618,"Ġrefused":6619,"1985":6620,"ĠNFL":6621,"Ġfolk":6622,"Ġstock":6623,"inema":6624,"AM":6625,"gers":6626,"tters":6627,"Ġaudience":6628,"'.":6629,"ieval":6630,"Ġcompetitions":6631,"Ġlit":6632,"ĠAud":6633,"Ġcombat":6634,"Ġactions":6635,"Ġcalc":6636,"Ġdrive":6637,"Ġsettled":6638,"Ġseem":6639,"Ġspect":6640,"Ġrot":6641,"Ġnormal":6642,"ĠNow":6643,"evin":6644,"1984":6645,"uses":6646,"Ġflood":6647,"uccess":6648,"Ġneighborhood":6649,"Ġhistorian":6650,"ĠCroat":6651,"weet":6652,"ĠBrian":6653,"Ġapplication":6654,"escription":6655,"Ġdiplom":6656,"Ġcopies":6657,"Italian":6658,"ĠLouisiana":6659,"Ġsimple":6660,"Ġends":6661,"ĠExecutive":6662,"ĠHonor":6663,"ĠDiego":6664,"Ġcovers":6665,"ĠStory":6666,"Ġdaily":6667,"Ġvolume":6668,"ĠTan":6669,"ĠDream":6670,"ĠBeng":6671,"ĠBuilding":6672,"zen":6673,"Ġwear":6674,"Ġroof":6675,"ĠHockey":6676,"ui":6677,"ĠChile":6678,"Ġcommissioned":6679,"Ġexpansion":6680,"hol":6681,"Ġ1921":6682,"oslav":6683,"rete":6684,"ĠLiter":6685,"Ġeffective":6686,"hr":6687,"ĠPrix":6688,"ĠKat":6689,"ĠHeart":6690,"Ġcho":6691,"iments":6692,"Ġlearning":6693,"Ġfields":6694,"Ġ1925":6695,"olished":6696,"ials":6697,"Ġfought":6698,"car":6699,"Ġtheor":6700,"Af":6701,"Ġunderst":6702,"ĠAmericans":6703,"orough":6704,"ĠNaval":6705,"oa":6706,"ĠBack":6707,"Ġexclus":6708,"Ġadvance":6709,"ĠNich":6710,"85":6711,"ĠReal":6712,"iab":6713,"ĠStone":6714,"iami":6715,"ista":6716,"ĠTurkish":6717,"ĠFinn":6718,"ĠSilver":6719,"Ġbul":6720,"Ġwinter":6721,"Ġending":6722,"oured":6723,"ĠRoll":6724,"Ġrecip":6725,"Ġsubsequent":6726,"ĠRegional":6727,"Ġpowerful":6728,"Ġstraight":6729,"ĠCommonwealth":6730,";\"":6731,"ĠIl":6732,"Ġattacked":6733,"Ġattempted":6734,"orders":6735,"Ġ1926":6736,"Men":6737,"ĠInn":6738,"oen":6739,"wise":6740,"redited":6741,"Ġ1923":6742,"Ġunable":6743,"Ġiron":6744,"91":6745,"olec":6746,"ĠNik":6747,"ĠPhys":6748,"ĠAbd":6749,"Ġapproved":6750,"Ġlocations":6751,"ĠDomin":6752,"ĠLow":6753,"ĠAuthor":6754,"ĠLieutenant":6755,"Ġeconomy":6756,"ĠLor":6757,"Ġsense":6758,"Ġacts":6759,"Ġvisited":6760,"Ġactresses":6761,"Ġsay":6762,"ĠExpress":6763,"oking":6764,"iley":6765,"ĠEc":6766,"ĠTokyo":6767,"anes":6768,"Ġlect":6769,"Ġdisestab":6770,"chi":6771,"Ġbroke":6772,"Ġperforming":6773,"ĠLabour":6774,"Ġgod":6775,"ĠDVD":6776,"Ġtrees":6777,"ĠPortuguese":6778,"Results":6779,"Ġresc":6780,"Ġjudge":6781,"Ġstorm":6782,"Ġdistingu":6783,"To":6784,"actions":6785,"igation":6786,"ĠRose":6787,"offs":6788,"Ġrear":6789,"Ġchurches":6790,"While":6791,"Ġsail":6792,"ĠArgentina":6793,"oming":6794,"ĠAdam":6795,"Ġvent":6796,"Ġhero":6797,"Ġrespond":6798,"Ġmayor":6799,"ĠTel":6800,"Ġconverted":6801,"mi":6802,"\"),":6803,"Ġdropped":6804,"Ġ1915":6805,"Ġreject":6806,"Ġfunding":6807,"lets":6808,"Ġ1916":6809,"Ġairport":6810,"stream":6811,"died":6812,"place":6813,"Ġneeds":6814,"Ġoppon":6815,"1983":6816,"Ġdraft":6817,"ĠAD":6818,"ĠMit":6819,"ĠLike":6820,"Ġfounding":6821,"iversary":6822,"iants":6823,"burn":6824,"ĠAllen":6825,"ĠAli":6826,"Ġalternative":6827,"risis":6828,"Ġbill":6829,"ST":6830,"Club":6831,"dam":6832,"acent":6833,"ĠTerrit":6834,"ĠCatal":6835,"ĠDouglas":6836,"Ġgirls":6837,"Some":6838,"Ġmorning":6839,"ĠKey":6840,"har":6841,"box":6842,"rac":6843,"Ġreceiving":6844,"ĠWorks":6845,"Ġseg":6846,"ĠWell":6847,"ĠArmen":6848,"rainian":6849,"Exp":6850,"ni":6851,"Ġharm":6852,"ĠGram":6853,"OR":6854,"ĠWy":6855,"Ġliterary":6856,"ĠInternet":6857,"olo":6858,"Ġmaximum":6859,"ĠLiberal":6860,"Ġletters":6861,"ĠPot":6862,"Ġgrade":6863,"Final":6864,"Ġextensive":6865,"Ġclimate":6866,"ĠBureau":6867,"Ġmanagers":6868,"ĠLeb":6869,"Ġchampions":6870,"89":6871,"Ġinternal":6872,"osed":6873,"ĠCost":6874,"ĠVis":6875,"jo":6876,"ĠInformation":6877,"Ġheight":6878,"Roman":6879,"phas":6880,"dale":6881,"Ġhighway":6882,"Ġemployed":6883,"Songs":6884,"ĠRun":6885,"ĠChildren":6886,"Ġbey":6887,")\"":6888,"rep":6889,"Ġvirt":6890,"ĠNa":6891,"Ġoccupied":6892,"Ġmind":6893,"Following":6894,"Sup":6895,"Ġchalleng":6896,"Ġshared":6897,"Ġconsisted":6898,"ĠPatrick":6899,"Ġfunctions":6900,"ĠGordon":6901,"Ġopposed":6902,"ĠHouston":6903,"Ġpolic":6904,"ĠPap":6905,"ĠTar":6906,"Ġguns":6907,"Ġinhabit":6908,"Ã©s":6909,"ĠZh":6910,"rine":6911,"Ġrang":6912,"ĠSin":6913,"Ġdirectors":6914,"Ġgeneration":6915,"Ġbra":6916,"Ġsetting":6917,"sis":6918,"inburgh":6919,"from":6920,"ogen":6921,"ĠProt":6922,"Ġmulti":6923,"ĠBrand":6924,"orter":6925,"Ġcompar":6926,"adi":6927,"cycl":6928,"ourses":6929,"ĠNCAA":6930,"ĠJay":6931,"miral":6932,"aza":6933,"64":6934,"die":6935,"Ġonto":6936,"ĠBerg":6937,"Ġmis":6938,"ĠReb":6939,"Ġconvers":6940,"ĠPuerto":6941,"Â²":6942,"Ġconsult":6943,"Ġox":6944,"ĠCer":6945,"ĠDal":6946,"1982":6947,"ĠDur":6948,"elli":6949,"ĠNative":6950,"Ġrain":6951,"ĠPope":6952,"Ġexhibition":6953,"Ġkil":6954,"ghan":6955,"fe":6956,"Reg":6957,"Ġtrust":6958,"ĠAnthony":6959,"ryst":6960,"Ġweapons":6961,"issance":6962,"ĠCemetery":6963,"Ġenjoy":6964,"Ã¥":6965,"Ġdefense":6966,"Arch":6967,"secutive":6968,"Ġstadium":6969,"thodox":6970,"scape":6971,"ĠBowl":6972,"Ġfuel":6973,"Ġnegot":6974,"ĠBelgium":6975,"ĠTrib":6976,"veland":6977,"ĠOrchestra":6978,"Ġgather":6979,"Ġbeyond":6980,"Ġyour":6981,"Ġmatter":6982,"leges":6983,"ĠMoon":6984,"Ġrefers":6985,"Ġnuclear":6986,"Ġ(;":6987,"Ġoffices":6988,"stitutional":6989,"file":6990,"appe":6991,"Per":6992,"Ġresear":6993,"Ġspeech":6994,"ĠErn":6995,"Ġshortly":6996,"ĠAge":6997,"Ġenemy":6998,"Ġmel":6999,"Ġ37":7000,"Har":7001,"ĠFM":7002,"Ġauth":7003,"Ġdriver":7004,"__":7005,"Ġmile":7006,"zh":7007,"Ġdetect":7008,"Ġrecognition":7009,"Ġoccurs":7010,"icide":7011,"ĠAbout":7012,"ĠReport":7013,"Ġguard":7014,"ĠKarl":7015,"eland":7016,"Ġdomestic":7017,"Ġcategory":7018,"ĠHeritage":7019,"ĠLas":7020,"Ġdetermined":7021,"ĠKam":7022,"stan":7023,"Ġbegin":7024,"Ġ300":7025,"ĠAle":7026,"ĠMississippi":7027,"My":7028,"Ġdisplay":7029,"Ġidentity":7030,"1960":7031,"ĠYouth":7032,"imore":7033,"lades":7034,"ĠDark":7035,"Ġpup":7036,"Ġways":7037,"ĠHawai":7038,"Ġtechnical":7039,"ĠRang":7040,"Act":7041,"ĠBeat":7042,"ĠMrs":7043,"Ġretirement":7044,"Ġrepresenting":7045,"ĠChampions":7046,"Ġfashion":7047,"Ġ1913":7048,"ĠKl":7049,"ĠSky":7050,"Ġsector":7051,"icians":7052,"Ġsoccer":7053,"uration":7054,"Ġincident":7055,"SC":7056,"ĠLev":7057,"ĠRab":7058,"ologies":7059,"hematics":7060,"ĠHotel":7061,"iful":7062,"Ġinstall":7063,"Ġscript":7064,"Ġherself":7065,"ĠChairman":7066,"fall":7067,"uj":7068,"Ġcenturies":7069,"Ġimpl":7070,"ĠAntonio":7071,"Ġpieces":7072,"Ġcharts":7073,"ĠSquare":7074,"run":7075,"active":7076,"Ġring":7077,"AP":7078,"Ġcas":7079,"allel":7080,"elson":7081,"hat":7082,"ĠThird":7083,"Ġlands":7084,"ocation":7085,"Ġkilling":7086,"raf":7087,"Ġeducational":7088,"cted":7089,"ĠSwiss":7090,"ĠDenmark":7091,"Ġpermanent":7092,"Ġdecor":7093,"Ġenvironmental":7094,"ĠNag":7095,"Ġworldwide":7096,"ĠVin":7097,"Her":7098,"Port":7099,"ĠDak":7100,"Japanese":7101,"uilt":7102,"ĠJam":7103,"1979":7104,"Ġglass":7105,"ĠEag":7106,"ĠMargar":7107,"Villages":7108,"night":7109,"Ġfocused":7110,"ĠOak":7111,"icts":7112,"Ġfinds":7113,"Ġadvant":7114,"Ġcontrast":7115,"rates":7116,"ĠGer":7117,"uri":7118,"Ġspok":7119,"Ä«":7120,"ĠJuan":7121,"iations":7122,"ĠUkraine":7123,"ĠÃī":7124,"azines":7125,"Ġrepresentative":7126,"di":7127,"adow":7128,"Ġtennis":7129,"Ġsteel":7130,"Ġhydro":7131,"ĠBou":7132,"Ã´":7133,"Ġplanning":7134,"Ġcontributed":7135,"ĠDetroit":7136,"iki":7137,"ĠFrederick":7138,"ĠRural":7139,"Ġcomput":7140,"pret":7141,"Ġvalley":7142,"Ġavoid":7143,"IV":7144,"mith":7145,"Ġhotel":7146,"Ġexistence":7147,"Ġjur":7148,"ĠĠĠĠĠĠĠĠĠĠĠĠĠĠĠĠ":7149,"ĠGard":7150,"rome":7151,"come":7152,"ĠTaiwan":7153,"Ġderived":7154,"Ġwrite":7155,"Ġqualified":7156,"ĠTournament":7157,"uma":7158,"Reception":7159,"allas":7160,"Military":7161,"ĠDublin":7162,"ĠDa":7163,"Ġrough":7164,"ĠLanc":7165,"ĠArkansas":7166,"1981":7167,"Ġdeveloping":7168,"otte":7169,"Ġmerch":7170,"Ġpoetry":7171,"agues":7172,"ĠVillage":7173,"Ġ1911":7174,"Ġstay":7175,"Ġcandidates":7176,"ĠHills":7177,"isms":7178,"Ġquant":7179,"gency":7180,"set":7181,"Ġtry":7182,"Ġslightly":7183,"ĠTun":7184,"uy":7185,"Ġ1908":7186,"rant":7187,"Ġrival":7188,"OC":7189,"\").":7190,"ĠCommander":7191,"Ġequal":7192,"riev":7193,"Ġhyp":7194,"Ġpowers":7195,"oyd":7196,"Ġreasons":7197,"point":7198,"arks":7199,"82":7200,"Ġsust":7201,"Ep":7202,"ĠCensus":7203,"ĠAmong":7204,"ĠDanish":7205,"ĠJesus":7206,"Ġconsecutive":7207,"antasy":7208,"Ġsomeone":7209,"Ġfailure":7210,"ĠMach":7211,"Ġcalls":7212,"Ġtouchdown":7213,"Pol":7214,"ega":7215,"Ġsuccessfully":7216,"ĠSeat":7217,"ĠFund":7218,"borough":7219,"UK":7220,"Ġpaintings":7221,"Car":7222,"Description":7223,"Railway":7224,"Ġpun":7225,"Ġholding":7226,"ĠBry":7227,"ographical":7228,"Ġultimately":7229,"Ġprogramme":7230,"igious":7231,"ĠRey":7232,".âĢĿ":7233,"ĠImperial":7234,"Flor":7235,"Ġreligion":7236,"III":7237,"ĠIsraeli":7238,"ĠEdinburgh":7239,"ĠMand":7240,"Ġovers":7241,"ĠMoore":7242,"Ġcompris":7243,"Ġsac":7244,"vements":7245,"Ġsupporting":7246,"hing":7247,"Over":7248,"stic":7249,"rav":7250,"unction":7251,"where":7252,"Ġ49":7253,"Ġrein":7254,"ĠPortugal":7255,"Ġabandoned":7256,"Ġwealth":7257,"Ġtemperature":7258,"pen":7259,"orage":7260,"tsburgh":7261,"Ġfunds":7262,"friend":7263,"ĠDick":7264,"ĠPalest":7265,"Ġbands":7266,"Ġdeploy":7267,"Ġmerged":7268,"ãĤ":7269,"Ġ400":7270,"uster":7271,"Ġstandards":7272,"Ġcastle":7273,"ĠAlan":7274,"ayan":7275,"ĠJordan":7276,"nergy":7277,"ĠSel":7278,"ÃŃn":7279,"Ã©t":7280,"long":7281,"ĠDC":7282,"found":7283,"Ġsand":7284,"onna":7285,"gal":7286,"Ġphase":7287,"top":7288,"--":7289,"ĠChall":7290,"Ġadap":7291,"ishops":7292,"ype":7293,"ĠHarris":7294,"Ġpartnership":7295,"ĠPhill":7296,"lem":7297,"Ġtall":7298,"ĠColomb":7299,"Ġwalls":7300,"Leg":7301,"Ġindependence":7302,"ĠKaz":7303,"Rober":7304,"obe":7305,"rene":7306,"ho":7307,"Ġ42":7308,"Ġencourag":7309,"eston":7310,"ĠVar":7311,"Ġ75":7312,"after":7313,"ĠMcG":7314,"ĠLegislative":7315,"Ġestablishment":7316,"Ġfleet":7317,"ĠStew":7318,"Ġplot":7319,"Ġconce":7320,"Ã³w":7321,"Ã«":7322,"Ste":7323,"while":7324,"Ġtownship":7325,"Ġdoing":7326,"ctic":7327,"Ġalleged":7328,"Ġarrang":7329,"Ġbrown":7330,"Ġreflect":7331,"usal":7332,"Ġsought":7333,"Ġextrem":7334,"Major":7335,"Ġtranslation":7336,"seud":7337,"ando":7338,"ĠKa":7339,"Ġcomic":7340,"ĠWho":7341,"ĠRoberts":7342,"Ġsolid":7343,"Ġscale":7344,"Ġimpr":7345,"%.":7346,"Ġchair":7347,"aved":7348,"Ġconnection":7349,"Ġcorner":7350,"Ðº":7351,"ĠGre":7352,"Ġrare":7353,"Ġescape":7354,"Rep":7355,"ĠCru":7356,"hard":7357,"orf":7358,"62":7359,"87":7360,"84":7361,"Ġengines":7362,"zer":7363,"ĠAdministration":7364,"ĠMicro":7365,"ĠPlace":7366,"Ġorders":7367,"ĠCow":7368,"ĠToday":7369,"Ġreign":7370,"rik":7371,"ĠBan":7372,"Ġvisual":7373,"isf":7374,"don":7375,"Ġincorporated":7376,"Ġlawyer":7377,"ourse":7378,"Ġmarg":7379,"Mich":7380,"irt":7381,"Ġentrance":7382,"Ġinvited":7383,"Ġpresidential":7384,"ĠLyn":7385,"Ġviolence":7386,"ĠMaur":7387,"Ġfranch":7388,"Tax":7389,"Ġinvolving":7390,"Ġpasses":7391,"Expatriate":7392,"Ġkick":7393,"ĠFern":7394,"Ġamb":7395,"Ġpione":7396,"1978":7397,"Ġregarding":7398,"aby":7399,"heastern":7400,"ĠFarm":7401,"Ġemphas":7402,"ĠMalaysia":7403,"chell":7404,"ĠSamuel":7405,"olt":7406,"Ġeffic":7407,"Ġpassing":7408,"lease":7409,"essed":7410,"enezuel":7411,"Ġdates":7412,"ĠGarden":7413,"Ġobjects":7414,"oviÄĩ":7415,"rama":7416,"Ġaged":7417,"fully":7418,"Ġcrow":7419,"ellows":7420,"Ġcontained":7421,"Transport":7422,"Ġinvestigation":7423,"Ġscheduled":7424,"ĠIslamic":7425,"Bel":7426,"Ġselection":7427,"Ġpoly":7428,"Ġfaced":7429,"Ġexpressed":7430,"Ġvice":7431,"Ġinaug":7432,"urday":7433,"Ġcarry":7434,"Ġemp":7435,"racy":7436,"ĠPa":7437,"Former":7438,"ĠFriend":7439,"Ġmand":7440,"Ġfresh":7441,"zi":7442,"finals":7443,"Ġpassenger":7444,"Although":7445,"83":7446,"Ġapplications":7447,"ĠClin":7448,"ĠThrough":7449,"'m":7450,"Ġdiam":7451,"porter":7452,"Ġpatients":7453,"idden":7454,"atabase":7455,"rane":7456,"Ġappoint":7457,"ĠFac":7458,"61":7459,"equ":7460,"Part":7461,"Ġtend":7462,"ĠBuddh":7463,"Ġcru":7464,"Ġformal":7465,"Ġchemical":7466,"Ġtrying":7467,"antine":7468,"ĠIndonesia":7469,"ĠBecause":7470,"apolis":7471,"Ġfinishing":7472,"Ġrise":7473,"otic":7474,"angel":7475,"las":7476,"Ġshape":7477,"apes":7478,"Ġinfluenced":7479,"net":7480,"Ġstarts":7481,"ĠRailroad":7482,"AN":7483,"atin":7484,"Ġdetails":7485,"ĠMiami":7486,"Play":7487,"ĠDave":7488,"Ġaid":7489,"ĠBefore":7490,"ĠMayor":7491,"nold":7492,"Ġsan":7493,"ĠDeb":7494,"Ġcollected":7495,"Ġadult":7496,"iner":7497,"spe":7498,"63":7499,"Ġcricketers":7500,"Ġheavily":7501,"1977":7502,"ĠOnly":7503,"Ġceremony":7504,"Ġportr":7505,"ĠPed":7506,"ĠIndependent":7507,"ners":7508,"ĠBrazilian":7509,"acc":7510,"Ġboat":7511,"Ġislands":7512,"ĠTamil":7513,"ĠSport":7514,"othing":7515,"ĠHistorical":7516,"David":7517,"eless":7518,"Ju":7519,"Ġethnic":7520,"ĠAM":7521,"Ġinhabitants":7522,"ivate":7523,"Ġproved":7524,"ahn":7525,"67":7526,"ĠStudios":7527,"ĠMem":7528,"ĠDyn":7529,"ĠHollywood":7530,"Ġtun":7531,"Ġanaly":7532,"Ġfram":7533,"Ġclin":7534,"lon":7535,"ĠHop":7536,"heel":7537,"hop":7538,"Ġvoted":7539,"Ġcausing":7540,"ĠAC":7541,"ĠLawrence":7542,"Ġviews":7543,"ĠWalker":7544,"Ġpull":7545,"Ġgar":7546,"Ġlaid":7547,"Ġpages":7548,"Ġtrav":7549,"rett":7550,"arsh":7551,"Ġdecades":7552,"Ġjunior":7553,"Ġwatch":7554,"Ġanimal":7555,"ĠNob":7556,"Ġrecordings":7557,"Ġpromote":7558,"ĠReserve":7559,"ĠArchitect":7560,"Ġmaintained":7561,"erved":7562,"Ġtor":7563,"Ġdecre":7564,"Ġ39":7565,"Ġprice":7566,"Ġadvent":7567,"Ġ1890":7568,"ĠDance":7569,"irds":7570,"value":7571,"1974":7572,"ĠLast":7573,"ĠPun":7574,"Ġresigned":7575,"Ġcriminal":7576,"ĠCall":7577,"haps":7578,"Ġtoward":7579,"ĠHarvard":7580,"ĠBuck":7581,"ĠMPs":7582,"Ġprotein":7583,"1975":7584,"rak":7585,"1976":7586,"Cent":7587,"ugar":7588,"olph":7589,"ĠFinland":7590,"ĠRugby":7591,"emen":7592,"Ġvo":7593,"Ġbehavior":7594,"east":7595,"father":7596,"anny":7597,"ĠMatthew":7598,"Ġscenes":7599,"Ġbodies":7600,"ĠRecord":7601,"ĠLam":7602,"ĠUtah":7603,"ĠBart":7604,"note":7605,"ĠGrant":7606,"Ġintroduction":7607,"Ġda":7608,"wen":7609,"Ġopin":7610,"ĠAndre":7611,"SI":7612,"Ġsoci":7613,"ED":7614,"Ġbelieve":7615,"inter":7616,"nia":7617,"sort":7618,"ĠHug":7619,"Ġlimit":7620,"Ġtrained":7621,"ĠMcK":7622,"ĠFil":7623,"Ġprotest":7624,"ĠGlobal":7625,"ĠWebsite":7626,"RC":7627,"Ġment":7628,"Bar":7629,"Ġbirds":7630,"Ġinjured":7631,"81":7632,"lete":7633,"Ġpainters":7634,"Europe":7635,"Ġweather":7636,"Ġdynasty":7637,"ĠPeters":7638,"Ġhired":7639,"Ġlicens":7640,"ĠEnvironment":7641,"oni":7642,"emble":7643,"Ġimportance":7644,"ĠMontreal":7645,"poses":7646,"ĠRace":7647,"Ġinstalled":7648,"urray":7649,"Ġimprove":7650,"ĠFall":7651,"Ġinher":7652,"Ġproducing":7653,"ĠIron":7654,"Ġcauses":7655,"argo":7656,"amic":7657,"atellite":7658,"Ġnick":7659,"Ġhair":7660,"Ġconsisting":7661,"Ġstrike":7662,"Ġpublications":7663,"ĠDeath":7664,"Ġreality":7665,"Ġimages":7666,"ivalent":7667,"Ġemployees":7668,"intend":7669,"Ġheard":7670,"ĠThen":7671,"igenous":7672,"oche":7673,"Ġspecifically":7674,"Ġengaged":7675,"ĠFal":7676,"Ġanth":7677,"ĠRights":7678,"sect":7679,"ĠDeputy":7680,"Ġrequest":7681,"Ġfoundation":7682,"James":7683,"Sub":7684,"Scott":7685,"Ġcomposers":7686,"bb":7687,"Ġideas":7688,"ĠSud":7689,"Ġstating":7690,"ĠRow":7691,"Histor":7692,"ĠAlexand":7693,"ĠBoys":7694,"Ġhomes":7695,"ĠAdvent":7696,"ĠLang":7697,"Ġquite":7698,"inae":7699,"including":7700,"Ġtechniques":7701,"Ġiniti":7702,"Ġvolunte":7703,"ĠTig":7704,"ser":7705,"eta":7706,"itionally":7707,"ĠWelsh":7708,"ĠAustrian":7709,"Ġgradu":7710,"1950":7711,"atherine":7712,"ĠEarly":7713,"clusion":7714,"ĠAfghan":7715,"Ġtwelve":7716,"ussion":7717,"Russian":7718,"fecture":7719,"ĠMountains":7720,"then":7721,"ithuan":7722,"orus":7723,"Ġdescribes":7724,"ĠChampion":7725,"ĠPublishing":7726,"ÅŁ":7727,"Ġexped":7728,"1972":7729,"Ġreaching":7730,"ĠTreat":7731,"ĠProte":7732,"Ġcompilation":7733,"Ġbishop":7734,"Ġwarn":7735,"Ġcorpor":7736,"ĠSingh":7737,"Ġsynthe":7738,"Ġentirely":7739,"boards":7740,"Ġvalues":7741,"Ã©n":7742,"FM":7743,"zo":7744,"Ġchoice":7745,"Ġcompete":7746,"ester":7747,"idel":7748,"ailand":7749,"Ġacid":7750,"thm":7751,"ugoslav":7752,"ĠPlayer":7753,"Ġcopy":7754,"Cal":7755,"Ġobserved":7756,"rm":7757,"ĠOriginal":7758,"1973":7759,"Ġthrow":7760,"Ġselect":7761,"ĠGa":7762,"Ġ1906":7763,"inking":7764,"ĠSn":7765,"cons":7766,"ĠRick":7767,"Ġ1905":7768,"Ġ(),":7769,"ĠHungary":7770,"Ġgraduate":7771,"ĠKings":7772,"ampton":7773,"ĠKy":7774,"Ġshall":7775,"Ġregistered":7776,"ige":7777,"ĠWhat":7778,"aire":7779,"Ġtranslated":7780,"Ġusers":7781,"Ġsignal":7782,"ĠRyan":7783,"mat":7784,"ĪĴ":7785,"pective":7786,"Ġ1909":7787,"Ġskills":7788,"Ġbudget":7789,"Ġedge":7790,"inea":7791,"ĠLiver":7792,"ĠHampshire":7793,"Ġadvoc":7794,"Ġanimated":7795,"ET":7796,"Ġsteam":7797,"ãģ":7798,"Ġnegative":7799,"Ġvide":7800,"fficient":7801,"Ġsuperv":7802,"Ġclosely":7803,"ĠAtlanta":7804,"Ġreserve":7805,"Ġconstituency":7806,"Ġrevolution":7807,"Ġexperien":7808,"ĠMetropolitan":7809,"star":7810,"ĠOblast":7811,"Family":7812,"Ġagency":7813,"Sch":7814,"Ġactual":7815,"Ġlat":7816,"oda":7817,"Ġstatement":7818,"Ġ1907":7819,"Ġmart":7820,"Ġarmed":7821,"Ġstrength":7822,"Ġped":7823,"ĠBull":7824,"owned":7825,"Ġsymbol":7826,"Ġshell":7827,"ĠLog":7828,"urring":7829,"High":7830,"ĠPrad":7831,"entially":7832,"Black":7833,"ĠPalace":7834,"Ġflu":7835,"eton":7836,"Ġargued":7837,"rons":7838,"Ġsale":7839,"Ġreally":7840,"Ġille":7841,"Ġopportunity":7842,"ĠAlfred":7843,"Works":7844,"Nor":7845,"ĠPeace":7846,"ĠOrthodox":7847,"Moths":7848,"ĠAnna":7849,"LC":7850,"iac":7851,"Ġcourses":7852,"ashi":7853,"Ġdevice":7854,"Ġuncle":7855,"uh":7856,"uda":7857,"ĠJohann":7858,"ĠKevin":7859,"ĠPas":7860,"March":7861,"iler":7862,"ĠBanglades":7863,"ĠDean":7864,"Ġtropical":7865,"ĠDead":7866,"inian":7867,"August":7868,"ĠHungarian":7869,"Ġexerc":7870,"icit":7871,"Ġax":7872,"Ġelectronic":7873,"ĠShah":7874,"Ġconvent":7875,"ĠEven":7876,"Ġ;":7877,"Ġimproved":7878,"ĠNav":7879,"Ġproced":7880,"eget":7881,"dy":7882,"Most":7883,"aman":7884,"Ġresistance":7885,"Ġrailroad":7886,"Ġdoor":7887,"ĠBasketball":7888,"yers":7889,"ĠMargaret":7890,"pers":7891,"Football":7892,"ĠGirls":7893,"Ġban":7894,"ĠMorgan":7895,"ĠRub":7896,"do":7897,"ĠJess":7898,"ĠMission":7899,"Star":7900,"Ġleads":7901,"mingham":7902,"Bra":7903,"leyball":7904,"Ġcore":7905,"Ġflat":7906,"anned":7907,"Ġconcluded":7908,"ĠCleveland":7909,"eness":7910,"Ġbacking":7911,"onds":7912,"level":7913,"ĠAssoci":7914,"Ġgain":7915,"itals":7916,"ĠDefense":7917,"mary":7918,"Ġjoining":7919,"Ġans":7920,"Ġcosts":7921,"Ġbriefly":7922,"Ġnortheast":7923,"ĠCommunist":7924,"ĠLaur":7925,"ĠCulture":7926,"Ġdivers":7927,"Ġedited":7928,"San":7929,"AD":7930,"Ġflying":7931,"ĠCEO":7932,"Ġprize":7933,"essions":7934,"ĠJosÃ©":7935,"aked":7936,"Video":7937,"ĠVienna":7938,"ĠDonald":7939,"insula":7940,"rastructure":7941,"leased":7942,"gow":7943,"Ġrob":7944,"ĠRio":7945,"Ġinterests":7946,"Ġuniversities":7947,"Ġnom":7948,"ĠFurther":7949,"ushed":7950,"ĠHom":7951,"ovo":7952,"Ġhttp":7953,"Ġarchae":7954,"1971":7955,"ĠRoger":7956,"Ġexact":7957,"Ġroads":7958,"Ġextension":7959,"Pre":7960,"69":7961,"Ġreduce":7962,"Ġseems":7963,"Ġapart":7964,"ĠWrest":7965,"Ġresidence":7966,"onder":7967,"Ġaccompan":7968,"Ġphilosophy":7969,"odge":7970,"asa":7971,"Ġruled":7972,"Ġregarded":7973,"ĠRussell":7974,"ĠDisney":7975,"Town":7976,"ĠRomania":7977,"Ġpossibly":7978,"Ġaffected":7979,"Ġcontrolled":7980,"Ġinform":7981,"Ġfactory":7982,"ĠCrown":7983,"umin":7984,"Dr":7985,"ĠKnight":7986,"ĠBruce":7987,"term":7988,"ÅĦ":7989,"Ġpros":7990,"Group":7991,"ĠBrothers":7992,"uki":7993,"Ġupd":7994,"Ġhumans":7995,"ĠPear":7996,"Ġcomposition":7997,"ĠCarn":7998,"ĠChamber":7999,"ĠWard":8000,"bal":8001,"ĠOttoman":8002,"Ġinvasion":8003,"EP":8004,"Ġcommune":8005,"Ġoperate":8006,"Ġgetting":8007,"Ġattra":8008,"BI":8009,"Ġmist":8010,"ĠBaltimore":8011,"Ġdistributed":8012,"overty":8013,"ĠNeb":8014,"1968":8015,"Ġbelief":8016,"cyclop":8017,"Ġagricultural":8018,"Rel":8019,"Ġpremiered":8020,"Ġsubstant":8021,"lay":8022,"ĠGran":8023,"itable":8024,"Ġ1904":8025,"Ġitems":8026,"ultan":8027,"ĠMetro":8028,"Ġadapted":8029,"Ġinterior":8030,"Ġ41":8031,"Ġgets":8032,"Ġsinging":8033,"inners":8034,"Ġsurg":8035,"Ġparticipate":8036,"Ġgreatest":8037,"ĠPur":8038,"ĠComics":8039,"icate":8040,"Ġeasily":8041,"Paul":8042,"ĠFel":8043,"Ġzone":8044,"ogether":8045,"ĠSee":8046,"Ġdocuments":8047,"cia":8048,"ĠSeattle":8049,"tered":8050,"Ġseconds":8051,"Ġdeleg":8052,"amples":8053,"ĠSac":8054,"ctors":8055,"ĠHorn":8056,"Ġfeed":8057,"low":8058,"avalry":8059,"Ġbatter":8060,"Political":8061,"pha":8062,"Ġproducers":8063,"Ġdivisions":8064,"oca":8065,"bassador":8066,"Ġdie":8067,"Ġcateg":8068,"Ġvenues":8069,"onomy":8070,"omas":8071,"Ġcommitted":8072,"Ġ1880":8073,"amo":8074,"MP":8075,"ĠAgency":8076,"ĠLl":8077,"olly":8078,"ĠNort":8079,"etime":8080,"Ġmarine":8081,"Ġwaters":8082,"Ġstrip":8083,"utation":8084,"ĠKelly":8085,"Ġfine":8086,"bach":8087,"Orig":8088,"Ġfly":8089,"lie":8090,"ĠMes":8091,"aska":8092,"hab":8093,"ĠColonel":8094,"Ġaer":8095,"1969":8096,"Ãł":8097,"ĠCre":8098,"ĠMedicine":8099,"ht":8100,"Ġchose":8101,"Ġconsequ":8102,"á»":8103,"Ġfavour":8104,"Ġemot":8105,"ĠMaine":8106,"ĠHere":8107,"ĠStewart":8108,"Ġgarden":8109,"Ġpriest":8110,"going":8111,"ĠNAS":8112,"Ġmoment":8113,"coming":8114,"Mal":8115,"election":8116,"cht":8117,"ucks":8118,"Ġcombination":8119,"Ġadjacent":8120,"Ġfear":8121,"ĠGlas":8122,"ĠFried":8123,"ĠBush":8124,"Ġstores":8125,"osm":8126,"Ġintelligence":8127,"Ġclean":8128,"cious":8129,"bishop":8130,"Ġearliest":8131,"Ġones":8132,"Ġsurvived":8133,"Des":8134,"Ġparallel":8135,"Ġsections":8136,"Rich":8137,"ĠSaf":8138,"Ġcorrect":8139,"Ġchain":8140,"TS":8141,"ĠKennedy":8142,"aughters":8143,"Ġgrounds":8144,"Ġhour":8145,"ĠRy":8146,"Ġbroken":8147,"http":8148,"Ġcrown":8149,"exual":8150,"Ġnaval":8151,"ĠAdams":8152,"|}":8153,"Ġcontributions":8154,"IP":8155,"Ġmedium":8156,"Ġexamples":8157,"ĠChen":8158,"Ġterror":8159,"ĠBuff":8160,"Ġpassengers":8161,"Ġalt":8162,"Ġcollaboration":8163,"Ã¶r":8164,"coh":8165,"If":8166,"iggest":8167,"ocracy":8168,"yles":8169,"oba":8170,"Medal":8171,"ĠRand":8172,"ĠEnergy":8173,"aware":8174,"Ġere":8175,"ĠLanka":8176,"Ġsecretary":8177,"asts":8178,"Ġstanding":8179,"Ġwitness":8180,"ci":8181,"ĠLet":8182,"ĠCrit":8183,"ĠGri":8184,"Ġaccused":8185,"white":8186,"Ġsole":8187,"ĠCampbell":8188,"Ġseventh":8189,"ĠPrincess":8190,"Ġrepeated":8191,"ĠOpera":8192,"ĠBed":8193,"ferred":8194,"orses":8195,"estyle":8196,"Ġmilit":8197,"ovation":8198,"Ġpraised":8199,"Ġnorthwest":8200,"ĠBomb":8201,"Ġopposite":8202,"Ġuser":8203,"Ġ1901":8204,"Ġancest":8205,"Ġsequence":8206,"ĠABC":8207,"Ġsession":8208,"Ġstands":8209,"ĠDakota":8210,"ĠAgric":8211,"Ġ1903":8212,"wall":8213,"ĠJose":8214,"Ġbottom":8215,"ĠSenator":8216,"Ġadvantage":8217,"Ġtries":8218,"ĠLib":8219,"George":8220,"Second":8221,"orkshire":8222,"ĠPittsburgh":8223,"merce":8224,"Ġheat":8225,"ĠSchools":8226,"Ġtank":8227,"Ġgoods":8228,"Ġregularly":8229,"Ġfaith":8230,"Ġathletes":8231,"ographics":8232,"ĠEver":8233,"ĠMarket":8234,"Ġrating":8235,"ĠPsych":8236,"ĠNatural":8237,"Ġgrant":8238,"Ġcalling":8239,"Ġdesigns":8240,"Ġski":8241,"DP":8242,"Ġmort":8243,"ĠChem":8244,"Spanish":8245,"EFA":8246,"song":8247,"ĠMarie":8248,"ĠSax":8249,"Ġtrip":8250,"ĠDue":8251,"Ġsell":8252,"ĠNelson":8253,"Ġsuburb":8254,"You":8255,"atures":8256,"vant":8257,"rang":8258,"Robert":8259,"load":8260,"Ġpersons":8261,"Ġmotion":8262,"anch":8263,"Ġphotograph":8264,"ĠAgain":8265,"ouver":8266,"resents":8267,"ranean":8268,"Ġdry":8269,"Ġshowing":8270,"ĠThailand":8271,"Production":8272,"Ev":8273,"Ġdrawn":8274,"ĠCentury":8275,"etry":8276,"Ġreaction":8277,"Writ":8278,"ĠNorman":8279,"ĠGuide":8280,"ĠInvest":8281,"ĠVenezuel":8282,"ĠRain":8283,"ĠThompson":8284,"June":8285,"Ġham":8286,"Ġoperates":8287,"Ġhits":8288,"ĠConstitution":8289,"Ġ1902":8290,"ĠFive":8291,"Ġcharges":8292,"ĠLocal":8293,"ĠGulf":8294,"ommod":8295,"ĠOm":8296,"Alumni":8297,"Ã¨re":8298,"Ġsave":8299,"ĠFight":8300,"Ġenl":8301,"ĠPad":8302,"aptist":8303,"ĠAustin":8304,"Ġ43":8305,"ĠRot":8306,"ifer":8307,"Crit":8308,"Ġsynd":8309,"Ġdoll":8310,"wright":8311,"hai":8312,"cient":8313,"Ġregiment":8314,"Ġahead":8315,"GBT":8316,"Ġcommunication":8317,"ilk":8318,"Ġduty":8319,"ĠHell":8320,"ĠPC":8321,"Ġowners":8322,"ĠVolume":8323,"Ġcycle":8324,"Ġcapture":8325,"Inter":8326,"ĠRud":8327,"Ġdies":8328,"isode":8329,"Ġcourts":8330,"sson":8331,"Ġworth":8332,"ĠAlliance":8333,"ĠWright":8334,"leans":8335,"Ġrivers":8336,"dr":8337,"abled":8338,"Ġwhy":8339,"hibition":8340,"Ġlists":8341,"Im":8342,"Ġveter":8343,"ĠVik":8344,"Ġtypical":8345,"Ġastron":8346,"ĉĊ":8347,"Ġlink":8348,"ĠYears":8349,"Ġfactors":8350,"Ġboys":8351,"Gl":8352,"Ġ52":8353,"pir":8354,"Out":8355,"April":8356,"orer":8357,"inch":8358,"asure":8359,"ĠLiverpool":8360,"Ġdidn":8361,"Ġsomew":8362,"DA":8363,"Ġbusinesses":8364,"Ġhill":8365,"attan":8366,"orrow":8367,"1967":8368,"ĠFranklin":8369,"SO":8370,"roke":8371,"utions":8372,"Ġmolec":8373,"ĠWing":8374,"Ġrich":8375,"bridge":8376,"Ġgenera":8377,"ĠOur":8378,"ĠCamer":8379,"Ġdefensive":8380,"Ġattached":8381,"Ġdebuted":8382,"ĠSeason":8383,"ĠCathedral":8384,"iah":8385,"ĠEnt":8386,"Ġfreedom":8387,"ĠCarter":8388,"Ġcolonial":8389,"Ġwings":8390,"Ġisol":8391,"ĠKit":8392,"million":8393,"'re":8394,"Ġdismiss":8395,"agg":8396,"ĠCollection":8397,"illo":8398,"Ġpurchase":8399,"ĠDallas":8400,"ĠLane":8401,"Albums":8402,"ĠBase":8403,"kee":8404,"ĠRico":8405,"Ġcommit":8406,"Ġprint":8407,"Ġbrain":8408,"ĠBroadcast":8409,"Ġdelivered":8410,"Ġscientists":8411,"ĠAthletic":8412,"Ġdamaged":8413,"ĠUkrainian":8414,"ĠCricket":8415,"ĠJimmy":8416,"ĠPatri":8417,"Ġroutes":8418,"Ġrepresents":8419,"ĠBetween":8420,"ĠKo":8421,"via":8422,"Ġnor":8423,"profit":8424,"ĠHend":8425,"Ġmedicine":8426,"ĠConvention":8427,"Ġlegend":8428,"Ġ55":8429,"Ġteachers":8430,"ĠRobinson":8431,"amps":8432,"Ġrefuge":8433,"Ġstreets":8434,"ĠChristopher":8435,"Ġretail":8436,"ĠTraining":8437,"ĠMethod":8438,"iop":8439,"ĠCooper":8440,"rating":8441,"Ġstages":8442,"Ġlegislation":8443,"Ġdescription":8444,"ĠNep":8445,"annels":8446,"July":8447,"ĠDom":8448,"Ġfest":8449,"Ġnickn":8450,"erbai":8451,"Ġsubmar":8452,"ĠThus":8453,"ĠOri":8454,"anian":8455,"egas":8456,"Ġ46":8457,"Ġ47":8458,"Ġ150":8459,"operation":8460,"Ġpublishing":8461,"Ġresidential":8462,"ĠScient":8463,"%,":8464,"othes":8465,"din":8466,"alia":8467,"Ġguitarist":8468,"Personnel":8469,"ĠMorris":8470,"eenth":8471,"Ġlooking":8472,"Ġfan":8473,"Ġdevices":8474,"ĠJudge":8475,"Ġinstruments":8476,"rapy":8477,"ĠKan":8478,"Ġdecade":8479,"Ġinvestment":8480,"ĠBernard":8481,"ĠOrleans":8482,"uis":8483,"October":8484,"ĠDub":8485,"Ġdetermine":8486,"Ġclassification":8487,"ĠYorkshire":8488,"sch":8489,"Ġdrivers":8490,"ĠNash":8491,"pat":8492,"Ġmeasures":8493,"Ġdegrees":8494,"ĠSaturday":8495,"ocratic":8496,"Ġmyth":8497,"Ġnothing":8498,"Ġdemand":8499,"Ġfranchise":8500,"Ġuniform":8501,"Ġreturns":8502,"ĠLower":8503,"Ġdepend":8504,"Ġdesigner":8505,"ĠSecret":8506,"Ġclimb":8507,"ture":8508,"Ġcircum":8509,"ĠUC":8510,"Ġinterpret":8511,"ĠFIFA":8512,"Ġmagazines":8513,"Profess":8514,"ĠWol":8515,"ĠPir":8516,"ĠFr":8517,"acon":8518,"Ġselling":8519,"September":8520,"1945":8521,"rix":8522,"ĠConservative":8523,"ĠNord":8524,"Ġcharged":8525,"ĠRap":8526,"Ġrooms":8527,"Ġanniversary":8528,"who":8529,"EN":8530,"Ġnotably":8531,"Ġrejected":8532,"quest":8533,"Ġpurposes":8534,"Ġmine":8535,"ĠAuthority":8536,"ilst":8537,"Ġshooting":8538,"Ġreception":8539,"Ġresign":8540,"Ġaccommod":8541,"ducational":8542,"ĠOperation":8543,"GA":8544,"opal":8545,"iere":8546,"Min":8547,"host":8548,"Ġwounded":8549,"ĠBilly":8550,"ĠMaj":8551,"ĠVerm":8552,"ĠDaily":8553,"Ġshut":8554,"Afric":8555,"ĠBrooklyn":8556,"Ġaccur":8557,"ĠBirmingham":8558,"Ġfactor":8559,"ĠLeban":8560,"yll":8561,"ĠVic":8562,"Ġcredited":8563,"ĠEmer":8564,"ĠSoccer":8565,"ĠSarah":8566,"cussion":8567,"ĠElementary":8568,"Ġpool":8569,"ĠMurray":8570,"ĠStanley":8571,"Ġdifference":8572,"ĠVideo":8573,"1965":8574,"mund":8575,"enberg":8576,"ĠMarshall":8577,"ĠCole":8578,"pie":8579,"formance":8580,"ifle":8581,"School":8582,"Ġkid":8583,"Ġdriving":8584,"Ġtail":8585,"1966":8586,"Mc":8587,"Ġdoub":8588,"EA":8589,"endment":8590,"1940":8591,"Ġbed":8592,"Two":8593,"ogle":8594,"Ġmoth":8595,"Ġreferences":8596,"ĠWoman":8597,"door":8598,"Ġadmitted":8599,"ĠGon":8600,"ĠPy":8601,"Ġpainted":8602,"lig":8603,"jamin":8604,"Ġflo":8605,"Ġsoutheast":8606,"ĠGraham":8607,"ĠVers":8608,"Ġstarred":8609,"Ġcontext":8610,"PC":8611,"Ġmus":8612,"ivated":8613,"ĠMunicipality":8614,"Ġsun":8615,"Ġgang":8616,"Ġequivalent":8617,"ocol":8618,"master":8619,"ĠCass":8620,"Ġjump":8621,"ĠTrade":8622,"Ġcolleges":8623,"oka":8624,"1964":8625,"ĠWa":8626,"bat":8627,"power":8628,"person":8629,"Ġpenal":8630,"Ġimprison":8631,"Ġinvent":8632,"Ġmobile":8633,"iterranean":8634,"ĠChand":8635,"onstruction":8636,"Ġrestored":8637,"Ġarranged":8638,"ĠMort":8639,"ĠAqu":8640,"edding":8641,"Ġfinals":8642,"HS":8643,"plete":8644,"Ġmemorial":8645,"ishers":8646,"ĠDigital":8647,"sea":8648,"inding":8649,"mphony":8650,"ĠUpper":8651,"race":8652,"Ġprisoners":8653,"ĠHit":8654,"Ġsuff":8655,"Ġassistance":8656,"ĠSeveral":8657,"Ġpian":8658,"onian":8659,"inces":8660,"otal":8661,"ancouver":8662,"Discography":8663,"icket":8664,"Mount":8665,"iph":8666,"Ġturns":8667,"ĠMovement":8668,"Ġhun":8669,"lock":8670,"ĠFA":8671,"Ġcaught":8672,"tery":8673,"ĠMadrid":8674,"ĠVoiv":8675,"Ġsouthwest":8676,"Ġprovincial":8677,"roc":8678,"ulus":8679,"Ġunderstanding":8680,"ĠBlues":8681,"Ġreleg":8682,"vi":8683,"Ġtur":8684,"Ġeye":8685,"Ġcarrying":8686,"arus":8687,"ĠYugoslav":8688,"Ġretained":8689,"Ġmanusc":8690,"ects":8691,"Ġelement":8692,"Ġchance":8693,"isd":8694,"ĠEconomic":8695,"Ġjudges":8696,"Ġchallenge":8697,"Ġ51":8698,"asi":8699,"Ġmining":8700,"ĠBangladesh":8701,"ĠThough":8702,"Ġ1898":8703,"ĠFace":8704,"ĠPrefecture":8705,"ĠAngl":8706,"Ġegg":8707,"Ġphen":8708,"ĠFather":8709,"Ġappropri":8710,"ĠCarlos":8711,"Ġcollections":8712,"Ġ1870":8713,"Ġsort":8714,"Ġstood":8715,"atters":8716,"olia":8717,"ĠBud":8718,"eo":8719,"phone":8720,"ĠJazz":8721,"Ġwave":8722,"Ġsed":8723,"Ġbran":8724,"ector":8725,"tenance":8726,"ĠEvery":8727,"icial":8728,"Ġfictional":8729,"Ġvictims":8730,"Ġvideos":8731,"tha":8732,"Ġpolicies":8733,"Ġcomed":8734,"Ġbiggest":8735,"Ġteen":8736,"ĠGuy":8737,"Ġunus":8738,"Ġassumed":8739,"Ġkilomet":8740,"Ġdating":8741,"Ġpreced":8742,"Ġexpression":8743,"err":8744,"ĠAthletics":8745,"Ġaccompanied":8746,"ibbean":8747,"ĠTrophy":8748,"Ġnewspapers":8749,"ĠTak":8750,"ĠSupport":8751,"iche":8752,"iency":8753,"away":8754,"Ġhur":8755,"orial":8756,"ĠHum":8757,"Å¾":8758,"ĠMond":8759,"Ġstorage":8760,"usalem":8761,"riel":8762,"Ġdog":8763,"Ġinfl":8764,"League":8765,"Ġcrisis":8766,"Ġheaded":8767,"ĠAy":8768,"Ġcarbon":8769,"Ġgrass":8770,"mod":8771,"Ġincorpor":8772,"Ġdefeating":8773,"Ġexplos":8774,"Ġduties":8775,"Ġbusinessman":8776,"Ġinstitution":8777,"ĠGill":8778,"ĠLud":8779,"Ġracial":8780,"Ġresponsibility":8781,"Ġtack":8782,"Ġbrig":8783,"Ġtesting":8784,"raska":8785,"Ġjourney":8786,"ĠMichel":8787,"ellect":8788,"ĠNad":8789,"etta":8790,"Ġotherwise":8791,"January":8792,"ĠPortland":8793,"ĠLov":8794,"odeship":8795,"Ġextremely":8796,"leton":8797,"Ġsubjects":8798,"Ġseparated":8799,"ĠDJ":8800,"Ġtheater":8801,"ĠMess":8802,"Ġ*":8803,"ĠEvans":8804,"Ġliqu":8805,"Ġmembership":8806,"Ġpoverty":8807,"itime":8808,"Ġmouth":8809,"ÃŁ":8810,"ĠChart":8811,"Ġaspects":8812,"owski":8813,"Ġaf":8814,"ĠJohnny":8815,"ĠCarm":8816,"ĠNova":8817,"Ġign":8818,"Ġminute":8819,"Ġpicture":8820,"Ġviolin":8821,"Ang":8822,"ÈĻ":8823,"ĠPictures":8824,"Ġmeters":8825,"Ġprepared":8826,"Jew":8827,"Ġbrick":8828,"Ð»":8829,"ingham":8830,"Ġknock":8831,"Ġthick":8832,"Ġvary":8833,"ĠSongs":8834,"enburg":8835,"Ġlearned":8836,"Ġfired":8837,"ĠWrestling":8838,"Ġexecuted":8839,"Ġexperienced":8840,"Ġrhy":8841,"Ġinsc":8842,"Ġstopped":8843,"Ġprotected":8844,"ĠBox":8845,"Ġpoem":8846,"Ġcous":8847,"Ġrequirements":8848,"ĠConfeder":8849,"Donald":8850,"heme":8851,"ĠDefence":8852,"gressive":8853,"ĠDelhi":8854,"Ġfra":8855,"Ġrenew":8856,"ĠBorough":8857,"ĠVoivodeship":8858,"Ġshel":8859,"Ġbat":8860,"ĠNon":8861,"ttps":8862,"ĠOnce":8863,"ĠImp":8864,"aments":8865,"December":8866,"iri":8867,"ĠGlasgow":8868,"ĠArena":8869,"Ġsignificantly":8870,"ĠAT":8871,"ĠKu":8872,"Ġorganisation":8873,"ĠPradesh":8874,"ancell":8875,"avan":8876,"inations":8877,"ĠAnti":8878,"Ġutil":8879,"ĠCapital":8880,"Ġcolour":8881,"ĠNet":8882,"Ġ1899":8883,"ĠGary":8884,"Ġclassic":8885,"Ġweekly":8886,"ĠMotor":8887,"Ġpoets":8888,"ĠBroadway":8889,"Ġagencies":8890,"ĠCook":8891,"ristol":8892,"iege":8893,"ĠNazi":8894,"ĠMack":8895,"fare":8896,"ĠFact":8897,"Ġneighbour":8898,"Ġlanding":8899,"RS":8900,"ĠTower":8901,"isations":8902,"Ġcoverage":8903,"Ġsevere":8904,"Ġfemin":8905,"nik":8906,"ĠParish":8907,"Ġarrival":8908,"ĠGib":8909,"Ġunsuccess":8910,"Ġrates":8911,"Demographics":8912,"Ġsuggests":8913,"Ġfixed":8914,"Ġdim":8915,"Ġbanks":8916,"ĠTheater":8917,"Bur":8918,"ĠSi":8919,"otan":8920,"Ġsportspeople":8921,"Ġcoastal":8922,"ĠIndians":8923,"ario":8924,"ML":8925,"Ġaudio":8926,"Ġaccompl":8927,"Ġlocality":8928,"Ġhabitat":8929,"urers":8930,"atern":8931,"fiction":8932,"ĠRest":8933,"ĠFood":8934,"ĠIvan":8935,"Ġcriticized":8936,"ĠTob":8937,"ĠHawaii":8938,"mosp":8939,"ielder":8940,"Ġoffensive":8941,"oked":8942,"ĠAld":8943,"Ġheritage":8944,"ĠAssistant":8945,"ulu":8946,"Ġthousands":8947,"ĠEqu":8948,"ecution":8949,"Ġinterested":8950,"Ġmedieval":8951,"ĠGet":8952,"Ġchannels":8953,"Mod":8954,"emale":8955,"Ġcards":8956,"Ãª":8957,"ĠLimited":8958,"ĠGuinea":8959,"ĠWayne":8960,"ĠSerge":8961,"ĠSign":8962,"ĠShip":8963,"umar":8964,"Ġevolution":8965,"ĠTrad":8966,"ĠNam":8967,"Later":8968,"Ġbit":8969,"Ġvessels":8970,"Ġwindow":8971,"Ġcoordin":8972,"Ġdisappe":8973,"ĠLithuan":8974,"ashed":8975,"Ġveget":8976,"final":8977,"ĠHas":8978,"Ġtechnique":8979,"ĠProm":8980,"Ġensure":8981,"ricane":8982,"Ġgender":8983,"astrop":8984,"1930":8985,"ders":8986,"enson":8987,"ĠPhot":8988,"End":8989,"Ġhosts":8990,"xts":8991,"Ġpopularity":8992,"Ġactivist":8993,"jab":8994,"ĠHold":8995,"astery":8996,"Ġsuccessor":8997,"Ġcrowd":8998,"ĠNi":8999,"arma":9000,"Ġplane":9001,"enses":9002,"Ġpractices":9003,"Ġrecept":9004,"ĠUpon":9005,"Ġdescend":9006,"Ġtask":9007,"athy":9008,"Ġwheel":9009,"November":9010,"oga":9011,"Ġprocesses":9012,"Ag":9013,"Ġmanufacturing":9014,"Ġexpert":9015,"rov":9016,"Ġcheck":9017,"ĠBelgian":9018,"Ġcold":9019,"Ġdifferences":9020,"1963":9021,"istical":9022,"ductions":9023,"ĠCultural":9024,"ĠUnit":9025,"BM":9026,"Ġdivor":9027,"Red":9028,"Top":9029,"Ġqualifying":9030,"Ġcrossing":9031,"Ġcovering":9032,"Ġquestions":9033,"erk":9034,"Ġcomponents":9035,"Ġstruck":9036,"Ġcriticism":9037,"Ġownership":9038,"ĠStars":9039,"Sim":9040,"ĠSerbia":9041,"Ġfalls":9042,"ĠMap":9043,"claimed":9044,"Ġrestaurant":9045,"Ġassault":9046,"Î±":9047,"Ġrelative":9048,"Ġru":9049,"Ġvert":9050,"soft":9051,"eria":9052,"ĠSC":9053,"Ġlinked":9054,"Ġ1895":9055,"Ġnote":9056,"Ġconcerns":9057,"ĠJason":9058,"ĠEdition":9059,"iko":9060,"ĠWindows":9061,"eed":9062,"Ã¼n":9063,"1962":9064,"ĠMilan":9065,"ĠDh":9066,"Ġ1896":9067,"ĠAlaska":9068,"Ġrequires":9069,"Air":9070,"Ġlov":9071,"ĠPierre":9072,"ĠBaker":9073,"ĠRena":9074,"chang":9075,"Ġcapable":9076,"Ġ1897":9077,"urrently":9078,"kov":9079,"Ġchampionships":9080,"Ġwindows":9081,"ĠNever":9082,"oustic":9083,"ĠMall":9084,"Ġcup":9085,"ĠNBA":9086,"Ġjournalists":9087,"ĠBeg":9088,"oenix":9089,"Ġheads":9090,"Ġperhaps":9091,"Male":9092,"Ġfrag":9093,"ĠBarry":9094,"Ġsolution":9095,"lett":9096,"Ġframe":9097,"Ġpapers":9098,"ĠWarren":9099,"ĠGray":9100,"Ġcited":9101,"card":9102,"ĠFrid":9103,"ĠFinnish":9104,"Ġorchestra":9105,"Ġdepos":9106,"Ġcounties":9107,"iya":9108,"hus":9109,"ĠPage":9110,"ĠMother":9111,"ls":9112,"Ġgene":9113,"Season":9114,"Ġreplacement":9115,"othy":9116,"Ġflows":9117,"Che":9118,"Ġauthors":9119,"ĠMong":9120,"ĠNeg":9121,"writers":9122,"Lou":9123,"istribution":9124,"Ġassess":9125,"ĠIan":9126,"ĠJerusalem":9127,"Ġstret":9128,"ĠRac":9129,"ĠPrincip":9130,"Ġago":9131,"ĠAlberta":9132,"ĠTigers":9133,"Ġsuicide":9134,"orst":9135,"Ġseed":9136,"ĠSingles":9137,"ĠBenn":9138,"ĠOrganization":9139,"Ġeyes":9140,"icon":9141,"Ġscheme":9142,"Ġclassified":9143,"ĠMitchell":9144,"Ġfile":9145,"ivan":9146,"uka":9147,"Ġplus":9148,"iary":9149,"Ġcommemor":9150,"Ġweak":9151,"hand":9152,"ĠML":9153,"hattan":9154,"UN":9155,"ĠRAF":9156,"Ġdiagn":9157,"otype":9158,"Ġjustice":9159,"ĠFalls":9160,"apping":9161,"Bus":9162,"European":9163,"Post":9164,"Ġhip":9165,"estone":9166,"ĠVictorian":9167,"ĠRichmond":9168,"Michael":9169,"ĠBurg":9170,"ĠBible":9171,"ĠMind":9172,"Ġrepair":9173,"Ġadvis":9174,"Ġoccupation":9175,"East":9176,"commun":9177,"ente":9178,"uzz":9179,"MC":9180,"ĠFleet":9181,"ĠNevada":9182,"Ġsquadron":9183,"aste":9184,"ĠLanguage":9185,"Ġmunicipalities":9186,"Ġsnow":9187,"ushing":9188,"ĠCher":9189,"ilia":9190,"Ġrunner":9191,"ĠNation":9192,"ivia":9193,"ĠConn":9194,"Ġcredit":9195,"ĠChallenge":9196,"Ġevening":9197,"amer":9198,"ĠFine":9199,"oria":9200,"Ġeval":9201,"Ġprime":9202,"Ġdaughters":9203,"ĠHeb":9204,"ĠChang":9205,"ĠMeg":9206,"forcement":9207,"ĠSite":9208,"Ġadaptation":9209,"alis":9210,"Oper":9211,"ĠSalv":9212,"Ġlocomotives":9213,"Ġencounter":9214,"Ġfer":9215,"Ġperfect":9216,"ĠTele":9217,"Ġ1860":9218,"1961":9219,"Ġrecru":9220,"Ġmessage":9221,"Tube":9222,"Ġassass":9223,"Ġalcoh":9224,"ĠAntar":9225,"Ġdanc":9226,"Fl":9227,"web":9228,"ruption":9229,"udden":9230,"Ġchildhood":9231,"ĠCharlie":9232,"ĠDNA":9233,"audi":9234,"Ġ54":9235,"ĠAP":9236,"ĠAndy":9237,"ophone":9238,"ĠMars":9239,"Ġstayed":9240,"Ġformally":9241,"Ġartistic":9242,"Jos":9243,"ijing":9244,"ĠCou":9245,"rity":9246,"ĠHispan":9247,"ĠElectric":9248,"Ġmovements":9249,"Ġplate":9250,"Ġoutput":9251,"aja":9252,"ĠKnow":9253,"Ġnations":9254,"ĠEss":9255,"ĠNorm":9256,"agar":9257,"Ġroughly":9258,"Ġmeets":9259,"Organ":9260,"str":9261,"bul":9262,"OT":9263,"ĠCart":9264,"ĠAzerbai":9265,"ĠMans":9266,"Ġoffering":9267,"Ġinstance":9268,"ĠVancouver":9269,"ĠStage":9270,"ĠAer":9271,"Ġstring":9272,"hammad":9273,"Ġexpedition":9274,"Ġmountains":9275,"Ġhistorians":9276,"ns":9277,"asp":9278,"Ġrose":9279,"ĠSaints":9280,"Ġstrategy":9281,"Ġsoundtrack":9282,"ĠIv":9283,"ĠAdmiral":9284,"ocument":9285,"DS":9286,"ĠAR":9287,"Ġ120":9288,"uart":9289,"ĠTrail":9290,"ĠVel":9291,"Ġdeputy":9292,"ĠSS":9293,"story":9294,"break":9295,"Ġtransition":9296,"oi":9297,"Ġopinion":9298,"Em":9299,"acht":9300,"Musical":9301,"Ġsax":9302,"ĠWW":9303,"ĠPolitical":9304,"ĠDemocrats":9305,"fers":9306,"feld":9307,"Ġmedals":9308,"Br":9309,"ĠLuther":9310,"Ġparent":9311,"?\"":9312,"Ġfilmed":9313,"incinn":9314,"King":9315,"Ġdowntown":9316,"boy":9317,"Ġappearing":9318,"Station":9319,"imir":9320,"original":9321,"ĠRomanian":9322,"Ġsoil":9323,"arked":9324,"ĠCaribbean":9325,"ĠHunter":9326,"ountry":9327,"Ġassembly":9328,"Ġentertainment":9329,"Ġ1893":9330,"ĠFitz":9331,"ework":9332,"Ġkingdom":9333,"ĠIce":9334,"iors":9335,"ĠPra":9336,"1959":9337,"ĠZone":9338,"Ġelectoral":9339,"folk":9340,"Ġplanet":9341,"inos":9342,"Ġconstant":9343,"Hen":9344,"ĠOrange":9345,"Ġinduct":9346,"ĠSteel":9347,"ĠStra":9348,"Ġmarkets":9349,"1958":9350,"wig":9351,"ĠControl":9352,"ĠProtest":9353,"ĠLad":9354,"osph":9355,"ĠPeru":9356,"Ġtied":9357,"Ġcelebrated":9358,"Ġspr":9359,"ĠSeven":9360,"Ġpeaked":9361,"ĠSR":9362,"avel":9363,"otton":9364,"ĠConcer":9365,"rove":9366,"amental":9367,"Ġeliminated":9368,"ĠEug":9369,"udson":9370,"ĠStandard":9371,"Ġdebate":9372,"oom":9373,"Ġexternal":9374,"Ġmanner":9375,"ĠNebraska":9376,"raham":9377,"vision":9378,"ĠAfghanistan":9379,"ĠLead":9380,"udes":9381,"ĠRangers":9382,"ĠHindu":9383,"ĠMonte":9384,"ĠQual":9385,"oples":9386,"idency":9387,"Ġcontroversy":9388,"EM":9389,"music":9390,"ĠGun":9391,"ĠColombia":9392,"Ġnone":9393,"incinnati":9394,"Ġaffairs":9395,"type":9396,"Ġcool":9397,"Ġrelief":9398,"ĠCBS":9399,"Ġachieve":9400,"ĠNigeria":9401,"ĠStorm":9402,"team":9403,"mate":9404,"Ġwooden":9405,"Athlet":9406,"Ġrend":9407,"alymp":9408,"oj":9409,"ĠHig":9410,"ĠLiving":9411,"ribed":9412,"anner":9413,"Ġartillery":9414,"Ġromantic":9415,"ribute":9416,"Ġ1889":9417,"ĠSoul":9418,"Ġdrag":9419,"Ġforests":9420,"ĠBlood":9421,"ĠBranch":9422,"Sem":9423,"isition":9424,"ovakia":9425,"ĠVas":9426,"cm":9427,"IM":9428,"Cap":9429,"stad":9430,"Ġraise":9431,"stery":9432,"Ġimag":9433,"ictions":9434,"aku":9435,"celand":9436,"atically":9437,"ĠParker":9438,"fish":9439,"ipients":9440,"ictionary":9441,"ĠGor":9442,"Ġmonument":9443,"Ġspiritual":9444,"ĠGriff":9445,"Ġjurisd":9446,"Ġoption":9447,"Ġ53":9448,"Ġfilled":9449,"later":9450,"Ġorient":9451,"Ġboundary":9452,"Ġsubsidi":9453,"Univers":9454,"Ã¦":9455,"Ġattorney":9456,"ĠBarbara":9457,"atar":9458,"1957":9459,"Ġlosses":9460,"Ġinfluential":9461,"Stud":9462,"Ġdated":9463,"Ġnomination":9464,"ĠSerbian":9465,"State":9466,"Ġinfrastructure":9467,"Cons":9468,"Defunct":9469,"Ġamateur":9470,"ducer":9471,"Ġ1892":9472,"Ġsupposed":9473,"issue":9474,"Ġportrayed":9475,"Ġmissions":9476,"Ġwine":9477,"umi":9478,"Charles":9479,"Ġcatal":9480,"Ġpoems":9481,"Ġprofession":9482,"ĠFull":9483,"Ġhang":9484,"Ġmac":9485,"Ġsurr":9486,"Ġphilos":9487,"atche":9488,"Thomas":9489,"Ġtemporary":9490,"Ġtools":9491,"ĠPil":9492,"Ġbranches":9493,"esignated":9494,"ĠMean":9495,"idad":9496,"resses":9497,"ripts":9498,"ĠProfessional":9499,"ĠSystems":9500,"uru":9501,"ĠExt":9502,"Ġtie":9503,"Ġwithdraw":9504,"Me":9505,"aceae":9506,"ĠModel":9507,"Tur":9508,"orp":9509,"ĠApple":9510,"reprene":9511,"Ġcamera":9512,"ulum":9513,"ĠBachelor":9514,"ĠBass":9515,"ods":9516,"Ġbringing":9517,"LP":9518,"Ġfishing":9519,"mina":9520,"cut":9521,"geon":9522,"Ġarrest":9523,"usk":9524,"Ġadding":9525,"castle":9526,"Ġscholar":9527,"ĠBron":9528,"eful":9529,"ĠEgyptian":9530,"1956":9531,"Ġannually":9532,"inction":9533,"hill":9534,"Ġdefence":9535,"Scottish":9536,"rot":9537,"1939":9538,"!\"":9539,"ĠFellow":9540,"Ġnetworks":9541,"Ġmental":9542,"ĠCO":9543,"Ġterritories":9544,"ĠTang":9545,"Ġfiled":9546,"RO":9547,"Ġflowers":9548,"Ġthin":9549,"ĠBenjamin":9550,"Ġchapter":9551,"Ġmodified":9552,"sters":9553,"ĠEston":9554,"ĠCollins":9555,"ĠKr":9556,"ĠGreater":9557,"aha":9558,"rehens":9559,"ĠContin":9560,"1920":9561,"Ġbattles":9562,"elaide":9563,"ĠJama":9564,"Ġpercussion":9565,"Ġmir":9566,"teenth":9567,"Ġswimming":9568,"Ġforming":9569,"Royal":9570,"Ġmob":9571,"Ġfinding":9572,"ĠCommunications":9573,"ĠStudio":9574,"Ġ1894":9575,"celona":9576,"encer":9577,"ĠMix":9578,"ĠPrimary":9579,"endar":9580,"Ġdeclined":9581,"Ġfruit":9582,"ĠFrances":9583,"oons":9584,"Ġ1885":9585,"ĠJenn":9586,"ĠPA":9587,"borne":9588,"ĠTerritory":9589,"ĠClassic":9590,"rez":9591,"Ġreact":9592,"ĠLock":9593,"ĠMi":9594,"gate":9595,"Ġcatch":9596,"Ġexplained":9597,"Ġinstruct":9598,"obby":9599,"Ġcrop":9600,"ĠDra":9601,"Ġbon":9602,"Ġappointment":9603,"ĠCanal":9604,"uez":9605,"ĠPant":9606,"winning":9607,"Ġsomewhat":9608,"Ġindicate":9609,"ĠUg":9610,"Ġdepth":9611,"Ġfal":9612,"ĠBristol":9613,"aho":9614,"Tour":9615,"Ġster":9616,"inate":9617,"ĠTrinity":9618,"Ġproposal":9619,"izations":9620,"Ġwarm":9621,"ĠSpirit":9622,"ĠEncyclop":9623,"Ġvolumes":9624,"ĠChron":9625,"pent":9626,"Tr":9627,"ugs":9628,"ned":9629,"ĠExper":9630,"Ġreplacing":9631,"ĠTol":9632,"Ġbenefit":9633,"Ġfrequency":9634,"called":9635,"Ġ56":9636,"rock":9637,"Ġaccounts":9638,"Ġextens":9639,"sterdam":9640,"Ġthreatened":9641,"Ġpron":9642,"ĠAlbum":9643,"aun":9644,"Ġpenalty":9645,"1955":9646,"Ġintent":9647,"Ġcircuit":9648,"ellectual":9649,"ĠSymphony":9650,"Ġpitch":9651,"Ġskin":9652,"February":9653,"cover":9654,"Ġsegment":9655,"Ġexperiences":9656,"ĠNBC":9657,"ĠAction":9658,"ido":9659,"Ġvisitors":9660,"Ġabsor":9661,"Ġreputation":9662,"ĠHarrison":9663,"Ġlicense":9664,"Sir":9665,"Ġdream":9666,"Place":9667,"ĠAlice":9668,"ĠMediterranean":9669,"using":9670,"à¥":9671,"ĠMak":9672,"Ġrounds":9673,"andal":9674,"DF":9675,"Ġ1891":9676,"ĠBey":9677,"ĠBorn":9678,"Ġentering":9679,"ĠAdditionally":9680,"Dan":9681,"Gall":9682,"ĠCommissioner":9683,"acle":9684,"owell":9685,"ĠAttorney":9686,"Ġmode":9687,"Honours":9688,"Ġrestrict":9689,"br":9690,"SW":9691,"Ġstrongly":9692,"mont":9693,"anta":9694,"Recipients":9695,"Ġhuge":9696,"Ġhelping":9697,"Ġassign":9698,"ĠApp":9699,"Ġemergency":9700,"eri":9701,"Ġpersonality":9702,"ĠDog":9703,"Ġinvolvement":9704,"ĠTrump":9705,"ĠAmaz":9706,"ĠRacing":9707,"ĠManhattan":9708,"ĠKap":9709,"Ġelder":9710,"bane":9711,"verseas":9712,"ĠTurner":9713,"ivation":9714,"ounced":9715,"alph":9716,"Ġfit":9717,"These":9718,"ierra":9719,"Ġsoldier":9720,"ĠShang":9721,"ĠPrior":9722,"Bet":9723,"olar":9724,"Ġsoul":9725,"avi":9726,"enda":9727,"Go":9728,"Ġindicated":9729,"Ġvessel":9730,"Ġneut":9731,"ĠCuba":9732,"keeper":9733,"Ġdomain":9734,"score":9735,"uble":9736,"Ġrout":9737,"ĠConc":9738,"omon":9739,"Ġcrash":9740,"ĠRef":9741,"Ġconsiderable":9742,"ĠAppe":9743,"Ġcompletion":9744,"Ġincreasingly":9745,"Ġsurviving":9746,"Ġdig":9747,"Pal":9748,"ilarly":9749,"Ã©l":9750,"Ġrecre":9751,"ĠSr":9752,"irk":9753,"ĠLiga":9754,"Elect":9755,"Ġflower":9756,"ĠVlad":9757,"Ġsleep":9758,"ĠArtillery":9759,"Ġexisted":9760,"Ġconcrete":9761,"Ġcouples":9762,"Ġspoken":9763,"ĠBaptist":9764,"Ġtests":9765,"Hung":9766,"Ġles":9767,"opes":9768,"Ġcanc":9769,"Ġ1865":9770,"ĠNicholas":9771,"Ġvic":9772,"oft":9773,"auc":9774,"ĠMinor":9775,"aran":9776,"Ġsecure":9777,"Ġreleases":9778,"istani":9779,"Ġbear":9780,"Ġbes":9781,"1953":9782,"Ġcenters":9783,"Ġsatisf":9784,"holm":9785,"Mart":9786,"pop":9787,"Flora":9788,"Que":9789,"cho":9790,"ĠSultan":9791,"keley":9792,"Ġaggreg":9793,"Ġminimum":9794,"ulating":9795,"fly":9796,"Ġhorror":9797,"angerous":9798,"Ġpublisher":9799,"Ġparticipation":9800,"rypt":9801,"pm":9802,"Ġappeal":9803,"Ġcousin":9804,"dest":9805,"maker":9806,"ĠFisher":9807,"Ġarchitectural":9808,"Ġgrown":9809,"Ġtransportation":9810,"ĠYouTube":9811,"acre":9812,"ourg":9813,"Ġanch":9814,"ĠSyn":9815,"ĠHunt":9816,"Ġsurrounded":9817,"bound":9818,"Ġsigning":9819,"roph":9820,"ĠVI":9821,"Ġunf":9822,"ĠSid":9823,"Ġadopt":9824,"ĠLis":9825,"ontin":9826,"ĠFreedom":9827,"Ġstudying":9828,"Ġhappened":9829,"Ġequipped":9830,"Ġrepresentation":9831,"nan":9832,"graduate":9833,"EL":9834,"Ġspeak":9835,"Mark":9836,"anne":9837,"igo":9838,"ĠJosh":9839,"ifican":9840,"Swed":9841,"ĠTas":9842,"archy":9843,"quer":9844,"ĠMaced":9845,"ĠEsp":9846,"arat":9847,"DC":9848,"chest":9849,"Ġvision":9850,"Ġgraduating":9851,"ĠUlt":9852,"Ġpric":9853,"elia":9854,"ĠOliver":9855,"ĠClar":9856,"gorith":9857,"Ġnav":9858,"Ġ1864":9859,"Ġphr":9860,"Ġanything":9861,"ounsel":9862,"Ġexpect":9863,"Ġlandscape":9864,"ĠTu":9865,"1954":9866,"itations":9867,"Ġ1888":9868,"brid":9869,"ref":9870,"Ġphotography":9871,"ĠArtist":9872,"ĠBengal":9873,"ĠFab":9874,"Ġeleven":9875,"Ġsatellite":9876,"Ġfoss":9877,"1952":9878,"ickets":9879,"ificance":9880,"uli":9881,"Ġdistinguished":9882,"child":9883,"Dou":9884,"Ġdefinition":9885,"ĠUrban":9886,"Ġcredits":9887,"ĠPin":9888,"Ġagents":9889,"ouncill":9890,"Ġcompeting":9891,"ĠGrey":9892,"Ġranking":9893,"alam":9894,"body":9895,"Ġfestivals":9896,"Ã¡s":9897,"Met":9898,"trans":9899,"Ġreun":9900,"abilities":9901,"erate":9902,"ĠCharlotte":9903,"ĠMult":9904,"Ġillegal":9905,"ĠJonathan":9906,"Alex":9907,"Ġcharacteristics":9908,"Ġgenre":9909,"Ġscope":9910,"Ã¶n":9911,"ĠMuhammad":9912,"oro":9913,"ĠLP":9914,"Ġdenied":9915,"tes":9916,"Ġ1861":9917,"Jewish":9918,"Ġrepro":9919,"ĠKos":9920,"ĠDraft":9921,"Ġtribut":9922,"Ġdub":9923,"ĠFlight":9924,"anim":9925,"othic":9926,"Ġpanel":9927,"ĠGrade":9928,"Ġwides":9929,"Ġunderground":9930,"ĠUEFA":9931,"ĠMunich":9932,"eva":9933,"Ġthirty":9934,"agement":9935,"mo":9936,"eters":9937,"Ro":9938,"Ġoccasionally":9939,"Ġversus":9940,"Ġdraf":9941,"Ġshares":9942,"Ġphone":9943,"pread":9944,"ĠVincent":9945,"ĠDiam":9946,"ishment":9947,"Ġmanga":9948,"Ġatmosp":9949,"aba":9950,"Ġtell":9951,"Unincorporated":9952,"ĠChel":9953,"annon":9954,"ĠPolicy":9955,"Ġexpos":9956,"ĠWarner":9957,"Dep":9958,"Professional":9959,"ĠWang":9960,"....":9961,"Ġinfantry":9962,"ĠHamb":9963,"Companies":9964,"ĠGrad":9965,"Ġmaintenance":9966,"ĠBroadcasting":9967,"ĠEle":9968,".'":9969,"\";":9970,"Ġdecline":9971,"Ġprinted":9972,"ĠBeijing":9973,"Ġcontroversial":9974,"Ġapproval":9975,"Rivers":9976,"ĠGot":9977,"Sam":9978,"ĠIranian":9979,"Ġtow":9980,"ĠTreaty":9981,"Class":9982,"Filmography":9983,"eli":9984,"ĠSprings":9985,"ĠBuffalo":9986,"ĠMey":9987,"Ġinjuries":9988,"Ġlasted":9989,"ĠLiterature":9990,"Ġbeach":9991,"Ġeighth":9992,"ĠPlant":9993,"Ġod":9994,"Ġsurf":9995,"Communes":9996,"eno":9997,"ĠPack":9998,"Ġconvicted":9999,"shaped":10000,"izer":10001,"Ġlap":10002,"Ġchanging":10003,"Ġthemes":10004,"Ġgolf":10005,"Ġ1863":10006,"ennial":10007,"Ret":10008,"rystal":10009,"Ġjobs":10010,"aze":10011,"1949":10012,"Ġparliamentary":10013,"UC":10014,"enos":10015,"non":10016,"ĠMalt":10017,"Ġratio":10018,"ĠUnd":10019,"Ġ1887":10020,"Government":10021,"Ġtheat":10022,"1948":10023,"Ø§":10024,"ĠJerry":10025,"Medalists":10026,"iper":10027,"Ġshif":10028,"ĠLuis":10029,"Ġ1850":10030,"Ġjournals":10031,"Ġexcell":10032,"Ġremember":10033,"Ġ66":10034,"Ġprocessing":10035,"Ġneuro":10036,"Ġresolution":10037,"ĠPerson":10038,"Miss":10039,"ĠMunicipal":10040,"itis":10041,"scar":10042,"Sl":10043,"Ġwrestling":10044,"ĠAdelaide":10045,"Ġvalid":10046,"auge":10047,"ĠPay":10048,"amics":10049,"uits":10050,"ĠLag":10051,"Ġcomics":10052,"igs":10053,"ĠJa":10054,"ĠBeck":10055,"Ġseek":10056,"1951":10057,"'ve":10058,"Pat":10059,"Ġvisible":10060,"Ġtact":10061,"Ġcontinuing":10062,"Ġdrawing":10063,"Ġelectron":10064,"fire":10065,"African":10066,"ĠNature":10067,"Ġsurgery":10068,"Ġministers":10069,"ĠKirk":10070,"Ġmarketing":10071,"Ġagriculture":10072,"SU":10073,"300":10074,"gun":10075,"ĠDays":10076,"Ġlongest":10077,"ĠRu":10078,"Ġtreated":10079,"Ġbird":10080,"Ġfighter":10081,"ĠLost":10082,"ĠSeb":10083,"ĠCad":10084,"rior":10085,"Ġsafe":10086,"ĠShel":10087,"Ġ1000":10088,"usted":10089,"ĠCob":10090,"Ġdemolished":10091,"ichi":10092,"Ġbeet":10093,"ĠPhoenix":10094,"ĠContemporary":10095,"Ġeffectively":10096,"ewhere":10097,"Radio":10098,"Ġserial":10099,"IR":10100,"ĠBath":10101,"ĠProfile":10102,"ĠCosta":10103,"ĠSche":10104,"Ġelig":10105,"iology":10106,"Ġ57":10107,"Ġprompt":10108,"Ġnominations":10109,"Ġcable":10110,"ĠSmall":10111,"reck":10112,"itarian":10113,"ussia":10114,"Ġexists":10115,"Ġeverything":10116,"ĠIsa":10117,"uke":10118,"1946":10119,"Ġsupports":10120,"otyp":10121,"ĠPhilippine":10122,"ĠDod":10123,"ĠBarcelona":10124,"ective":10125,"ĠPoly":10126,"ĠRic":10127,"ĠNat":10128,"Ġmathematics":10129,"rass":10130,"Ġpregn":10131,"Richard":10132,"ĠSig":10133,"Ġdepending":10134,"ĠOnline":10135,"pector":10136,"ampa":10137,"unes":10138,"ĠMagn":10139,"occ":10140,"Ġcrimes":10141,"Chinese":10142,"1942":10143,"ĠAmsterdam":10144,"ĠMontana":10145,"aco":10146,"bus":10147,"Ġblocks":10148,"ĠGoogle":10149,"Ġbuy":10150,"Ġmeetings":10151,"ĠLions":10152,"Ġ1862":10153,"cknow":10154,"Ġteach":10155,"ĠAnim":10156,"Ġfurn":10157,"ĠMembers":10158,"ĨĴ":10159,"Ġdiscovery":10160,"ĠHerbert":10161,"Ġmassive":10162,"ĠRepresentative":10163,"ĠTag":10164,"haw":10165,"Brazil":10166,"ĠKon":10167,"appy":10168,"Ġelevation":10169,"Ġdisestablished":10170,"ĠLloyd":10171,"Ġwhilst":10172,"Ġparticipants":10173,"spec":10174,"enton":10175,"Many":10176,"ĠSpeed":10177,"Ġdonated":10178,"ĠLan":10179,"ĠYam":10180,"ĠClay":10181,"ĠSection":10182,"Ġtrading":10183,"Ġwars":10184,"ĠAdvis":10185,"Ġsentenced":10186,"cz":10187,"ĠNHL":10188,"ĠCond":10189,"Ġdrum":10190,"Ġinstrumental":10191,"Ġpatrol":10192,"igrated":10193,"ospitals":10194,"ters":10195,"Ġheir":10196,"rub":10197,"Selected":10198,"urst":10199,"esters":10200,"certain":10201,"What":10202,"Ġunderstand":10203,"Ġyoungest":10204,"bow":10205,"1947":10206,"ĠClinton":10207,"NC":10208,"tr":10209,"ĠKun":10210,"Ġoperational":10211,"Ġacted":10212,"ultane":10213,"Ġsuspended":10214,"ĠEU":10215,"ancellor":10216,"ĠAbbey":10217,"uncredited":10218,"amese":10219,"Ġwhereas":10220,"new":10221,"ĠBund":10222,"Ġ1886":10223,"Vol":10224,"Ġdrew":10225,"Ġvisiting":10226,"Ġworship":10227,"Ġrelationships":10228,"Ġconservation":10229,"mates":10230,"ĠSz":10231,"odore":10232,"Ġrecommended":10233,"such":10234,"They":10235,"sa":10236,"rose":10237,"ĠLate":10238,"asha":10239,"ĠVegas":10240,"iev":10241,"achi":10242,"helm":10243,"ĠMerc":10244,"Ġbridges":10245,"Ġhonour":10246,"hematic":10247,"agre":10248,"Ġcontribution":10249,"Ġstyles":10250,"1944":10251,"Ġtas":10252,"ĠCode":10253,"Ġattracted":10254,"Gold":10255,"riptions":10256,"Ġcabinet":10257,"ĠJoy":10258,"Ġfix":10259,"risbane":10260,"Ġinner":10261,"iji":10262,"Ġintersection":10263,"ĠDiocese":10264,"ĠByz":10265,"zes":10266,"andom":10267,"anni":10268,"Ġrescue":10269,"Ġpopulations":10270,"Ġmovies":10271,"Ġvoting":10272,"Ġmerchant":10273,"fielder":10274,"Ġ58":10275,"Ġlicensed":10276,"Ġtribe":10277,"atra":10278,"ĠTib":10279,"ĠHudson":10280,"ĠTrack":10281,"Ġrowspan":10282,"Ġmuseums":10283,"ĠTerry":10284,"Ġ72":10285,"ste":10286,"ĠNorfolk":10287,"ipper":10288,"Ġattributed":10289,"uckland":10290,"Ġexperimental":10291,"Ġexception":10292,"Peter":10293,"ailing":10294,"Ġpreserved":10295,"Ġdescribe":10296,"Ġrapidly":10297,"Ġwrong":10298,"ellion":10299,"ĠMasters":10300,"Ġchamber":10301,"ĠCour":10302,"ĠGiants":10303,"Ġbroadcasting":10304,"ilty":10305,"pine":10306,"Ġboats":10307,"Ġuseful":10308,"Ġweapon":10309,"ĠEvent":10310,"ĠTon":10311,"iffer":10312,"Ġloyal":10313,"released":10314,"Ġunusual":10315,"ĠPunjab":10316,"Ġswitch":10317,"Ġwidespread":10318,"ĠSah":10319,"ixon":10320,"Ġgreatly":10321,"Ġhundreds":10322,"ĠCraig":10323,"Ġemployment":10324,"hum":10325,"ĠGlen":10326,"Tom":10327,"bes":10328,"Ġhonors":10329,"ĠCommons":10330,"ĠSnow":10331,"Ġsubd":10332,"Ġdrugs":10333,"Ġ95":10334,"ĠFaculty":10335,"Ġinsurance":10336,"Ġcolony":10337,"Ġsees":10338,"ĠSyria":10339,"Ġconcerned":10340,"Ġsilent":10341,"ĠHugh":10342,"Ġdiameter":10343,"Ġhal":10344,"Ġcolle":10345,"Ġarc":10346,"Ġ59":10347,"Ġactivists":10348,"Ġtransmission":10349,"ĠRing":10350,"ĠSad":10351,"ĠCompet":10352,"ĠBrew":10353,"Ġhorses":10354,"ĠArchbishop":10355,"Ġkeyboards":10356,"ĠArabic":10357,"ĠSocialist":10358,"Ġtraveled":10359,"ĠAthens":10360,"Ġknew":10361,"Ġbiography":10362,"ĠMason":10363,"Cy":10364,"erie":10365,"Ġproport":10366,"orous":10367,"Ġoccasions":10368,"ĠHerman":10369,"Academ":10370,".),":10371,"Ġwants":10372,"However":10373,"ĠNE":10374,"Ġtribes":10375,"ifies":10376,"Ġadvertising":10377,"ĠBuch":10378,"ĠVenezuela":10379,"Ġthing":10380,"Ġpercentage":10381,"terior":10382,"Ġcinema":10383,"Ġvenue":10384,"Ġ85":10385,"ĠCP":10386,"Ġrar":10387,"Ġabroad":10388,"ĠUniversal":10389,"Ġtransc":10390,"1941":10391,"Ġacknow":10392,"roid":10393,"1936":10394,"Ġfil":10395,"Ġcorporate":10396,"ĠSor":10397,"Ġearthqu":10398,"Ġ1884":10399,"ĠVermont":10400,"ĠAlt":10401,"ĠCold":10402,"ĠMovie":10403,"ĠCroatia":10404,"Ġremainder":10405,"ĠRobin":10406,"Ġconcerts":10407,"Ġparam":10408,"Ð²":10409,"lington":10410,"Ġ1881":10411,"\":":10412,"Ġinnings":10413,"family":10414,"stances":10415,"Ġsupplies":10416,"Ġchapel":10417,"Ġfled":10418,"Ã±a":10419,"sects":10420,"Ġmonitor":10421,"Saint":10422,"ĠConserv":10423,"overy":10424,"zz":10425,"opy":10426,"ĠHem":10427,"ĠTech":10428,"abel":10429,"Ġschedule":10430,"Ġstatue":10431,"Ġincidents":10432,"Ġsend":10433,"Ġsudden":10434,"iu":10435,"ĠLion":10436,"Ġpap":10437,"foot":10438,"Ġbenefits":10439,"ĠHerz":10440,"Ġapparently":10441,"ĠGround":10442,"Ġgovernments":10443,"Ġrepresentatives":10444,"Ġposted":10445,"but":10446,"onymous":10447,"iration":10448,"Ġrub":10449,"Ġcasual":10450,"ĠPle":10451,"Ġspaces":10452,"math":10453,"Ġbegun":10454,"Another":10455,"Ġcontested":10456,"Ġperiods":10457,"eway":10458,"ĠBerkeley":10459,"Ġdetailed":10460,"Ġundert":10461,"Ġindicates":10462,"ĠJefferson":10463,"Ġdeparture":10464,"ĠPel":10465,"ĠGate":10466,"Before":10467,"rod":10468,"Ġillness":10469,"ographers":10470,"ags":10471,"ĠFu":10472,"Ġerected":10473,"ĠHeavy":10474,"mpt":10475,"Ġendemic":10476,"Ġturning":10477,"Ġtexts":10478,"arting":10479,"amilies":10480,"ĠPeninsula":10481,"Ġassociate":10482,"Ġgone":10483,"ĠAviation":10484,"ĠCA":10485,"ĠIceland":10486,"ĠIndustry":10487,"ĠPersian":10488,"Ġcategories":10489,"ĠHad":10490,"Ġmakeup":10491,"ĠMuslims":10492,"Ġruling":10493,"Ġgallery":10494,"Ġmines":10495,"theless":10496,"Ġresearchers":10497,"Ġeasy":10498,"Ġ250":10499,"Ġwrites":10500,"ossible":10501,"ĠCincinnati":10502,"ĠDragon":10503,"berry":10504,"Econom":10505,"rus":10506,"Ġexceed":10507,"ĠMann":10508,"Ġtrail":10509,"uction":10510,"umbent":10511,"ĠHispanic":10512,"ĠDelaware":10513,"ĠBav":10514,"ĠYe":10515,"Ġmartial":10516,"Ġaffiliated":10517,"ĠIndustrial":10518,"Ġplatforms":10519,"formerly":10520,"ĠSask":10521,"Ġlieutenant":10522,"ĠHorse":10523,"ĠAber":10524,"1937":10525,"ĠPont":10526,"ĠMath":10527,"ĠBert":10528,"Singles":10529,"Houses":10530,"Ġcompetitive":10531,"ĠPetersburg":10532,"Ġopportunities":10533,"isch":10534,"ĠKeith":10535,"Ġtruth":10536,"plex":10537,"kar":10538,"Ġholid":10539,"Ġcustomers":10540,"Ġsuffering":10541,"bie":10542,"Ġanime":10543,"Ġcongress":10544,"Ġalgorith":10545,"ĠStein":10546,"Ġpredecess":10547,"ĠSÃ£o":10548,"ĠBird":10549,"arrier":10550,"Ġrepr":10551,"Ġindex":10552,"Ġtransform":10553,"Ġdress":10554,"ĠBog":10555,"ĠRogers":10556,"hetic":10557,"hematical":10558,"Ġamongst":10559,"ĠTechnical":10560,"ĠCatherine":10561,"Ġspending":10562,"Ġhelic":10563,"Ġgrey":10564,"ingly":10565,"ĠComputer":10566,"liga":10567,"ĠFif":10568,"Ġconcentration":10569,"Ġcomponent":10570,"eties":10571,"legiate":10572,"ĠAzerbaijan":10573,"ĠExchange":10574,"onc":10575,"Big":10576,"uable":10577,"ĠBulgaria":10578,"ĠAlger":10579,"mediate":10580,"Ġphenomen":10581,"Dutch":10582,"erted":10583,"elfare":10584,"oded":10585,"WA":10586,"ĠGermans":10587,"ĠYang":10588,"Land":10589,"Ġintegrated":10590,"Ġranks":10591,"Ġyield":10592,"ĠKenya":10593,"ported":10594,"ĠHolland":10595,"ĠAnglican":10596,"Ġsupporters":10597,"ĠCrim":10598,"Ġdual":10599,"iture":10600,"rague":10601,"Ġeditions":10602,"ĠMoroc":10603,"icas":10604,"ĠPast":10605,"400":10606,"ĠGonz":10607,"President":10608,"ĠEdwards":10609,"Ġchoose":10610,"Current":10611,"Ġmo":10612,"Hz":10613,"Ġextent":10614,"Ġeveryone":10615,"Ġorganisations":10616,"athon":10617,"áº":10618,"ĠAppl":10619,"lik":10620,"Ġcreative":10621,"Ġimmediate":10622,"1943":10623,"Ġapply":10624,"ĠJe":10625,"ĠPerry":10626,"lu":10627,"ĠKath":10628,"Ãī":10629,"Ñĥ":10630,"Ġduo":10631,"ĠRevival":10632,"otion":10633,"ublished":10634,"Ġgymn":10635,"empt":10636,"1938":10637,"Ġformations":10638,"HP":10639,"Acc":10640,"Ġresemb":10641,"Ġafterwards":10642,"Ġcoaching":10643,"Ġnormally":10644,"Round":10645,"Ġabuse":10646,"Ġcricketer":10647,"Ġpatient":10648,"ĠCampaign":10649,"ĠPlat":10650,"ĠSaudi":10651,"Rock":10652,"Ġsimpl":10653,"anthrop":10654,"owed":10655,"istingu":10656,"ĠZe":10657,"ĠGay":10658,"Ġsigns":10659,"Ġabsence":10660,"Ġ1882":10661,"abil":10662,"high":10663,"pin":10664,"Christian":10665,"Ġindigenous":10666,"Ġspoke":10667,"ento":10668,"Ġbehalf":10669,"ĠFriday":10670,"Ġopponents":10671,"Ġtempor":10672,"ĠMend":10673,"rien":10674,"ĠBaronet":10675,"ricted":10676,"Ġbid":10677,"iveness":10678,"gom":10679,"ĠHope":10680,"Ġfold":10681,"ĠYu":10682,"Ġhen":10683,"oard":10684,"eto":10685,"Ġscientist":10686,"Ġbacter":10687,"Ġkit":10688,"kg":10689,"ieg":10690,"ĠMA":10691,"Ġregime":10692,"Up":10693,"Ġrebuilt":10694,"Mont":10695,"ĠLarry":10696,"Ġgay":10697,"Ġprinciples":10698,"thlete":10699,"Ġcommanded":10700,"ĠArgentine":10701,"uba":10702,"care":10703,"quir":10704,"onies":10705,"Ġgradually":10706,"Kn":10707,"ĠBrun":10708,"ĠBright":10709,"htm":10710,"closed":10711,"Ġparks":10712,"NS":10713,"Ġhearing":10714,"bas":10715,"Ġelectrical":10716,"ĠMagic":10717,"à®":10718,"ĠMig":10719,"Ġfur":10720,"antin":10721,"1918":10722,"ĠStuart":10723,"Ġemerged":10724,"Ġclaiming":10725,"ĠHann":10726,"ogan":10727,"Under":10728,"ĠPerformance":10729,"Ġ76":10730,"Ġdoesn":10731,"ĠCurt":10732,"was":10733,"icus":10734,"ĠSoft":10735,"Ġpredomin":10736,"ĠPav":10737,"Ġrestoration":10738,"ĠChristians":10739,"ibraries":10740,"Ġmoves":10741,"Ġconj":10742,"duce":10743,"Ġthousand":10744,"ĠExpl":10745,"Ġfriendly":10746,"ĠInstead":10747,"hour":10748,"eda":10749,"cester":10750,"Ġpremiere":10751,"Ġterminal":10752,"Ġconvention":10753,"aukee":10754,"ĠMahar":10755,"Ġdestruction":10756,"Ġcul":10757,"Ġpy":10758,"Ġsponsored":10759,"Ġmidfield":10760,"Ġsummary":10761,"ĠHarold":10762,"Books":10763,"Î¿":10764,"Ġbeautiful":10765,"Ġphysics":10766,"ĠSteven":10767,"ĠWes":10768,"idal":10769,"Ġnurs":10770,"Ġphysician":10771,"Ġencouraged":10772,"ĠCrime":10773,"Ġdefending":10774,"enti":10775,"ĠMcL":10776,"ĠLux":10777,"she":10778,"Ġmineral":10779,"Ġdoubles":10780,"1935":10781,"ĠWor":10782,"uations":10783,"ĠLear":10784,"How":10785,"Ġsettlements":10786,"Mad":10787,"Ġproduces":10788,"Ġfrequent":10789,"Irish":10790,"asia":10791,"rehensive":10792,"Treat":10793,"Ġmounted":10794,"var":10795,"ĠSalt":10796,"Ġtrap":10797,"ĠWalt":10798,"def":10799,"Ġreportedly":10800,"Ġsignificance":10801,"othe":10802,"Tra":10803,"Ġguide":10804,"hl":10805,"Ġgrandfather":10806,"acts":10807,"à¦":10808,"Ġarrangement":10809,"ĠBrisbane":10810,"ĠAnglo":10811,"ĠBobby":10812,"iscopal":10813,"caster":10814,"Ġviewed":10815,"Ġoperator":10816,"asant":10817,"Ġdefenders":10818,"ĠStre":10819,"sor":10820,"anj":10821,"rieved":10822,"ceived":10823,"Frank":10824,"rington":10825,"Ġdrummer":10826,"oshi":10827,"Ġplaywright":10828,"Ġemigrants":10829,"ĠSP":10830,"ĠCircuit":10831,"Ġurg":10832,"oker":10833,"ĠOperations":10834,"utter":10835,"ĠÃģ":10836,"Ġviewers":10837,"Ġidentify":10838,"ĠLie":10839,"Ġpul":10840,"Ġpure":10841,"Ġunincorporated":10842,"ĠParalymp":10843,"unswick":10844,"ĠScotia":10845,"Ġtoured":10846,"onda":10847,"IL":10848,"alg":10849,"ahl":10850,"Ġcivilian":10851,"Just":10852,"Ġannounce":10853,"ĠChair":10854,"Ġjunction":10855,"wald":10856,"Ġswit":10857,"Ġreven":10858,"ĠKle":10859,"ĠButler":10860,"Ġstable":10861,"ĠShar":10862,"Ġcharacterized":10863,"Ġbond":10864,"Ġsubstantial":10865,"Ġleaf":10866,"ching":10867,"ĠDenver":10868,"ipped":10869,"Ġaimed":10870,"Ġwire":10871,"ĠGhana":10872,"Ġ62":10873,"ĠTerm":10874,"ĠLatino":10875,"Ġsentence":10876,"ĠRivers":10877,"mill":10878,"ĠGang":10879,"ĠRidge":10880,"strong":10881,"achment":10882,"Ġcommunications":10883,"Note":10884,"ĠEthiop":10885,"Ġrecovered":10886,"Ġouter":10887,"adr":10888,"ĠType":10889,"Old":10890,"Ġexcess":10891,"Ġhat":10892,"ĠHav":10893,"case":10894,"Ġspin":10895,"ĠNepal":10896,"apse":10897,"ĠRight":10898,"Ġfacilit":10899,"itual":10900,"BO":10901,"Ġtenure":10902,"opsis":10903,"],":10904,"ĠSloven":10905,"Ġgate":10906,"Ġnoble":10907,"Ġ63":10908,"minster":10909,"Ġcontinu":10910,"Ġpossession":10911,"Ġprohib":10912,"anced":10913,"Ġasks":10914,"ĠHenri":10915,"ĠAS":10916,"ĠHob":10917,"ĠGrace":10918,"ĠActor":10919,"Ġstrict":10920,"ĠCoal":10921,"ullivan":10922,"Ġborders":10923,"vet":10924,"ĠSay":10925,"Ġclar":10926,"Ġmanufacturer":10927,"Grand":10928,"akespe":10929,"Ġpicked":10930,"Ġassets":10931,"viously":10932,"ĠPatt":10933,"ĠEconomics":10934,"Ġfantasy":10935,"ĠGust":10936,"Ġready":10937,"ĠAuckland":10938,"ĠSide":10939,"Ġpod":10940,"Ġrelocated":10941,"ffield":10942,"ĠFighter":10943,"waukee":10944,"cat":10945,"Pan":10946,"Ġadults":10947,"ĠKur":10948,"Ġsolar":10949,"ĠFriends":10950,"ema":10951,"ovan":10952,"rams":10953,"Ġsubsidiary":10954,"Ġalcohol":10955,"Ġpublicly":10956,"Ġrecommend":10957,"âĢľ":10958,"Ġwel":10959,"Sal":10960,"itially":10961,"alysis":10962,"minute":10963,"igion":10964,"making":10965,"ĠIT":10966,"ovich":10967,"Ġfacing":10968,"ovsky":10969,"apped":10970,"Green":10971,"'ll":10972,"Ġ1883":10973,"Ġwet":10974,"elected":10975,"Mex":10976,"ĠLeeds":10977,"ĠArmenian":10978,"Ġsimultane":10979,"Ġ67":10980,"Ġliberal":10981,"Deaths":10982,"Ġphotographs":10983,"overeign":10984,"ĠRat":10985,"ĠChester":10986,"Ġliquid":10987,"Ġsteps":10988,"ĠEagles":10989,"ĠProductions":10990,"Mr":10991,"ĠMaz":10992,"Ġtalent":10993,"Ġmissed":10994,"eric":10995,"Ġ@":10996,"Ġsurviv":10997,"Song":10998,"Ġpatron":10999,"Ġplayoffs":11000,"ĠÅł":11001,"Ġfunded":11002,"Ġvolleyball":11003,"ĠDennis":11004,"arged":11005,"ipino":11006,"Ġmatters":11007,"Ġattractions":11008,"Ġpossess":11009,"ifier":11010,"emed":11011,"ĠLeader":11012,"uador":11013,"Ġattending":11014,"Ġstruggle":11015,"stown":11016,"Ġenjoyed":11017,"ĠJar":11018,"Ġspeaking":11019,"ĠYank":11020,"ĠAdv":11021,"Conn":11022,"encing":11023,"Ġtraded":11024,"Ġocean":11025,"Ġrelation":11026,"Ġrunners":11027,"RT":11028,"Ġ1876":11029,"omic":11030,"Ġdebt":11031,"erally":11032,"ĠShaw":11033,"ĠToy":11034,"Ġlawyers":11035,"âĢĿ.":11036,"Ġpartners":11037,"ĠThir":11038,"Ġpartially":11039,"HA":11040,"aration":11041,"Australia":11042,"bel":11043,"ĠBald":11044,"Ġseeking":11045,"ĠMick":11046,"ĠMarvel":11047,"Ġappropriate":11048,"ĠMurphy":11049,"abe":11050,"Ġthrone":11051,"rano":11052,"Ġconservative":11053,"ĠFun":11054,"âĪĴ":11055,"Ġpartly":11056,"Gallery":11057,"Ġ68":11058,"ĠHein":11059,"Ġextreme":11060,"Week":11061,"ĠFinance":11062,"Ġ1878":11063,"Ġqualify":11064,"ĠBuddhist":11065,"Ġanyone":11066,"Live":11067,"ĠSuch":11068,"ĠFellows":11069,"Ġpseud":11070,"elect":11071,"Ġsculpture":11072,"Ġprovision":11073,"Ġresort":11074,"Ġprovinces":11075,"rys":11076,"Ġsongwriter":11077,"Ġwat":11078,"Ġrhythm":11079,"ĠInv":11080,"Ġapartment":11081,"Ġoccasion":11082,"bin":11083,"olition":11084,"Ġ77":11085,"olen":11086,"Ġcongreg":11087,"ĠChristianity":11088,"ĠSomers":11089,"Ġreveals":11090,"aser":11091,"ĠBour":11092,"Ġroots":11093,"Ġvast":11094,"erala":11095,"Ġcontroll":11096,"ĠHelen":11097,"Original":11098,"ĠErnest":11099,"Ġceased":11100,"ĠIC":11101,"ĠFormula":11102,"ĠNy":11103,"ĠHamburg":11104,"backs":11105,"BE":11106,"yler":11107,"ĠHebrew":11108,"ĠDrive":11109,"ĠDeep":11110,"ĠDivis":11111,"Ġexplo":11112,"ĠSak":11113,"agi":11114,"aca":11115,"issa":11116,"Ġborough":11117,"ĠFuture":11118,"game":11119,"rost":11120,"Ã©r":11121,"ĠCrow":11122,"Ġadmin":11123,"Ġlegs":11124,"Ġdominated":11125,"ĠCelt":11126,"Ġpassage":11127,"Sm":11128,"ĠMadison":11129,"ĠQuarter":11130,"Ġcargo":11131,"Ġtool":11132,"enders":11133,"akespeare":11134,"Ġdriven":11135,"Ġcash":11136,"Ġacoustic":11137,"Ġ99":11138,"Ġorganised":11139,"Ġaccord":11140,"ĠBrunswick":11141,"Ġintellectual":11142,"Ġwedding":11143,"Ġimplemented":11144,"ju":11145,"Ġmathematic":11146,"ĠManuel":11147,"Cities":11148,"cos":11149,"abric":11150,"scale":11151,"Ġ61":11152,"Ġdisplayed":11153,"imo":11154,"Ġhighlight":11155,"Ġdecides":11156,"ĠAllied":11157,"ĠRalph":11158,"inceton":11159,"Ġcharity":11160,"Ġdeployed":11161,"Ġinaugural":11162,"ĠChapel":11163,"Ġtanks":11164,"Ġexposed":11165,"onomous":11166,"Ġcondu":11167,"ĠKra":11168,"ĠMicrosoft":11169,"ethyl":11170,"Ġpossibility":11171,"itars":11172,"Ġ78":11173,"eneg":11174,"insky":11175,"Ġkeeping":11176,"ĠOil":11177,"1934":11178,"Ġsustain":11179,"Ġbio":11180,"Ġprinciple":11181,"rators":11182,"Ġadvice":11183,"Us":11184,"Ġ1875":11185,"world":11186,"Ġforwards":11187,"Ġweekend":11188,"ĠOttawa":11189,"1933":11190,"Sport":11191,"Ġtort":11192,"ĠNR":11193,"ĠWarsaw":11194,"Ġdrafted":11195,"Ġpip":11196,"furt":11197,"ĠScar":11198,"ĠMoz":11199,"Fictional":11200,"Ġtournaments":11201,"ĠCruz":11202,"Ġgenerated":11203,"Ġimplementation":11204,"Mac":11205,"ĠDerby":11206,"ĠLuke":11207,"Ġ1879":11208,"Den":11209,"mid":11210,"Sy":11211,"Ġstress":11212,"Ġsympt":11213,"Main":11214,"ĠLen":11215,"Ġphoto":11216,"entle":11217,"Ġcancelled":11218,"ĠFranÃ§":11219,"ospel":11220,"Ġjurisdiction":11221,"Ġdiseases":11222,"ĠArtists":11223,"Ġ1871":11224,"ĠYale":11225,"Ġ69":11226,"ĠView":11227,"osl":11228,"Ġcommented":11229,"hin":11230,"Ġpalace":11231,"ĠSic":11232,"Ġfarmers":11233,"estershire":11234,"ĠFlorence":11235,"Ġ88":11236,"ĠPul":11237,"Ġmerger":11238,"ĠConstruction":11239,"Ġtwin":11240,"Ġinput":11241,"Ġassemb":11242,"Ġtunnel":11243,"Ġconstitution":11244,"Ġengineers":11245,"Ġeldest":11246,"ĠSeg":11247,"ffee":11248,"ĠPedro":11249,"iza":11250,"Ġeat":11251,"ĠBeaut":11252,"ĠDest":11253,"Ġrevenue":11254,"sur":11255,"Israel":11256,"core":11257,"tingham":11258,"ĠIss":11259,"ĠVenice":11260,"avor":11261,"Ġgear":11262,"Ġninth":11263,"Law":11264,"ĠKay":11265,"Ġmargin":11266,"Ġcompens":11267,"eras":11268,"Ġescort":11269,"kan":11270,"Ġpictures":11271,"ĠIndependence":11272,"ĠIb":11273,"Ġdiscussion":11274,"Ġimperial":11275,"Ġopponent":11276,"ĠIntelligence":11277,"Ġvoters":11278,"pany":11279,"pled":11280,"auer":11281,"ĠStudents":11282,"Ġsettlers":11283,"Ġlabour":11284,"Ġtraditions":11285,"ĠBulgarian":11286,"Ġpale":11287,"disc":11288,"rn":11289,"Ġrecipient":11290,"Ġ600":11291,"1932":11292,"Ġrated":11293,"Ġinvolves":11294,"ĠEncyclopedia":11295,"Ġlose":11296,"Ġlocally":11297,"Ġ1867":11298,"etti":11299,"ĠMalay":11300,"ĠSha":11301,"War":11302,"London":11303,"Ġshore":11304,"ĠBlock":11305,"Ġneither":11306,"PR":11307,"1929":11308,"Ġlimits":11309,"ĠSang":11310,"Ġbalance":11311,"Ġshock":11312,"elo":11313,"Ġmanufacturers":11314,"Ġexcav":11315,"page":11316,"ederation":11317,"Ġimmigrants":11318,"ĠManager":11319,"Ġlingu":11320,"atchewan":11321,"ifinals":11322,"Ġ1877":11323,"Ġmal":11324,"Ġdecisions":11325,"Ur":11326,"Despite":11327,"Ġsessions":11328,"ificial":11329,"ĠEsc":11330,"ĠSusan":11331,"utton":11332,"ĠGilbert":11333,"Ġelse":11334,"ĠProtection":11335,"ĠNeil":11336,"Ġupgrad":11337,"ĠFormer":11338,"Ġcontinuous":11339,"ĠStudy":11340,"ĠProduction":11341,"ĠTax":11342,"Ġdesire":11343,"icking":11344,"ĠProtestant":11345,"Ġconstituencies":11346,"ahan":11347,"Ġconfig":11348,"Ġtimber":11349,"Ġfocuses":11350,"ĠSet":11351,"Ġfalling":11352,"Add":11353,"White":11354,"illes":11355,"Ġscores":11356,"Ġcemetery":11357,"ĠEddie":11358,"Ġprogrammes":11359,"Ġcircumstances":11360,"appro":11361,"ĠCreat":11362,"Ġincreases":11363,"ÅĤaw":11364,"ĠWas":11365,"Ġportrait":11366,"Transportation":11367,"onial":11368,"Ġmurdered":11369,"Ġconnecting":11370,"ĠArnold":11371,"ĠLebanon":11372,"Ġbay":11373,"mand":11374,"Ġnovelist":11375,"outheastern":11376,"istinguished":11377,"Publications":11378,"mal":11379,"central":11380,"Ġremove":11381,"Ġpatterns":11382,"otten":11383,"Ġsight":11384,"Ġstandings":11385,"erated":11386,"Ġstim":11387,"ĠMol":11388,"Ġchoir":11389,"ĠTreas":11390,"Ġmechanical":11391,"Ġemperor":11392,"Ġclothing":11393,"Ġhonorary":11394,"Ġdiscussed":11395,"Ġtopics":11396,"Ġreduction":11397,"Ġ1868":11398,"Ġtouring":11399,"haus":11400,"ĠGrove":11401,"ivic":11402,"Ġlowest":11403,"ĠAround":11404,"etical":11405,"Ġbelonged":11406,"ĠNewcastle":11407,"Ġregulations":11408,"ĠMÃ©":11409,"izz":11410,"ĠConservation":11411,"ĠConfederate":11412,"Ġestablishing":11413,"Ġinitiative":11414,"aeus":11415,"Ġbright":11416,"gomery":11417,"uber":11418,"Ġfalse":11419,"Ġessential":11420,"sequently":11421,"amous":11422,"iliar":11423,"MI":11424,"Ġgenetic":11425,"ĠKab":11426,"dal":11427,"ĠNapole":11428,"Ġgeomet":11429,"Ġearning":11430,"Ġguilty":11431,"ĠKid":11432,"Ġinnov":11433,"Ġdiscontin":11434,"Ġterminus":11435,"Ġtomb":11436,"Ġdispute":11437,"Ġmanif":11438,"ĠPut":11439,"Ġbishops":11440,"Ġprotests":11441,"ĠWatson":11442,"tz":11443,"rors":11444,"osc":11445,"notes":11446,"ĠBeh":11447,"mits":11448,"Ġsecured":11449,"Ġexclusively":11450,"1922":11451,"Release":11452,"Ġcolors":11453,"Ġ1874":11454,"ĠCoach":11455,"quarter":11456,"Argent":11457,"ĠSierra":11458,"ĠCare":11459,"only":11460,"Critical":11461,"ĠSoutheast":11462,"Ġ96":11463,"Ġsubt":11464,"etary":11465,"alities":11466,"Ġresponded":11467,"Ġtorn":11468,"ĠPoll":11469,"ĠHughes":11470,"omorph":11471,"ĠKrist":11472,"1931":11473,"iago":11474,"bone":11475,"Ġbreaking":11476,"ĠNumber":11477,"ĠShanghai":11478,"Ġpeoples":11479,"ĠBear":11480,"velt":11481,"Mass":11482,"arta":11483,"Ġrandom":11484,"Ġ1872":11485,"Soviet":11486,"ĠRepublicans":11487,"1919":11488,"Ġconcerning":11489,"Ġ74":11490,"Ġblog":11491,"Ġwithdrew":11492,"Ġentreprene":11493,"Ġlinear":11494,"omar":11495,"Ġevac":11496,"film":11497,"ĠLeo":11498,"ĠMust":11499,"Ġcoalition":11500,"Ġturb":11501,"ĠLeft":11502,"1928":11503,"Ġongoing":11504,"Ġtherm":11505,"jection":11506,"Val":11507,"ĠData":11508,"ĠĠĠĊ":11509,"Ġwearing":11510,"ĠMul":11511,"ĠSuz":11512,"agonist":11513,"âĢĿ,":11514,"Ġfitted":11515,"France":11516,"ĠGolf":11517,"ĠRange":11518,"ĠHarvey":11519,"ardens":11520,"Ġcloser":11521,"ĠObserv":11522,"Ġphotos":11523,"Ġdatabase":11524,"ĠRav":11525,"Ġmanufactured":11526,"Ġnotice":11527,"Ġ82":11528,"ĠWellington":11529,"list":11530,"Ġ1873":11531,"Ġvul":11532,"ilo":11533,"ĠBach":11534,"ĠCycl":11535,"ĠAirlines":11536,"ĠWallace":11537,"Tim":11538,"ĠCant":11539,"ete":11540,"Mag":11541,"Ġid":11542,"ieu":11543,"Ġmechanism":11544,"Ġsuperior":11545,"ĠMarg":11546,"ME":11547,"Ġmachines":11548,"Ġsequel":11549,"ĠCongo":11550,"ygen":11551,"Ġ1866":11552,"Ġtreaty":11553,"ĠStanford":11554,"ovina":11555,"atha":11556,"Ġclearly":11557,"Ġmor":11558,"ĠSoph":11559,"ĠMills":11560,"ĠRaymond":11561,"Ġassisted":11562,"Ġdiverse":11563,"Ġlegislative":11564,"Ġdiver":11565,"ĠSox":11566,"Ġbelonging":11567,"azi":11568,"ĠMeanwhile":11569,"Ġstem":11570,"nex":11571,"Ġapparent":11572,"Ġ1840":11573,"Ġsubmarine":11574,"roat":11575,"Ġrenov":11576,"Bill":11577,"Ġminority":11578,"Form":11579,"arson":11580,"Ġrising":11581,"KO":11582,"College":11583,"acional":11584,"Ġneck":11585,"ĠTed":11586,"Ġgal":11587,"Super":11588,"Ġscen":11589,"Ġmasc":11590,"ija":11591,"Ġmarks":11592,"py":11593,"Ġgiant":11594,"Ġscholarship":11595,"Ĥ¬":11596,"ĠPhD":11597,"des":11598,"Ġbases":11599,"Ġtrials":11600,"ĠEnvironmental":11601,"ische":11602,"ĠWells":11603,"Ġbanned":11604,"Ġ110":11605,"Ġride":11606,"Ġsurvive":11607,"inda":11608,"Ġconversion":11609,"Love":11610,"uta":11611,"Ġstrategic":11612,"ĠTasman":11613,"Ġsang":11614,"Ġboundaries":11615,"Swedish":11616,"wyn":11617,"ĠBes":11618,"ouch":11619,"Ġrect":11620,"Ġpursue":11621,"bing":11622,"ĠLeonard":11623,"irus":11624,"Ġhelps":11625,"Ġdisband":11626,"Ġbelieves":11627,"sm":11628,"ĠCommerce":11629,"inee":11630,"Ġfuneral":11631,"Ġgam":11632,"ĠShakespeare":11633,"Ġcharter":11634,"ĠViol":11635,"rise":11636,"ĠAncient":11637,"Ġcaps":11638,"Ġorigins":11639,"ĠRoom":11640,"ĠCN":11641,"ĠGregory":11642,"ĠTogether":11643,"esty":11644,"ephew":11645,"Ġtel":11646,"ĠRhode":11647,"ĠGuardian":11648,"Ġproteins":11649,"ĠFriedrich":11650,"Ġclosing":11651,"ĠCroatian":11652,"Ġbattalion":11653,"Ġpropag":11654,"1927":11655,"ĠPhillips":11656,"Ġinitiated":11657,"Ġcompleting":11658,"Ġ73":11659,"stract":11660,"Ġproductions":11661,"Ġprest":11662,"hal":11663,"Ġpor":11664,"roe":11665,"Ġdistribut":11666,"Henry":11667,"Ġbaby":11668,"ĠFlying":11669,"Ġoutstanding":11670,"angle":11671,"ĠRaf":11672,"oan":11673,"Louis":11674,"'d":11675,"airo":11676,"ĠBosnia":11677,"eing":11678,"avia":11679,"Ġimpress":11680,"ansk":11681,"Ġ81":11682,"Ġunsuccessful":11683,"Ġconstitutional":11684,"Ġinterpre":11685,"1914":11686,"Ġenforcement":11687,"Educational":11688,"issions":11689,"ĠFerr":11690,"SD":11691,"artet":11692,"Ġfee":11693,"Ġalliance":11694,"ĠAlong":11695,"Ġbeauty":11696,"Ġclock":11697,"Ġsuitable":11698,"ĠST":11699,"Ġdismissed":11700,"Ġsubstitute":11701,"ĠEditor":11702,"Ġisolated":11703,"Ġmonastery":11704,"Mel":11705,"ĠMarqu":11706,"ĠDol":11707,"Ġdemonstrated":11708,"Ġdangerous":11709,"ĠDrama":11710,"umberland":11711,"rift":11712,"Ġbeating":11713,"Ġclinical":11714,"upt":11715,"ensen":11716,"ĠSA":11717,"USA":11718,"Ben":11719,"Ġconnections":11720,"Ġhear":11721,"Ġelectricity":11722,"atta":11723,"Ġhorn":11724,"wareness":11725,"zig":11726,"Ġradical":11727,"ĠFacebook":11728,"iast":11729,"ĠOg":11730,"ĠMik":11731,"VP":11732,"Att":11733,"ĠWel":11734,"Ġvictim":11735,"Int":11736,"Ġagree":11737,"Ġdiscip":11738,"Ġvirus":11739,"ĠLar":11740,"Ġhoused":11741,"athi":11742,"Ġsample":11743,"omo":11744,"ĠSoon":11745,"imm":11746,"Ġtours":11747,"Short":11748,"Ġcod":11749,"Ġ71":11750,"ĠSean":11751,"ĠShin":11752,"pty":11753,"Ġ98":11754,"oku":11755,"ĠArabia":11756,"ĠActress":11757,"HC":11758,"Ġmanage":11759,"okie":11760,"ĠOcc":11761,"ĠThai":11762,"Ġcamps":11763,"Ġdesignation":11764,"Ġalter":11765,"Ġconductor":11766,"Ġrac":11767,"Ġ800":11768,"Ġwidth":11769,"Ġpitcher":11770,"ĠBaby":11771,"RI":11772,"Ġris":11773,"ocy":11774,"Ġdelivery":11775,"ĠFeat":11776,"ĠKerala":11777,"ĠArc":11778,"ĠÃĹ":11779,"Ġplayoff":11780,"mother":11781,"Ġseeing":11782,"Ġconclusion":11783,"Ġpractical":11784,"Ġdisestablish":11785,"Ġ().":11786,"gebra":11787,"Ġcontributing":11788,"Ġsalt":11789,"ĠBatt":11790,"ortion":11791,"Ġgross":11792,"Ġclan":11793,"written":11794,"ĠPrice":11795,"Charts":11796,"Ġpersu":11797,"umbai":11798,"ĠEssex":11799,"Ġmaps":11800,"Ġreporter":11801,"ĠLamb":11802,"ĠTong":11803,"ĠGuild":11804,"ĠNathan":11805,"iao":11806,"iffs":11807,"pring":11808,"ĠOutstanding":11809,"ĠAbu":11810,"Ġdebuts":11811,"wid":11812,"1910":11813,"Ġmarry":11814,"ĠFinancial":11815,"ructions":11816,"Ġgram":11817,"Ġmixing":11818,"Ġvariant":11819,"itol":11820,"ĠSecondary":11821,"Do":11822,"Ġdoors":11823,"lee":11824,"ĠDin":11825,"Ġregul":11826,"ĠAx":11827,"ĠMorning":11828,"Hol":11829,"Ġsubmitted":11830,"Ġbin":11831,"Ġsailed":11832,"histor":11833,"ĠNotable":11834,"ĠGas":11835,"ĠWu":11836,"Ġacknowled":11837,"ĠNashville":11838,"Ġinterviews":11839,"abs":11840,"ĠIdaho":11841,"Ġcrossed":11842,"ĠNext":11843,"ĠAires":11844,"ĠSyrian":11845,"Ġbonus":11846,"two":11847,"Ġinternationally":11848,"ĠUnlike":11849,"ĠPrague":11850,"Ġideal":11851,"Ġleagues":11852,"Ġuncertain":11853,"Ġsugar":11854,"Ġhyper":11855,"Ġinfluences":11856,"Ġdevoted":11857,"Ġtruck":11858,"ucc":11859,"Ġtribute":11860,"sub":11861,"Ġcondem":11862,"Ġmos":11863,"ĠBeth":11864,"))":11865,"Ġretreat":11866,"Ġacquisition":11867,"Ġessay":11868,"uclear":11869,"Ġaqu":11870,"ĠRoche":11871,"itus":11872,"Ġusage":11873,"Ġcampaigns":11874,"Ġcattle":11875,"ĠNewton":11876,"borg":11877,"songwriter":11878,"inf":11879,"Ġoriginated":11880,"ĠRaw":11881,"anion":11882,"cor":11883,"ĠWinn":11884,"ĠEngineers":11885,"ĠMS":11886,"ĠSomerset":11887,"uran":11888,"Ġdiscrim":11889,"ĠSyl":11890,"free":11891,"Ġstrengthen":11892,"omi":11893,"1925":11894,"Ġcompositions":11895,"omes":11896,"Ġdominant":11897,"ĠDictionary":11898,"ĠStef":11899,"rection":11900,"ĠShep":11901,"ĠRhodes":11902,"ĠBond":11903,"avier":11904,"Ġtons":11905,"ĠMut":11906,"ĠShir":11907,"ÄŁ":11908,"ĠPalmer":11909,"apest":11910,"Ġ1848":11911,"Ġsisters":11912,"ĠAbraham":11913,"boys":11914,"Ġbattery":11915,"ĠIng":11916,"Ġward":11917,"irm":11918,"Ġeligible":11919,"Ġlanded":11920,"Ġrequested":11921,"aude":11922,"ĠPic":11923,"ĠPod":11924,"ĠCork":11925,"Ġmamm":11926,"Ġhunting":11927,"ĠHarbor":11928,"Ġoutbreak":11929,"ĠPaulo":11930,"1921":11931,"Distribution":11932,"Ġgauge":11933,"Pres":11934,"Carl":11935,"eded":11936,"ĠTibet":11937,"ä¸":11938,"Ġ1869":11939,"Ġninet":11940,"Ġviolent":11941,"ĠScientific":11942,"Ġbiological":11943,"unning":11944,"Ġrespective":11945,"Ġexercise":11946,"Ġsymp":11947,"Ġcoup":11948,"Ġlayer":11949,"ĠCha":11950,"essa":11951,"osevelt":11952,"Ġoverseas":11953,"ĠStrateg":11954,"ĠKil":11955,"Ġintention":11956,"Ġthereafter":11957,"ben":11958,"Mat":11959,"BL":11960,"Business":11961,"rows":11962,"Ġreaches":11963,"Ġcolspan":11964,"ĠJacques":11965,"ĠOber":11966,"lif":11967,"Ġflights":11968,"ĠWilhelm":11969,"Mary":11970,"eps":11971,"Ġeconomics":11972,"Ġnovelists":11973,"ibilities":11974,"ea":11975,"Ġels":11976,"ĠObama":11977,"Ġwealthy":11978,"ĠGhost":11979,"1924":11980,"Ireland":11981,"ĠTommy":11982,"Ġphotographer":11983,"Ġwaste":11984,"Ġindustries":11985,"Ġmidfielders":11986,"ĠHaz":11987,"Ġcooperation":11988,"Ġconventional":11989,"Ġmeat":11990,"Ġjury":11991,"unda":11992,"prus":11993,"lain":11994,"ĠWald":11995,"ĠMerit":11996,"Ġsket":11997,"Ġfifteen":11998,"cycle":11999,"ĠKnights":12000,"ĠNear":12001,"Ġsuppress":12002,"ĠRaid":12003,"Ġhouseholder":12004,"Ġlatest":12005,"itro":12006,"ettes":12007,"ĠJoint":12008,"ĠSaskatchewan":12009,"ĠDeuts":12010,"rawn":12011,"Ġdepartments":12012,"agers":12013,"oday":12014,"1926":12015,"Mor":12016,"Ġventure":12017,"Ġpermission":12018,"ĠTransportation":12019,"Syn":12020,"byter":12021,"Ġtraditionally":12022,"Ġexecution":12023,"ĠHigher":12024,"ĠJunction":12025,"country":12026,"ĠForum":12027,"rooms":12028,"Ġshopping":12029,"grim":12030,"rets":12031,"Ġformula":12032,"Head":12033,"ĠByzantine":12034,"Rob":12035,"ĠYugoslavia":12036,"Sk":12037,"Ġathlete":12038,"Ġlistings":12039,"emies":12040,"ricks":12041,"ĠSoci":12042,"irth":12043,"Ġpromoting":12044,"Ġkidn":12045,"ĠWithin":12046,"Ġtemperatures":12047,"Ġcorresponding":12048,"Ġpowered":12049,"uted":12050,"ĠGaz":12051,"Players":12052,"ĠSpencer":12053,"hall":12054,"ĠAnnual":12055,"ĠRenaissance":12056,"ĠKrish":12057,"Ġhoriz":12058,"OL":12059,"isha":12060,"aurus":12061,"FI":12062,"Ġpreparation":12063,"Ġ1859":12064,"Ġtot":12065,"Ġexpand":12066,"ĠEld":12067,"marks":12068,"ĠJoan":12069,"vol":12070,"ĠArchive":12071,"ificate":12072,"Ġsmooth":12073,"ĠCec":12074,"ĠGabriel":12075,"eting":12076,"ĠVilla":12077,"Jack":12078,"Ġnut":12079,"Ġdisestablishments":12080,"vor":12081,"1923":12082,"ĠFilms":12083,"ĠLok":12084,"ĠTherefore":12085,"Ġritual":12086,"ĠRah":12087,"Win":12088,"Ġriding":12089,"Ġtrump":12090,"rah":12091,"Ġrarely":12092,"tracks":12093,"onne":12094,"uin":12095,"Ġvertical":12096,"esis":12097,"Ð´":12098,"Ġcircle":12099,"Ġguar":12100,"olics":12101,"icing":12102,"ĠEcuador":12103,"Ġenh":12104,"rency":12105,"Ġsaved":12106,"Polish":12107,"Ġhope":12108,"Ġexhibitions":12109,"ĠMachine":12110,"Jim":12111,"Ã©g":12112,"Ġnegotiations":12113,"ĠMusical":12114,"Ġrecognised":12115,"ĠClarke":12116,"Ġelsewhere":12117,"ĠMontgomery":12118,"phib":12119,"Ġ97":12120,"Ġidentical":12121,"ĠBened":12122,"ussels":12123,"ĠKash":12124,"Team":12125,"ĠNak":12126,"Ġcompetitors":12127,"ĠRams":12128,"Ġprices":12129,"ĠWag":12130,"ĠChi":12131,"went":12132,"Ġfinance":12133,"oyage":12134,"ĠDiamond":12135,"ĠPalestine":12136,"ĠPhilosophy":12137,"uche":12138,"Camp":12139,"Ġexpensive":12140,"isi":12141,"namese":12142,"Little":12143,"ĠRevolutionary":12144,"Ġ1857":12145,"Ġargument":12146,"ĠHat":12147,"ĠArchitecture":12148,"ĠPanama":12149,"ĠFig":12150,"Ġinducted":12151,"Ġties":12152,"Ġcyl":12153,"ucker":12154,"Ġconstitut":12155,"onnie":12156,"ĠSwan":12157,"Ġtill":12158,"ĠSheffield":12159,"Ġshift":12160,"Ġrestricted":12161,"arc":12162,"ashes":12163,"stead":12164,"Ġnam":12165,"Ġcarrier":12166,"Ġgrows":12167,"ĠArg":12168,"Ġsounds":12169,"ships":12170,"phis":12171,"ĠNorthwest":12172,"ĠAgriculture":12173,"Ġreorgan":12174,"ĠOscar":12175,"Ġpianist":12176,"Ġsummit":12177,"eor":12178,"uras":12179,"Ġrestaurants":12180,"Ġremix":12181,"Ġmetropolitan":12182,"Ġadventure":12183,"ĠAmbassador":12184,"Ġalternate":12185,"igar":12186,"log":12187,"ymph":12188,"ĠCarr":12189,"ashire":12190,"Ġearthquake":12191,"Ġslaves":12192,"Ġvisits":12193,"ĠSony":12194,"Os":12195,"ĠOrd":12196,"Ġmarch":12197,"Let":12198,"Ġathletics":12199,"ĠDanny":12200,"ĠStockholm":12201,"okes":12202,"Ġmanaging":12203,"Western":12204,"Ġdescribing":12205,"Ġinternet":12206,"aton":12207,"oses":12208,"Ġvel":12209,"ĠMethodist":12210,"ĠKer":12211,"ĠBod":12212,"angular":12213,"ĠSold":12214,"2020":12215,"ĠRelations":12216,"Ġinterpretation":12217,"ĠReturn":12218,"Ġorn":12219,"ocket":12220,"Ñı":12221,"ĠPrivate":12222,"Ġib":12223,"ĠSebast":12224,"ĠFranco":12225,"ĠVent":12226,"Ġaviation":12227,"Ġcanal":12228,"ĠOriginally":12229,"adier":12230,"ĠSudan":12231,"Ġlocalities":12232,"Non":12233,"Ġ92":12234,"week":12235,"Ġbutter":12236,"Ġaccessible":12237,"isp":12238,"Ġbrands":12239,"ĠYellow":12240,"ĠMD":12241,"Ġpret":12242,"Ġspir":12243,"osexual":12244,"Ġcompiled":12245,"ĠBuenos":12246,"ĠKor":12247,"Ġsubsc":12248,"ĠGy":12249,"City":12250,"ĠRomanized":12251,"Ġexhibited":12252,"ĠOct":12253,"ĠDelta":12254,"ĠRuth":12255,"ĠChan":12256,"ĠJen":12257,"ĠRank":12258,"Jud":12259,"ĠWed":12260,"Ġreceives":12261,"ĠDistinguished":12262,"Ġtravelled":12263,"ĠKill":12264,"ĠSul":12265,"ducing":12266,"ĠLGBT":12267,"Ġtechnologies":12268,"Joseph":12269,"Ġsufficient":12270,"Taxonomy":12271,"enhagen":12272,"eplay":12273,"CAR":12274,"Ġeggs":12275,"ĠStudent":12276,"ĠCardinals":12277,"Ġrocks":12278,"Ġparticipating":12279,"ovanni":12280,"Ġforg":12281,"ĠVoice":12282,"ĠWorkers":12283,"iens":12284,"Ġextensively":12285,"Ġchron":12286,"ĠGuitar":12287,"Ġ79":12288,"ĠJin":12289,"ĠDaw":12290,"Ġexposure":12291,"ĠFish":12292,"boro":12293,"Ġguests":12294,"Ġrid":12295,"ĠGamb":12296,"Ġrelegated":12297,"ĠLegion":12298,"afe":12299,"dess":12300,"ĠSchol":12301,"Sur":12302,"Ġfill":12303,"ĠKi":12304,"á¹":12305,"Ġreporting":12306,"ilian":12307,"Ma":12308,"ĠThorn":12309,"ĠXX":12310,"month":12311,"Ġabsol":12312,"Ġattempting":12313,"ĠFoster":12314,"ĠOtto":12315,"Ġrum":12316,"ĠJak":12317,"ĠRailways":12318,"omber":12319,"Ter":12320,"ĠTir":12321,"Ġusual":12322,"ĠHitler":12323,"Ġsurpr":12324,"entry":12325,"Ġwritings":12326,"ĠSussex":12327,"Ġsymptoms":12328,"Ġfasc":12329,"ĠEagle":12330,"ĠCameron":12331,"hn":12332,"ĠArchives":12333,"ĠWheel":12334,"Ġpharm":12335,"Ġmini":12336,"writing":12337,"ĠGmina":12338,"ĠAndrÃ©":12339,"Four":12340,"Ġelementary":12341,"icia":12342,"ĠReading":12343,"edo":12344,"Ġavo":12345,"alm":12346,"ĠMiguel":12347,"Ġfighters":12348,"apur":12349,"Ġspecialized":12350,"Ġaccel":12351,"Ġpioneer":12352,"Av":12353,"cott":12354,"1917":12355,"ĠLac":12356,"Ġerror":12357,"Ġmit":12358,"ãĢ":12359,"ĠMidd":12360,"Ġdiplomatic":12361,"ĠReform":12362,"Ġju":12363,"Three":12364,"zing":12365,"Ġstructural":12366,"Ġpreferred":12367,"Ann":12368,"roduction":12369,"ĠIP":12370,"ĠFly":12371,"ĠMuch":12372,"Ġincumbent":12373,"Ġranging":12374,"ected":12375,"ĠBennett":12376,"Ġdisch":12377,"ĠImm":12378,"Ġanthrop":12379,"Ġ87":12380,"Ġillustrated":12381,"fr":12382,"tor":12383,"intendo":12384,"Ġnephew":12385,"umps":12386,"ĠDame":12387,"Ġ1830":12388,"Ġneutral":12389,"ĠVict":12390,"esse":12391,"Ġlooked":12392,"Ġdepicted":12393,"Ġrelevant":12394,"Ġdecide":12395,"ĠManit":12396,"four":12397,"ĠNC":12398,"ocene":12399,"ĠRoosevelt":12400,"illon":12401,"ĠEight":12402,"Long":12403,"ĠKas":12404,"Ġgardens":12405,"ĠRonald":12406,"piece":12407,"Ġ101":12408,"ĠFranz":12409,"ĠOw":12410,"Ġassists":12411,",âĢĿ":12412,"anti":12413,"ĠVladimir":12414,"Ġasc":12415,"Ġpriests":12416,"Ġperspective":12417,"Ġ84":12418,"levard":12419,"alling":12420,"ĠMaurice":12421,"ĠBears":12422,"Ġpupils":12423,"Ġacres":12424,"ĠMarx":12425,"Ġhybrid":12426,"Social":12427,"Ġtight":12428,"Ġfundamental":12429,"alus":12430,"Tor":12431,"ĠMilwaukee":12432,"oots":12433,"lag":12434,"Ġtorped":12435,"Game":12436,"ĠMumbai":12437,"Ġobst":12438,"ĠCircle":12439,"ĠLot":12440,"Day":12441,"Ġdeck":12442,"Ġpartial":12443,"istration":12444,"legraph":12445,"Ġanimation":12446,"Ġcertified":12447,"Ġalive":12448,"Ġdepression":12449,"Ġmoral":12450,"rike":12451,"Ġfarming":12452,"ĠAj":12453,"Ġcartoon":12454,"ĠPlayers":12455,"ĠBag":12456,"ĠDevon":12457,"ĠTunis":12458,"Ġlakes":12459,"Ġsung":12460,"ternoon":12461,"rea":12462,"amy":12463,"ĠValent":12464,"Ġdeparted":12465,".:":12466,"ĠVII":12467,"Ġdefended":12468,"iden":12469,"ĠXV":12470,"Ġattendance":12471,"fa":12472,"Ġslave":12473,"ĠReed":12474,"Ġunlike":12475,"Ġresid":12476,"aksh":12477,"Ġroot":12478,"Ġtaxes":12479,"horn":12480,"Î¹":12481,"odia":12482,"ĠDivisiÃ³n":12483,"imensional":12484,"through":12485,"Ġrevised":12486,"ĠJava":12487,"Ġpetition":12488,"onso":12489,"ĠRus":12490,"itic":12491,"ĠInstitut":12492,"ĠCornwall":12493,"ĠArticle":12494,"Del":12495,"Ġremote":12496,"oko":12497,"ĠManila":12498,"ĠExped":12499,"Ġexclusive":12500,"Ġchallenges":12501,"ĠDurham":12502,"Ġaboard":12503,"ĠContest":12504,"Ġwinds":12505,"iability":12506,"Ġministry":12507,"Ġvariable":12508,"ĠBros":12509,"GM":12510,"Sil":12511,"forming":12512,"aris":12513,"ĠPerth":12514,"Columb":12515,"Ġthriller":12516,"Ġnickname":12517,"Ġcarries":12518,"ĠLaura":12519,"Ġextend":12520,"ĠColumbus":12521,"Ġdollars":12522,"Ġhills":12523,"Ġinstruction":12524,"stand":12525,"Ġaffair":12526,"DR":12527,"mons":12528,"ĠJamaica":12529,"Ġthinking":12530,"atics":12531,"Ġburned":12532,"ĠTodd":12533,"Ġinspiration":12534,"rupted":12535,"Ġresignation":12536,"Ġchemistry":12537,"iliary":12538,"Ġwalking":12539,"ĠPos":12540,"Op":12541,"ĠPain":12542,"axy":12543,"Ġbirthday":12544,"Ġorchest":12545,"Ġ93":12546,"Ġanswer":12547,"official":12548,"etters":12549,"IF":12550,"rapped":12551,"ĠGrande":12552,"Ġextinct":12553,"lane":12554,"embourg":12555,"Asian":12556,"Ġtherapy":12557,"Serv":12558,"ĠVern":12559,"ĠCox":12560,"Ġfat":12561,"ĠÃł":12562,"ĠGT":12563,"ĠKarn":12564,"andra":12565,"ĠCinema":12566,"Ġcooper":12567,"Ġca":12568,"Ġfilming":12569,"ĠNottingham":12570,"Ġwider":12571,"Ġgrades":12572,"ĠâĨĴ":12573,"Ġcopper":12574,"Ġinherited":12575,"ĠMario":12576,"ĠKol":12577,"uncan":12578,"Ġspend":12579,"lights":12580,"ĠOverall":12581,"Ġsteep":12582,"áĥ":12583,"Ġtheories":12584,"Ġ89":12585,"Ġconfess":12586,"Ġdoct":12587,"Northern":12588,"ĠHous":12589,"Ġflew":12590,"Ġtargets":12591,"Ġcomfort":12592,"ĠLess":12593,"Greek":12594,"even":12595,"Ġuniverse":12596,"Ġphrase":12597,"Ġpointed":12598,"abwe":12599,"irts":12600,"Ġenrolled":12601,"Ġrig":12602,"Ġcoins":12603,"ĠMang":12604,"ĠChapter":12605,"direct":12606,"Ġbath":12607,"ĠPath":12608,"Ġapproached":12609,"Ġevolved":12610,"first":12611,"ĠKin":12612,"Ġupdated":12613,"Ġnarrative":12614,"atsu":12615,"Ġbelongs":12616,"brook":12617,"Ġmeasured":12618,"ployment":12619,"ĠDominican":12620,"!!":12621,"Ġcolumns":12622,"ĠJung":12623,"Ġvocalist":12624,"ĠTall":12625,"ĠUganda":12626,"Between":12627,"Ġroster":12628,"âĢ¢":12629,"Ġ86":12630,"Ġunless":12631,"Ġconven":12632,"ivo":12633,"Ġtens":12634,"Brazilian":12635,"ĠIsaac":12636,"Ġgran":12637,"Ġlisten":12638,"Ġmonthly":12639,"ĠHir":12640,"ĠCraw":12641,"Ġhttps":12642,"ischer":12643,"Ġrevers":12644,"Ġplain":12645,"oirs":12646,"amation":12647,"families":12648,"ĠMonday":12649,"Ã©m":12650,"Ġinstallation":12651,"Ġcavalry":12652,"Î½":12653,"Ġconsolid":12654,"apters":12655,"cano":12656,"Ġshops":12657,"ĠWeekly":12658,"oland":12659,"isan":12660,"ĠLex":12661,"Ġzero":12662,"Ġmidfielder":12663,"ĠVe":12664,"Ġruler":12665,"HF":12666,"Ġbeetle":12667,"ĠArmed":12668,"fast":12669,"length":12670,"acco":12671,"Ġdisaster":12672,"iour":12673,"ĠRovers":12674,"Ġexplains":12675,"Cor":12676,"ĠCyprus":12677,"Ġrecovery":12678,"DE":12679,"Athletes":12680,"GC":12681,"ĠGlou":12682,"Ġrevol":12683,"sized":12684,"Ġoptions":12685,"listed":12686,"Ġdepict":12687,"Species":12688,"Ġ1854":12689,"Ġtested":12690,"Ġphysic":12691,"imbabwe":12692,"Ham":12693,"ĠBras":12694,"acles":12695,"Ġdownload":12696,"Ġcoron":12697,"Ġcruc":12698,"Ġsam":12699,"itan":12700,"Ġmonarch":12701,"ĠJur":12702,"ĠCompetition":12703,"omed":12704,"arv":12705,"Ġà¤":12706,"Ġfiles":12707,"Municip":12708,"Ġblues":12709,"Central":12710,"ĠMechan":12711,"Ġspeaker":12712,"ĠMales":12713,"adows":12714,"ÃĹ":12715,"ĠLiberty":12716,"ishi":12717,"ĠSett":12718,"umer":12719,"icz":12720,"Ġpermitted":12721,"ĠBelarus":12722,"clos":12723,"weep":12724,"ĠMull":12725,"aru":12726,"icity":12727,"ĠWhe":12728,"len":12729,"aders":12730,"ĠDy":12731,"ĠStories":12732,"600":12733,"Ġsyndrome":12734,"ĠLaboratory":12735,"lia":12736,"Ġboss":12737,"ĠIndies":12738,"Ġmagic":12739,"Ġcollaborated":12740,"ups":12741,"ĠMTV":12742,"Ġtub":12743,"Ġmans":12744,"that":12745,"Sched":12746,"1912":12747,"ĠTree":12748,"ĠWals":12749,"Pe":12750,"Ġawareness":12751,"ĠStill":12752,"eme":12753,"Ġevil":12754,"ĠHarper":12755,"Bro":12756,"riculum":12757,"Ġspeakers":12758,"alin":12759,"ĠIraqi":12760,"Writers":12761,"ĠBee":12762,"ĠKumar":12763,"Ġ1855":12764,"Rugby":12765,"Ġarchitects":12766,"Äĩ":12767,"front":12768,"egovina":12769,"phab":12770,"Ġcompound":12771,"Ġenters":12772,"Ġfulf":12773,"ĠEC":12774,"vy":12775,"Ġlegislature":12776,"ĠStakes":12777,"Ġ91":12778,"ĠVolunte":12779,"ĠLancashire":12780,"post":12781,"ĠSey":12782,"ĠCabinet":12783,"Ġdistinction":12784,"ĠPearl":12785,"Ġescaped":12786,"Est":12787,"Ġpredecessor":12788,"Ġdifficulties":12789,"named":12790,"Ġslowly":12791,"atorial":12792,"Ġremoval":12793,"Ġbombing":12794,"Ġcoat":12795,"Ġtum":12796,"ĠAhmed":12797,"Ġenthus":12798,"Ġannex":12799,"Ġ83":12800,"Ġmanuscript":12801,"ocumentary":12802,"Mah":12803,"Ġfastest":12804,"ĠPrinceton":12805,"Ġcalendar":12806,"ĠPete":12807,"ÏĦ":12808,"ĠâĤ¬":12809,"Ġmainstream":12810,"Ġna":12811,"ĠKate":12812,"Ġarriving":12813,"ĠESP":12814,"ĠFurthermore":12815,"inas":12816,"Ġbuses":12817,"Ġguitars":12818,"Ġtalks":12819,"ĠBrooks":12820,"ĠPract":12821,"Ġcitizen":12822,"compass":12823,"icken":12824,"Jean":12825,"ĠUniverse":12826,"ĠWildlife":12827,"ÅĽ":12828,"ĠSabha":12829,"Ġatmosphere":12830,"zed":12831,"Ġtourist":12832,"igrant":12833,"Belg":12834,"Ġcomparison":12835,"urse":12836,"ĠGeoff":12837,"Ġcentres":12838,"Ġprove":12839,"owing":12840,"ĠFourth":12841,"Ġhospitals":12842,"ĠPeng":12843,"aji":12844,"Ġreducing":12845,"Ġ1800":12846,"ĠUrugu":12847,"azar":12848,"Ġarrangements":12849,"Ġframework":12850,"Ġpist":12851,"ĠAw":12852,"NT":12853,"Ġcomprehensive":12854,"ĠDesert":12855,"Oh":12856,"itary":12857,"ĠLucas":12858,"Ġchrom":12859,"Ġhence":12860,"Ġticket":12861,"rary":12862,"Ġdisorder":12863,"Ġcharacteristic":12864,"SL":12865,"makers":12866,"Ġautomatic":12867,"Ġprocedure":12868,"Ġdecorated":12869,"Ġrice":12870,"Fred":12871,"ĠXI":12872,"800":12873,"avian":12874,"ĠFoot":12875,"Ġhidden":12876,"ĠTrain":12877,"ĠQuest":12878,"Ġcontrols":12879,"osophical":12880,"ĠSep":12881,"Ġ1858":12882,"Towns":12883,"Ġexcellent":12884,"izard":12885,"Ġgraduation":12886,"Ġdisbanded":12887,"ĠExhibition":12888,"Ġexperiments":12889,"Ġkeyboard":12890,"Ġlogo":12891,"ĠWik":12892,"Ġages":12893,"Ġsitting":12894,"Ġsimultaneously":12895,"ĠCardinal":12896,"harm":12897,"fred":12898,"Ġlocomotive":12899,"Ġsciences":12900,"Ġradar":12901,"ller":12902,"than":12903,"SE":12904,"Ġclosure":12905,"ĠPon":12906,"Ġinformed":12907,"Ġlooks":12908,"terbury":12909,"ĠBrid":12910,"ĠApost":12911,"ĠTheory":12912,"Ġpilots":12913,"ĠIsle":12914,"Ġha":12915,"ondo":12916,"uto":12917,"uchi":12918,"ĠWestminster":12919,"ĠParks":12920,"Ġraising":12921,"Ġbrigade":12922,"Atlant":12923,"ĠJohannes":12924,"Smith":12925,"Sen":12926,"ections":12927,"ĠMade":12928,"ĠMC":12929,"utical":12930,"Ġpairs":12931,"Ġbell":12932,"ĠBelf":12933,"Ġorganic":12934,"ĠHeights":12935,"Ġinhab":12936,"Ġtributary":12937,"ependent":12938,"Dis":12939,"asm":12940,"Ġcollaps":12941,"Ġpulled":12942,"orum":12943,"Ġdemands":12944,"ĠOwen":12945,"Ġinterchange":12946,"ĠAaron":12947,"ĠBun":12948,"ĠOakland":12949,"inating":12950,"ĠPi":12951,"vens":12952,"ĠResources":12953,"1916":12954,"Ġveteran":12955,"ĠEdmund":12956,"ĠReich":12957,"ĠMold":12958,"1900":12959,"Ġstudios":12960,"enzo":12961,"entieth":12962,"inery":12963,"Det":12964,"Ġarchaeological":12965,"1915":12966,"ĠOz":12967,"ĠThose":12968,"ĠBM":12969,"ĠProvincial":12970,"Ġbull":12971,"Po":12972,"ĠPhysics":12973,"ocals":12974,"Ġrifle":12975,"ĠBiography":12976,"AL":12977,"Ġsocieties":12978,"Ġcommenced":12979,"Ġworn":12980,"ewell":12981,"ĠNancy":12982,"1913":12983,"Ġangle":12984,"holders":12985,"ĠCC":12986,"Ġlabels":12987,"Ġdialect":12988,"ĠPick":12989,"ĠEff":12990,"ĠTalk":12991,"Ġworst":12992,"ĠOwn":12993,"ĠGardens":12994,"ĠTrin":12995,"ĠScout":12996,"Ġranges":12997,"Ġcrosses":12998,"Ġremark":12999,"itzer":13000,"ĠAny":13001,"brev":13002,"elly":13003,"anz":13004,"Ġbachelor":13005,"Ġdescendants":13006,"Ġtox":13007,"ĠSweet":13008,"lit":13009,"Ġvirtual":13010,"onica":13011,"Ġblind":13012,"ĠPlanet":13013,"ĠMine":13014,"Ġdrink":13015,"onnaissance":13016,"Ġhardware":13017,"Ġfeelings":13018,"Ġdistinctive":13019,"lic":13020,"ĠLakes":13021,"ambers":13022,"gence":13023,"ĠSullivan":13024,"ĠIndex":13025,"uchy":13026,"Ġpunk":13027,"Ġapproaches":13028,"igi":13029,"ĠTravel":13030,"oye":13031,"gary":13032,"ĠGand":13033,"rh":13034,"Ã½":13035,"Source":13036,"ĠParad":13037,"irates":13038,"Ġincom":13039,"Ġload":13040,"ĠGren":13041,"Ġfib":13042,"Ġcomputers":13043,"Ġsiege":13044,"Ã©d":13045,"isons":13046,"ĠPand":13047,"Ġpsychology":13048,"Ġquarterback":13049,"Ġplacing":13050,"ĠCitiz":13051,"ĠWatch":13052,"ĠFras":13053,"pel":13054,"ĠPent":13055,"ĠSalvador":13056,"intendent":13057,"ĠTab":13058,"Ġpromin":13059,"Ġabilities":13060,"Ġexactly":13061,"Ġhypothes":13062,"Ġrecalled":13063,"Stand":13064,"Ġtenth":13065,"Ġdeemed":13066,"forced":13067,"Compet":13068,"rous":13069,"Ġcorruption":13070,"Ġstead":13071,"Ġratings":13072,"ĠComedy":13073,"Ġswitched":13074,"ĠFat":13075,"Ġproof":13076,"Ġspell":13077,"Water":13078,"ĠAltern":13079,"eling":13080,"Special":13081,"zyme":13082,"Ġcollapse":13083,"Ġdesert":13084,"south":13085,"Ġenemies":13086,"ĠSter":13087,"ĠPrison":13088,"Off":13089,"Ġassum":13090,"arms":13091,"ĠRan":13092,"ĠAlbums":13093,"width":13094,"umm":13095,"Ġartwork":13096,"ĠShortly":13097,"Ġoutdoor":13098,"Ġaccompany":13099,"Bob":13100,"ĠStevens":13101,"Foot":13102,"ĠSlav":13103,"Ġdissolved":13104,"Norwegian":13105,"Ġjudg":13106,"Ġstops":13107,"ĠSuff":13108,"Ġresol":13109,"ĠIndonesian":13110,"Ġconcepts":13111,"hm":13112,"Ġcollective":13113,"his":13114,"ĠCase":13115,"ĠJustin":13116,"ĠCopenhagen":13117,"Ġdifficulty":13118,"Ġobjective":13119,"ĠGovern":13120,"Ġconsumption":13121,"Ġsharing":13122,"ĠFaith":13123,"Cath":13124,"Ġreserves":13125,"Common":13126,"Ã¤r":13127,"Ġmissile":13128,"Articles":13129,"Ġbankrupt":13130,"Ġcapita":13131,"Ġ94":13132,"Ġresumed":13133,"ĠHindi":13134,"ĠAur":13135,"founder":13136,"ĠHalf":13137,"MD":13138,"Ġquad":13139,"owder":13140,"Ġintercept":13141,"lando":13142,"ĠCF":13143,"ointing":13144,"ĠHerzegovina":13145,"Ġtemporarily":13146,"Serb":13147,"Ġplastic":13148,"ĠĠĠĠĠ":13149,"Ġ1852":13150,"ateral":13151,"ĠIndianapolis":13152,"ĠAngels":13153,"ĠKazakh":13154,"Ġfootage":13155,"erness":13156,"ĠHero":13157,"arin":13158,"Direct":13159,"Stat":13160,"Ġbats":13161,"Ġemphasis":13162,"usa":13163,"urated":13164,"Ġqualification":13165,"ĠSou":13166,"Ġlegacy":13167,"ĠNine":13168,"Ġtelling":13169,"Ġairline":13170,"monton":13171,"Ġcathedral":13172,"ĠWhere":13173,"Ġopens":13174,"ĠJulian":13175,"Politics":13176,"ĠDim":13177,"Ġvariation":13178,"Ġcoinc":13179,"Ġsamples":13180,"Ġpatent":13181,"Ġloop":13182,"beat":13183,"Ġexplan":13184,"Ġendors":13185,"Ġexhibit":13186,"ĠSpider":13187,"SF":13188,"Ġemotional":13189,"Ġ1856":13190,"stanbul":13191,"ĠEngineer":13192,"ĠHeaven":13193,"ĠHD":13194,"iffe":13195,"fin":13196,"ĠThor":13197,"angered":13198,"ĠArchae":13199,"ĠWoods":13200,"Ġing":13201,"Arthur":13202,"ĠSex":13203,"Ġsolutions":13204,"Ġsupplied":13205,"Treaties":13206,"ocent":13207,"Events":13208,"ĠPakistani":13209,"Ġfeud":13210,"Ġsure":13211,"feat":13212,"Ġworker":13213,"cludes":13214,"dinand":13215,"Ġprosecut":13216,"Ġbasin":13217,"tense":13218,"ubb":13219,"Ġconnects":13220,"ĠCov":13221,"hou":13222,"ĠCampus":13223,"Ġaspect":13224,"Ġflex":13225,"ĠCyr":13226,"ĠGrammy":13227,"SM":13228,"Prior":13229,"Ġcomprises":13230,"ĠLiu":13231,"Mer":13232,"ĠLisa":13233,"Ã¯":13234,"Ġpeer":13235,"ĠManitoba":13236,"attered":13237,"ĠDas":13238,"Ġtravels":13239,"Ġphilosopher":13240,"ĠAges":13241,"Ġachievement":13242,"Ol":13243,"Ġimprovements":13244,"ĠVil":13245,"Ġforty":13246,"manuel":13247,"Ġarrives":13248,"ĠExpedition":13249,"ĠRemix":13250,"Ġfavorite":13251,"Ġimprisoned":13252,"iott":13253,"ĠPoetry":13254,"speed":13255,"Wind":13256,"ĠFolk":13257,"ĠMalta":13258,"ĠTiger":13259,"byterian":13260,"Ġdefender":13261,"endum":13262,"Ġcorps":13263,"ĠFinals":13264,"ĠWarri":13265,"Ġcasualties":13266,"Ġsculptor":13267,"uisine":13268,"ĠNg":13269,"Work":13270,"Ġinteraction":13271,"ĠFul":13272,"Blue":13273,"Ġrelating":13274,"Ġgrandson":13275,"arians":13276,"uxiliary":13277,"Ġfraud":13278,"ĠCust":13279,"Ġtourism":13280,"ĠVid":13281,"ĠProper":13282,"ĠLegend":13283,"tre":13284,"Ġphilanthrop":13285,"acked":13286,"Ġsupplement":13287,"ĠAmazon":13288,"Ġorg":13289,"ĠDavies":13290,"ogg":13291,"lez":13292,"Great":13293,"Ġconsumer":13294,"ĠGothic":13295,"Ġflash":13296,"Order":13297,"Ġsovereign":13298,"Ġdisapp":13299,"Ġpole":13300,"Ġsoph":13301,"Ly":13302,"ados":13303,"ÅĻ":13304,"Ġvolunteers":13305,"Ġsoap":13306,"andro":13307,"ĠMorocco":13308,"Ġexplicit":13309,"ĠMarcus":13310,"Ġenroll":13311,"Liber":13312,"Ġcoached":13313,"Ġathletic":13314,"Ġhyd":13315,"ĠHopkins":13316,"Fort":13317,"Design":13318,"Ġseemed":13319,"him":13320,"odor":13321,"Ġfeeling":13322,"Ġconscious":13323,"Ġaffiliate":13324,"ĠCeltic":13325,"Ġabolished":13326,"Ġnearest":13327,"ĠHolmes":13328,"ĠAbdul":13329,"Ġaw":13330,"ardi":13331,"Ġsporting":13332,"Ġansw":13333,"aping":13334,"ĠGÃ¶":13335,"Bul":13336,"Ġallies":13337,"Ġimpossible":13338,"Ġsignals":13339,"Ġå":13340,"Ġtone":13341,"Ġaggregate":13342,"Ġlib":13343,"egal":13344,"Ġbotan":13345,"ullah":13346,"chel":13347,"Ġmanip":13348,"Ġdramatic":13349,"ollo":13350,"ĠPom":13351,"ĠDynasty":13352,"Ġprinting":13353,"oura":13354,"Ġencompass":13355,"Ġverse":13356,"ĠSof":13357,"cul":13358,"Ġyard":13359,"empl":13360,"Ġ1851":13361,"Ġprox":13362,"=\"#":13363,"Ġchess":13364,"ĠEllis":13365,"Far":13366,"ĠLithuania":13367,"inemat":13368,"Ġassociations":13369,"Ġfounders":13370,"onal":13371,"ĠCauc":13372,"ĠCort":13373,"Ġclergy":13374,"Ġbreast":13375,"Ġdelayed":13376,"Ġcomments":13377,"Ġindicating":13378,"ĠSantiago":13379,"Hungarian":13380,"ĠRush":13381,"Ġautob":13382,"Ġgrav":13383,"Ġhistorically":13384,"Ber":13385,"Ġessentially":13386,"ĠAdvanced":13387,"ĠMobile":13388,"Ġmilk":13389,"apa":13390,"Ġcogn":13391,"iblical":13392,"ĠScreen":13393,"Ġartificial":13394,"ĠMotors":13395,"ĠHerald":13396,"Ġentertain":13397,"ĠSafety":13398,"ĠGuang":13399,"ĠGlass":13400,"Ġamounts":13401,"ĠUSS":13402,"Ġsuspension":13403,"Ġreferring":13404,"Ġresource":13405,"Ġeditors":13406,"rave":13407,"Ġresiding":13408,"earing":13409,"ĠBoulevard":13410,"ĠGuards":13411,"Ã¡r":13412,"vas":13413,"woman":13414,"Ġequation":13415,"eni":13416,"Ġtransmit":13417,"ĠKenneth":13418,"Ġthanks":13419,"colspan":13420,"ĠTat":13421,"ĠAN":13422,"ĠÃĸ":13423,"ĠSchw":13424,"Every":13425,"PP":13426,"ĠSaw":13427,"Overview":13428,"Ġoxygen":13429,"nut":13430,"ĠAchie":13431,"Ġposts":13432,"amine":13433,"ĠAch":13434,"mount":13435,"Ġprince":13436,"ĠPolitics":13437,"Ġundergraduate":13438,"Ġlaboratory":13439,"Ġwidow":13440,"ĠAna":13441,"ĠRice":13442,"Czech":13443,"Canada":13444,"Ġparking":13445,"Ġvow":13446,"umph":13447,"Ġcontracts":13448,"ĠWool":13449,"Ġexplain":13450,"quin":13451,"Ġinhib":13452,"encia":13453,"Georg":13454,"Ġpushed":13455,"ĠCu":13456,"Ġflank":13457,"Ġkilometers":13458,"ĠBrussels":13459,"ango":13460,"Ġcultures":13461,"fol":13462,"astics":13463,"Ġtape":13464,"ĠFra":13465,"inters":13466,"bird":13467,"Ġconsistent":13468,"ĠCatholics":13469,"ĠEis":13470,"Ġgolden":13471,"Ġgathered":13472,"Ġelevated":13473,"Bec":13474,"group":13475,"ĠFiction":13476,"Ġliv":13477,"prent":13478,"Ġsav":13479,"Ġtemples":13480,"assy":13481,"ienne":13482,"Ġattacking":13483,"Ġregulation":13484,"sup":13485,"ĠPiet":13486,"Modern":13487,"ĠLoc":13488,"ĠNobel":13489,"Through":13490,"speaking":13491,"ĠCavalry":13492,"Ġgraphics":13493,"Ġconfused":13494,"anie":13495,"ĠGael":13496,"pling":13497,"Ġwaiting":13498,"Ġprev":13499,"ĠDist":13500,"ĠCzechosl":13501,"Ġfifty":13502,"ĠAndrews":13503,"ĠBatman":13504,"ĠBak":13505,"ĠPalestinian":13506,"quet":13507,"orey":13508,"Ġcave":13509,"1911":13510,"regular":13511,"Ġorb":13512,"ĠAllan":13513,"ogo":13514,"Ġwasn":13515,"Washington":13516,"ĠPublications":13517,"ruce":13518,"quiry":13519,"arten":13520,"ĠTestament":13521,"ĠLook":13522,"turn":13523,"ĠAntarctic":13524,"Ġdevelopments":13525,"aneous":13526,"ĠArmstrong":13527,"esa":13528,"ĠBlake":13529,"made":13530,"arted":13531,"ĠEpiscopal":13532,"ĠHass":13533,"senal":13534,"Ġregister":13535,"ĠMetal":13536,"Chief":13537,"Ġefficiency":13538,"fortun":13539,"Ġelabor":13540,"Ġambassador":13541,"ĠTrip":13542,"Ġhappy":13543,"ieties":13544,"itudes":13545,"Ġdetail":13546,"fn":13547,"Ġtag":13548,"Like":13549,"ĠNASA":13550,"Ġgrave":13551,"Basketball":13552,"VA":13553,"ĠAccount":13554,"iatric":13555,"Ġoblig":13556,"Ġapprec":13557,"ĠTennis":13558,"ĠWyoming":13559,"Ġvictories":13560,"Ġemployee":13561,"raits":13562,"ĠTransit":13563,"Ġalien":13564,"ĠVietnamese":13565,"ĠDuncan":13566,"ulous":13567,"held":13568,"Ġlayout":13569,"Ġaccum":13570,"Ġbelt":13571,"Ġbehaviour":13572,"ĠCuban":13573,"bet":13574,"ĠShield":13575,"Ġshield":13576,"Ġboxing":13577,"ĠGerald":13578,"Ġadministered":13579,"Ġgrid":13580,"Dec":13581,"Ġretain":13582,"etles":13583,"ĠColin":13584,"ilda":13585,"lew":13586,"ĠWarriors":13587,"ĠLouise":13588,"ĠNadu":13589,"ĠPlayStation":13590,"Ġaware":13591,"Ġsin":13592,"Ġbreeding":13593,"Ġmoll":13594,"á¸":13595,"lov":13596,"Ġcomedian":13597,"Ġpoison":13598,"ĠNA":13599,"Ġ<":13600,"chy":13601,"Ġbroadcasts":13602,"Baseball":13603,"iba":13604,"ĠCorp":13605,"oil":13606,"EF":13607,"ĠZhang":13608,"olin":13609,"Ġseeds":13610,"ĠRodrig":13611,"250":13612,"ĠArmenia":13613,"Ġgift":13614,"ĠWonder":13615,"Local":13616,"Ġpermit":13617,"Vir":13618,"Ġstake":13619,"Ġinterface":13620,"Uk":13621,"Ïģ":13622,"Ġpayment":13623,"Ġdogs":13624,"ĠShadow":13625,"ĠShop":13626,"about":13627,"Novels":13628,"IDS":13629,"Ġaims":13630,"Ġoperators":13631,"emin":13632,"Taxa":13633,"ĠPowell":13634,"ĠFrankfurt":13635,"Ġgap":13636,"ĠRut":13637,"Ġglac":13638,"ĠDob":13639,"Ġwarfare":13640,"ĠFinally":13641,"Ġbone":13642,"ĠProp":13643,"ĠFernando":13644,"Ġreforms":13645,"Ġforth":13646,"adh":13647,"ĠAub":13648,"GS":13649,"ĠHus":13650,"ĠIF":13651,"ĠNewport":13652,"html":13653,"Record":13654,"erek":13655,"Ġnamely":13656,"Ġdiscontinued":13657,"imer":13658,"Ġunions":13659,"ĠTwenty":13660,"ĠBark":13661,"pes":13662,"Ġphosph":13663,"Ġcolonies":13664,"icism":13665,"oline":13666,"Ġdrinking":13667,"Ġ1847":13668,"gie":13669,"Ġempire":13670,"nal":13671,"Ġdisturb":13672,"Ġcelebration":13673,"Ġcouncill":13674,"edge":13675,"ustrated":13676,"Ġsaxophone":13677,"lies":13678,"Ġarrive":13679,"ipher":13680,"mail":13681,"Ġfunctional":13682,"onde":13683,"Ġfame":13684,"Ġfailing":13685,"ĠEventually":13686,"ĠCrist":13687,"ĠPor":13688,"Ġspots":13689,"Rou":13690,"Ġpitched":13691,"ĠPicture":13692,"racks":13693,"ĠHod":13694,"Schedule":13695,"PM":13696,"Ġdocumented":13697,"Ġsustained":13698,"Ġdict":13699,"Ġfamiliar":13700,"Several":13701,"xi":13702,"Ġheadquarter":13703,"Ġvaluable":13704,"idance":13705,"ipur":13706,"Ġtube":13707,"Ġbench":13708,"Fre":13709,"ĠSons":13710,"Ġmemor":13711,"Qual":13712,"immer":13713,"ĠPorter":13714,"ĠInterstate":13715,"books":13716,"ĠDj":13717,"ĠHaven":13718,"Ġfreight":13719,"bank":13720,"ĠUtt":13721,"Ġasking":13722,"common":13723,"Ġpresents":13724,"Ġrecruited":13725,"ĠKem":13726,"ĠAmy":13727,"Ġfaces":13728,"Ser":13729,"playing":13730,"ĠAA":13731,"ndez":13732,"Ġclient":13733,"Ġsharp":13734,"ĠLeslie":13735,"Ġdrove":13736,"ĠBloom":13737,"Ġpassion":13738,"nÃ©e":13739,"ĠOslo":13740,"uku":13741,"ĠAdventures":13742,"Ġfran":13743,"Ġvoiced":13744,"Bre":13745,"Coll":13746,"ĠWorth":13747,"Ġfaster":13748,"Victor":13749,"oque":13750,"Ġhonours":13751,"addy":13752,"Population":13753,"Ġdialogue":13754,"ĠArd":13755,"ĠHighland":13756,"role":13757,"second":13758,"ĠDale":13759,"asan":13760,"Ġunex":13761,"inced":13762,"Ġtelephone":13763,"ĠAgainst":13764,"Ġ1849":13765,"Ġwilling":13766,"forms":13767,"Techn":13768,"ĠLif":13769,"ĠVeter":13770,"ĠOst":13771,"Ġrefugees":13772,"Ġrib":13773,"ĠRican":13774,"city":13775,"Ġthereby":13776,"Ġcow":13777,"Ġsurvivors":13778,"ĠSurrey":13779,"Ġpatri":13780,"hero":13781,"ĠChange":13782,"igue":13783,"ouns":13784,"ĠPiano":13785,"Ġsick":13786,"Ġaltitude":13787,"ku":13788,"ĠMonteneg":13789,"ĠHeath":13790,"designated":13791,"Ġcraft":13792,"iem":13793,"Legacy":13794,"Ġmainland":13795,"Ġcounsel":13796,"ĠBran":13797,"erves":13798,"Ġmorph":13799,"Ġtransit":13800,"Ġdancer":13801,"ieve":13802,"âĢ¦":13803,"ĠJal":13804,"Ġprogressive":13805,"Ġrevival":13806,"esar":13807,"Ġsuccession":13808,"Hel":13809,"grade":13810,"Ġbrew":13811,"ĠAppro":13812,"ĠDevil":13813,"Ġqueen":13814,"Ġradiation":13815,"Ġcutting":13816,"ctuary":13817,"ĠBelgrade":13818,"imental":13819,"iaz":13820,"ici":13821,"techn":13822,"Ġfabric":13823,"Ġtouchdowns":13824,"ĠMoney":13825,"author":13826,"ĠAF":13827,"Ġimmigration":13828,"ĠGeorgian":13829,"Ġgraphic":13830,"That":13831,"bek":13832,"ascar":13833,"bian":13834,"alli":13835,"istle":13836,"ĠYan":13837,"comp":13838,"amas":13839,"aden":13840,"erts":13841,"Ġtraveling":13842,"Ġrenowned":13843,"stock":13844,"habilit":13845,"ĠNacional":13846,"Pak":13847,"Ġvulner":13848,"etics":13849,"House":13850,"sterious":13851,"Ã°":13852,"Ġfiring":13853,"Prote":13854,"Ġbars":13855,"Ġextract":13856,"Ġholiday":13857,"Ġwrestler":13858,"ashtra":13859,"Ġdeter":13860,"ĠESPN":13861,"ĠRichardson":13862,"Ġ--":13863,"Ġsituations":13864,"ĠHarm":13865,"Ġdiet":13866,"Ġflour":13867,"].":13868,"Ġpackage":13869,"Ġprototype":13870,"Ġ1853":13871,"zhou":13872,"ĠCanterbury":13873,"Ġcommunist":13874,"ĠHenderson":13875,"ĠPlate":13876,"ĠCR":13877,"OW":13878,"Ġciting":13879,"Ġchore":13880,"ĠKingston":13881,"ĠSolomon":13882,"Ġsegments":13883,"atories":13884,"lymouth":13885,"Ġreverse":13886,"Ġstatements":13887,"Ġconvinced":13888,"Ġcommentary":13889,"Ġsculptures":13890,"ittees":13891,"abi":13892,"Ġorbit":13893,"ĠLuxembourg":13894,"ĠKurt":13895,"ĠAlbanian":13896,"Ġimprovement":13897,"Ġstored":13898,"ĠDoll":13899,"GN":13900,"ĠSimpson":13901,"etz":13902,"rier":13903,"Ġtheatrical":13904,"ĠRee":13905,"ĠLutheran":13906,"Fellows":13907,"âĢł":13908,"ĠAircraft":13909,"Ġprepare":13910,"Ġchallenged":13911,"ĠAhmad":13912,"Ġextends":13913,"UP":13914,"Ġdisplays":13915,"Ships":13916,"ergus":13917,"Ġdoctors":13918,"Ġmaintaining":13919,"Ġordinary":13920,"Ġshipping":13921,"built":13922,"Ġfocusing":13923,"ĠInterview":13924,"Ð¾Ð²":13925,"Ġachievements":13926,"Pac":13927,"Ġinteresting":13928,"Ġacademy":13929,"isle":13930,"onel":13931,"ingen":13932,"berto":13933,"oyle":13934,"Di":13935,"oux":13936,"Ġkings":13937,"reation":13938,"ĠHerm":13939,"ĠContinental":13940,"Ġenzyme":13941,"oting":13942,"Ġperceived":13943,"ĠAlbania":13944,"Turk":13945,"ĠPep":13946,"Fin":13947,"ĠConcert":13948,"Musicians":13949,"OP":13950,"oya":13951,"Ġpredominantly":13952,"kers":13953,"itting":13954,"Ġportray":13955,"ĠEg":13956,"Ġwarning":13957,"Politicians":13958,"Ġcivilians":13959,"ĠDatabase":13960,"Ġputting":13961,"awi":13962,"Good":13963,"Ġlights":13964,"archive":13965,"ĠParliamentary":13966,"ceased":13967,"ĠLiv":13968,"ĠInitially":13969,"Ġperformers":13970,"Ġlibraries":13971,"Ġboards":13972,"DI":13973,"Ġhind":13974,"colm":13975,"ablo":13976,"Ġdiesel":13977,"ede":13978,"ottom":13979,"ĠEstate":13980,"Ġconvert":13981,"Ġfung":13982,"Ġdiscovers":13983,"ĠExcell":13984,"Ġrelay":13985,"Kar":13986,"Ġjail":13987,"Ġ{":13988,"Ġcompounds":13989,"Draw":13990,"Ġextending":13991,"hurst":13992,"ĠSpart":13993,"Ġtriple":13994,"ĠAB":13995,"Ġmagnetic":13996,"bey":13997,"ĠCel":13998,"Ġinstitute":13999,"Ġneighboring":14000,"OM":14001,"Ġargues":14002,"ĠTanz":14003,"ĠZimbabwe":14004,"founded":14005,"ĠAway":14006,"Ġ1846":14007,"Wil":14008,"missions":14009,"Ġaccommodate":14010,"Ġbreaks":14011,"Ġprocedures":14012,"Ġhandle":14013,"ĠEvangel":14014,"ĠGiovanni":14015,"Ġvariations":14016,"anyon":14017,"Ġibn":14018,"Ġexecutives":14019,"ĠSpect":14020,"Ġborrow":14021,"Media":14022,"Ġreaders":14023,"Ġwish":14024,"ĠNas":14025,"ĠKw":14026,"ĠStafford":14027,"Ġmemb":14028,"opened":14029,"ĠStatistics":14030,"server":14031,"ĠLodge":14032,"ifax":14033,"ĠSheriff":14034,"Ġclients":14035,"ĠGibson":14036,"ĠBradley":14037,"ĠLink":14038,"Ġafford":14039,"chief":14040,"Ã¨s":14041,"Ġaccurate":14042,"Ġconferences":14043,"Ġcolleagues":14044,"bery":14045,"ĠMom":14046,"Ġbeaten":14047,"Ġpresentation":14048,"etown":14049,"ĠComplex":14050,"Ġsending":14051,"Ġask":14052,"Ġmanual":14053,"Az":14054,"ĠPresent":14055,"Ġtasks":14056,"ragon":14057,"ĠBanks":14058,"sites":14059,"Ġcontribute":14060,"ĠChase":14061,"Ġafternoon":14062,"join":14063,"FFFF":14064,"ĠBryan":14065,"Ġmolecular":14066,"Ġdancing":14067,"cestershire":14068,"ĠCann":14069,"Ġstyl":14070,"Ġshorter":14071,"Ġthirteen":14072,"Brien":14073,"Natural":14074,"ĠPrincipal":14075,"ĠPopular":14076,"ĠClaud":14077,"Ġactively":14078,"Ġaster":14079,"ilion":14080,"Ġcad":14081,"ĠMis":14082,"ĠRetrieved":14083,"Ġguards":14084,"ĠFerdinand":14085,"Ġexamination":14086,"ĠJulia":14087,"Beetles":14088,"Ġnumbered":14089,"ĠGir":14090,"had":14091,"Cle":14092,"eneath":14093,"Ul":14094,"cock":14095,"Ġcriteria":14096,"Ġarena":14097,".;":14098,"ĠParalympics":14099,"1908":14100,"ĠTales":14101,"ĠBreak":14102,"Ġkills":14103,"Museum":14104,"ĠFighting":14105,"Ġconqu":14106,"ĠVa":14107,"Ġorange":14108,"lette":14109,"Ġassessment":14110,"Ġmythology":14111,"ÄĻ":14112,"ĠEns":14113,"anche":14114,"ĠAmendment":14115,"ĠWriting":14116,"Ġlifetime":14117,"Sat":14118,"avery":14119,"ĠChad":14120,"Ġforcing":14121,"Ġintegration":14122,"Child":14123,"ĠVersion":14124,"ĠGol":14125,"ĠLeop":14126,"Ġtissue":14127,"ĠWithout":14128,"orient":14129,"ĠSelf":14130,"ĠDouble":14131,"ĠGuate":14132,"vcard":14133,"Pier":14134,"Ġspokes":14135,"Development":14136,"Ġaddressed":14137,"ĠCome":14138,"Portug":14139,"ocaust":14140,"mitt":14141,"ĠDum":14142,"ĠHim":14143,"ĠHeadquarters":14144,"Ġreward":14145,"ĠEk":14146,"ĠLegislature":14147,"Ġoptim":14148,"Ġraid":14149,"Ġalgorithm":14150,"adal":14151,"Ġque":14152,"piracy":14153,"Ġghost":14154,"Ġcrops":14155,"Ġmanages":14156,"Ġretiring":14157,"ĠPorts":14158,"Ġexport":14159,"Ġthesis":14160,"ĠMiles":14161,"ahu":14162,"Ġengagement":14163,"foundland":14164,"ĠPalm":14165,"Ġpreserve":14166,"ĠSlovenia":14167,"Ġprestigious":14168,"ĠAnat":14169,"ĠColonial":14170,"ĠFut":14171,"Ġtram":14172,"ĠInspector":14173,"Ġapplic":14174,"five":14175,"ĠDig":14176,"Ġskill":14177,"Ġsweet":14178,"Rem":14179,"iÄį":14180,"istent":14181,"Matt":14182,"boat":14183,"ĠHull":14184,"ĠĠĠĠĠĠĠ":14185,"ĠFormation":14186,"150":14187,"Luc":14188,"Ġfewer":14189,"Ġintervention":14190,"ĠClif":14191,"su":14192,"chron":14193,"ĠAri":14194,"hart":14195,"Ġliteracy":14196,"Ġadvocate":14197,"Ġrestrictions":14198,"hops":14199,"Daniel":14200,"Ġcoffee":14201,"Ġprisoner":14202,"Les":14203,"Ġwarri":14204,"Ġgif":14205,"Ġdiplomat":14206,"GP":14207,"Ġprevented":14208,"ĠGP":14209,"ĠAL":14210,"Ġdealing":14211,"Ġfossil":14212,"Ġbold":14213,"Ġabund":14214,"ĠBailey":14215,"ĠDw":14216,"ĠEstonia":14217,"ĠHeat":14218,"Ġreflected":14219,"Ġenact":14220,"Home":14221,"este":14222,"ĠTrue":14223,"fight":14224,"ĠIN":14225,"dem":14226,"Ġpill":14227,"Ġconfront":14228,"ĠAdvisory":14229,"Ġcreates":14230,"pit":14231,"Ġrocket":14232,"ĠCombat":14233,"Ġdeliber":14234,"ĠHale":14235,"Ġculmin":14236,"Ġhole":14237,"Ġlegit":14238,"ĠLudwig":14239,"ĠElection":14240,"ĠBedford":14241,"Ġbrings":14242,"ĠFellowship":14243,"Ġrequiring":14244,"Ġtoler":14245,"Economy":14246,"Ġobl":14247,"munition":14248,"optera":14249,"ĠBil":14250,"Ġfriendship":14251,"alks":14252,"ourney":14253,"ĠSergeant":14254,"Ġprofessionals":14255,"aiden":14256,"Ġ\"[":14257,"Bi":14258,"Los":14259,"Ġbeam":14260,"Ġindependently":14261,"Ġempty":14262,"lived":14263,"ĠPink":14264,"ĠTeh":14265,"Ġfluid":14266,"Ġhanded":14267,"building":14268,"ĠNatal":14269,"Ġpopulated":14270,"Ġreceiver":14271,"Ġmatrix":14272,"ĠHaving":14273,"inyl":14274,"Ġexperts":14275,"ĠBelfast":14276,"ĠNintendo":14277,"untary":14278,"Jac":14279,"ĠTwitter":14280,"Ġportions":14281,"ĠFilipino":14282,"Ġfreestyle":14283,"Ġprofit":14284,"Amb":14285,"ĠPlanning":14286,"ĠPalomar":14287,"Ġfirms":14288,"ĠTyler":14289,"Ġgoverning":14290,"Broad":14291,"Ġrecipients":14292,"Ġbarrel":14293,"Ġchest":14294,"Series":14295,"Ã±o":14296,"Ġtier":14297,"Ġefficient":14298,"ĠLords":14299,"Ġposter":14300,"Ġgenerations":14301,"Ġendings":14302,"Ġscandal":14303,"ĠCut":14304,"Ġgaining":14305,"Ġexha":14306,"Ġampl":14307,"ĠGeneva":14308,"agram":14309,"nesday":14310,"Ġve":14311,"Ġuniversal":14312,"ĠTable":14313,"imen":14314,"ĠEmmy":14315,"Ġgenerals":14316,"ominated":14317,"etes":14318,"enzie":14319,"Ġunderstood":14320,"ĠEugene":14321,"ĠCrus":14322,"Ġrebellion":14323,"green":14324,"rica":14325,"Third":14326,"Ġprefer":14327,"Ġconflicts":14328,"Ġplates":14329,"ĠLep":14330,"ĠâĪĴ":14331,"Ġobservation":14332,"ĠTake":14333,"ÏĤ":14334,"hra":14335,
[...]
