{"version":"1.0","truncation":null,"padding":null,"added_tokens":[{"id":0,"special":true,"content":"[PAD]","single_word":false,"lstrip":false,"rstrip":false,"normalized":false},{"id":1,"special":true,"content":"[UNK]","single_word":false,"lstrip":false,"rstrip":false,"normalized":false},{"id":2,"special":true,"content":"[CLS]","single_word":false,"lstrip":false,"rstrip":false,"normalized":false},{"id":3,"special":true,"content":"[SEP]","single_word":false,"lstrip":false,"rstrip":false,"normalized":false},{"id":4,"special":true,"content":"[MASK]","single_word":false,"lstrip":false,"rstrip":false,"normalized":false}],"normalizer":{"type":"Sequence","normalizers":[{"type":"Nmt"},{"type":"NFKC"}]},"pre_tokenizer":{"type":"Sequence","pretokenizers":[{"type":"WhitespaceSplit"},{"type":"Metaspace","replacement":"▁","str_rep":"▁","add_prefix_space":true}]},"post_processor":null,"decoder":{"type":"Metaspace","replacement":"▁","str_rep":"▁","add_prefix_space":true},"model":{"unk_id":null,"vocab":[["[PAD]",0.0],["[UNK]",0.0],["[CLS]",0.0],["[SEP]",0.0],["[MASK]",0.0],["▁",-2.894613088471946],["▁the",-3.4044333381516303],["s",-3.4293798840449803],[",",-3.4971051248465663],[".",-3.7983800053429597],["a",-3.816670219595295],["▁of",-3.9143576692085666],["▁and",-4.138209792745087],["▁in",-4.174965490041423],["e",-4.518371010706694],["▁to",-4.521271382356346],["t",-4.829660345507325],["o",-4.851103893258323],["i",-5.031537289507423],["▁was",-5.071251912035475],["n",-5.148657190541101],["▁The",-5.152251674789614],["d",-5.203074757692228],["▁is",-5.307834681313356],[")",-5.321065235870709],["▁for",-5.374574401523013],["-",-5.402137370461645],["▁as",-5.437635876291754],["y",-5.481030147200141],["ing",-5.488739818593153],["▁on",-5.524614178391939],["▁by",-5.526349861526711],["ed",-5.555474176823747],["▁with",-5.591227055698901],["▁Category:",-5.595633208916542],["▁(",-5.750579470487828],["▁from",-5.7838740408327425],["'s",-5.804946973022634],["r",-5.816232809542772],["▁at",-5.825707286354778],["▁that",-5.85083225968301],["or",-5.858303966370148],["f",-5.876538287519548],[":",-5.957184283624397],["l",-5.993610761101486],["–",-6.002012166325091],["▁In",-6.026274202998437],["in",-6.051303707233174],["h",-6.068899830929368],["▁his",-6.079138756342154],["\"",-6.0849203809756],["er",-6.147420969008877],["on",-6.155553640288254],["p",-6.161079140876694],["c",-6.182948397271531],["▁an",-6.192489046932515],["▁he",-6.23282423712142],["al",-6.235202960932039],["▁A",-6.25754378937296],["u",-6.264301804312563],["m",-6.27419045284746],["k",-6.320375629178367],["b",-6.350987090002938],["an",-6.36666197921147],["▁were",-6.406199036202047],["▁He",-6.430377160220051],["g",-6.443854713364255],["ly",-6.448970857049426],["▁are",-6.45258642246357],["▁also",-6.501323237272581],["▁which",-6.503195430960883],["▁be",-6.5201026649522955],["▁it",-6.552464662917755],["is",-6.572334418816327],["▁||",-6.627575487609397],["th",-6.664486891816393],["),",-6.713143119837007],["▁had",-6.731391436886877],["▁has",-6.735229120594285],["▁first",-6.790672303925501],["▁|",-6.796883060960916],["▁\"",-6.836266058646148],["▁References",-6.837559515963605],["w",-6.853528853057416],["▁It",-6.853721687927463],["▁S",-6.85822087707631],[";",-6.858612358303294],["▁their",-6.912704445365321],["▁who",-6.940286528855728],["▁not",-6.952596960130839],["▁her",-6.9824107574481715],["▁de",-6.9973813951156405],["▁but",-6.999624487504562],["le",-7.005052328791914],["▁its",-7.04701840716079],["▁one",-7.051826652190405],["'",-7.052745970278357],["▁have",-7.084621524418708],["▁I",-7.090370819759425],["▁two",-7.106564320114726],["/",-7.1086167004591125],["▁New",-7.110266208201429],["▁this",-7.115778723037584],["ar",-7.132431855171813],["▁E",-7.1423238068957655],["z",-7.15325754041837],["▁re",-7.167308326900772],["ic",-7.176258697359584],["▁been",-7.177420461924303],["▁B",-7.1787713539806415],["re",-7.197489016266516],["us",-7.223655689028229],["it",-7.2395028296273285],["▁after",-7.259548636114554],["ch",-7.288809768327182],[").",-7.2953022013600926],["▁other",-7.323745432823513],["ers",-7.337618785544652],["▁people",-7.343577034461145],["v",-7.348692364762471],["▁C",-7.3555681220751925],["▁American",-7.35558713465281],["man",-7.360280929642959],["to",-7.367704461114567],["▁over",-7.3796085854505336],["▁into",-7.385153151894748],["x",-7.3899929459218185],["▁United",-7.393845348855507],["▁all",-7.395792747126686],["▁she",-7.400001627217613],["▁18",-7.421311413142291],["at",-7.442772813221536],["ation",-7.443925057357399],["▁links",-7.45359029984669],["▁F",-7.456413871784319],["▁Re",-7.464163135913328],["▁External",-7.469364095969297],["▁time",-7.504085169561247],["▁G",-7.504198260173299],["▁K",-7.525014935431141],["▁P",-7.528356273547553],["▁On",-7.531566113385271],["▁out",-7.532137616631536],["▁when",-7.537867398578818],["▁can",-7.561358366068163],["▁more",-7.5640643806647585],["▁M",-7.564064791515703],["▁This",-7.58226795460441],["▁University",-7.584918054635411],["▁1",-7.585630618061106],["▁up",-7.586056131377191],["▁would",-7.58855708066554],["▁T",-7.589454876468412],["6",-7.59068126162359],["▁they",-7.5958174076560105],["▁under",-7.5995887242935005],["▁new",-7.600508391628949],["▁She",-7.601869629639925],["▁D",-7.603050087885716],["▁players",-7.605991326599405],["de",-7.606596734186311],["during",-7.610473672542851],["▁where",-7.620492603843589],["ent",-7.638093730056145],["▁film",-7.641563281848613],["▁only",-7.642387948587288],["▁part",-7.659499013087652],["ry",-7.661589341203824],["—",-7.669832300422534],["▁between",-7.672455711254019],["ter",-7.672805519195563],["7",-7.680227628913796],["0",-7.697705052996451],["▁about",-7.705309660393453],["▁three",-7.71336922861283],["8",-7.717958568493398],["&",-7.728339993890229],["▁2",-7.731295454225977],["▁used",-7.7319527955318215],["ian",-7.734546641194058],["▁N",-7.736590957611945],["▁made",-7.744664106772076],["▁years",-7.751498911614252],["▁R",-7.768184578454839],["um",-7.768297821895615],["▁later",-7.770359952618584],["▁World",-7.770948683365452],["▁O",-7.771129057552713],["▁National",-7.775608521222971],["▁States",-7.776700862598791],["ate",-7.7793401421776345],["▁County",-7.78234686887224],["ge",-7.784881505848771],["▁La",-7.7849270821523575],["▁most",-7.786251758585694],["am",-7.796204684262589],["▁such",-7.79670189349728],["▁known",-7.800990101796362],["▁17",-7.810552631774202],["ive",-7.816698174237551],["2",-7.81952318620189],["▁War",-7.81963540076052],["▁no",-7.827584405252793],["▁him",-7.829645196852955],["ur",-7.832448304778248],["▁than",-7.835085995262386],["▁Le",-7.837444051290875],["▁became",-7.841299417873785],["9",-7.848966891422325],["▁W",-7.855798495931474],["▁De",-7.867897615814924],["▁second",-7.8719261253771755],["L",-7.877533752238126],["▁H",-7.879699935098596],["▁some",-7.88321051445471],["▁Co",-7.885058455011707],["▁team",-7.888218012070293],["▁John",-7.889609169239472],["son",-7.89056269607938],["ment",-7.895583971966685],["▁being",-7.898184343270193],["▁As",-7.909039690354103],["der",-7.911099379524758],["▁May",-7.912502950637835],["▁South",-7.9187615232082695],["▁there",-7.919520534457025],["▁V",-7.921055831913712],["B",-7.9216786689186005],["▁un",-7.921794072926257],["ity",-7.922358845187732],["▁including",-7.925096153714872],["▁Al",-7.927923646871784],["▁3",-7.930314973594525],["▁through",-7.931808578056767],["ma",-7.934708636537215],["▁work",-7.936958650474551],["▁season",-7.937585530531738],["▁L",-7.943951345904434],["▁series",-7.954924879336199],["1",-7.957546868412397],["▁School",-7.958802371228945],["▁After",-7.961725380145207],["é",-7.964305350752131],["im",-7.966457325870257],["▁against",-7.968960680510541],["able",-7.969768838540389],["▁name",-7.976634954388615],["▁Ha",-7.976832175165155],[".\"",-7.976976614357028],["be",-7.981880614408858],["▁many",-7.9901237695180996],["ul",-7.990156658932859],["▁before",-7.994325546495459],["▁con",-8.002061309224276],["\".",-8.005195064013675],["▁number",-8.006882845213058],["▁year",-8.008059353240464],["▁while",-8.008939757439961],["▁well",-8.018328274889546],["age",-8.020187776578563],["est",-8.024599085474044],["▁At",-8.030599022531943],["▁March",-8.032139804407581],["3",-8.032883048418299],["until",-8.033913964898312],["▁10",-8.03395240079324],["▁See",-8.040485952466234],["▁both",-8.045071978965552],["▁4",-8.05114550953424],["▁August",-8.052987750990358],["ck",-8.054239896031774],["▁16",-8.059145337331854],["▁September",-8.061303884884481],["he",-8.063915108363583],["land",-8.066275092619616],["▁York",-8.074732041578095],["▁5",-8.074963307460418],["▁school",-8.076220173134912],["▁October",-8.081917515027586],["M",-8.084489723581978],["▁January",-8.091166780738297],["A",-8.095177407854113],["▁played",-8.097386215627123],["▁may",-8.098377492889993],["j",-8.100597046780297],["▁St",-8.101943895109859],["▁An",-8.104355791504195],["and",-8.105060144446048],["▁family",-8.10866213794619],["▁State",-8.108714365892109],["▁For",-8.110268922203714],["▁released",-8.11120546571973],["▁June",-8.117558128858601],["▁British",-8.118070776993603],["5",-8.12012599998824],["ance",-8.1284123757861],["▁April",-8.13423218835753],["▁July",-8.134646512778115],["▁won",-8.1350066714415],["▁album",-8.14215834349129],["\",",-8.142987984553727],["▁will",-8.143416636961366],["▁North",-8.14452124493977],["un",-8.145789454592894],["D",-8.148645918396184],["(born",-8.155264441567994],["▁state",-8.159539308386986],["▁November",-8.162255572760264],["▁four",-8.168379130200593],["▁U",-8.17174022012733],["4",-8.175580241851195],["S",-8.176303865991155],["▁life",-8.179821310036827],["ner",-8.180147339125481],["▁Li",-8.182391339544552],["ary",-8.183483602894047],["ve",-8.184499479625785],["▁December",-8.185317514950293],["▁called",-8.191872275475301],["▁Me",-8.192836852510643],["E",-8.192960739496208],["▁League",-8.197400720474892],["▁City",-8.197501842979216],["▁place",-8.197810801662373],["ies",-8.198694689249606],["▁His",-8.200229177496512],["▁football",-8.201340495556913],["▁15",-8.201597843709587],["▁home",-8.206730557875728],["▁game",-8.210216916966344],["go",-8.211119660963263],["▁Do",-8.21216206704366],["H",-8.214922889555053],["▁same",-8.215299852082358],["▁several",-8.223706761443946],["ley",-8.229318011093463],["▁Ar",-8.231040405967741],["▁end",-8.234100068849504],["per",-8.240410469792524],["ous",-8.241234516086735],["den",-8.243396359162922],["▁To",-8.246319847561189],["▁J",-8.24748335843765],["%",-8.24771269290609],["▁early",-8.250083193137943],["ang",-8.253931484971922],["▁films",-8.254025515219952],["▁group",-8.255115102008453],["▁career",-8.255477421081306],["P",-8.255702799633855],["=",-8.256501088770653],["▁12",-8.257508011852217],["19",-8.259288969004759],["les",-8.260278196675534],["▁former",-8.262020598628506],["▁Ca",-8.265053077531995],["▁found",-8.26855952349721],["▁Mo",-8.269590742347019],["tic",-8.27011901320474],["▁following",-8.271949422927067],["▁San",-8.272370903233716],["▁music",-8.27562992955782],["T",-8.275853712119469],["▁since",-8.27629750036017],["▁Ro",-8.277392902749659],["▁Man",-8.280276555271856],["ha",-8.281801293462731],["▁February",-8.282403337172356],["▁use",-8.282618089972628],["U",-8.286017495755011],["▁Pa",-8.287666901602844],["lin",-8.293953290191466],["▁Con",-8.295339001726418],["ting",-8.298911635986537],["▁back",-8.305319874672444],["▁based",-8.310050914582591],["▁show",-8.310674256749799],["▁government",-8.311230152874407],["▁pro",-8.318396502141454],["▁Mar",-8.321586052002257],["ling",-8.322356664422363],["▁city",-8.326942446210415],["ver",-8.327920730355675],["ki",-8.328604687017988],["▁West",-8.328725877512984],["▁these",-8.33168645669445],["▁began",-8.333908393833239],["C",-8.333985278119437],["▁Ka",-8.334792277482007],["▁Bo",-8.335554584209106],["▁History",-8.338816737713806],["me",-8.338929431831478],["▁Po",-8.339619323951379],["one",-8.343479311770782],["▁Sa",-8.343481705868287],["▁population",-8.3464416468302],["▁member",-8.34667195469786],["▁Pro",-8.349488377422476],["N",-8.350536145119293],["ten",-8.353043807079754],["▁located",-8.356230782561195],["▁named",-8.357170884443832],["men",-8.357857468360317],["mer",-8.360500443479076],["▁Go",-8.36073548006688],["V",-8.362925955017577],["▁area",-8.363844509830896],["▁established",-8.36757086953626],["▁them",-8.369835050255318],["▁There",-8.370695224236066],["▁each",-8.370872499930128],["▁dis",-8.37133494629724],["▁They",-8.371789997152286],["lu",-8.379751188047992],["▁held",-8.380391640748837],["American",-8.383143608659415],["▁line",-8.386411541553729],["ted",-8.388466404433318],["K",-8.389014379265717],["▁set",-8.391703777455573],["▁Ho",-8.391948937242148],["tion",-8.39214468683258],["ler",-8.392448622731186],["ard",-8.392589476979309],["con",-8.393527029124558],["▁District",-8.393772836203413],["▁station",-8.397355722691103],["▁English",-8.397402520156492],["▁song",-8.398713381726031],["ial",-8.399511219053842],["▁So",-8.400010140638932],["▁Ta",-8.400865725172157],["way",-8.400984763022972],["▁local",-8.402914465586985],["▁public",-8.403211716285528],["ran",-8.404521499689192],["took",-8.405066267617606],["ism",-8.40613700911012],["▁Be",-8.407543515719018],["births",-8.412150380331944],["ka",-8.413884050686432],["tri",-8.41536235690754],["G",-8.418162930431086],["I",-8.422188931390808],["our",-8.423774645754355],["▁German",-8.424855648977115],["ja",-8.427814172786462],["ill",-8.433723834164958],["R",-8.438400224999237],["▁company",-8.43975822044423],["▁single",-8.441827451961423],["▁any",-8.441957414174299],["F",-8.443980698443662],["▁Lo",-8.44417103159445],["Living",-8.4448926433459],["▁television",-8.44825490348083],["▁French",-8.449627463049575],["▁International",-8.450739494321269],["ub",-8.450798346306748],["▁All",-8.451378961903906],["▁11",-8.454146664792608],["▁Na",-8.456621080721924],["▁built",-8.46621011301136],["▁final",-8.466746957015832],["▁|-",-8.467009639134547],["▁Se",-8.470778362632581],["▁could",-8.47348429758619],["▁(18",-8.473925984802882],["▁age",-8.47399739566104],["▁members",-8.474184217112509],["▁El",-8.47490374741131],["▁14",-8.477338896855724],["▁served",-8.481979460464869],["▁House",-8.48279322434264],["▁did",-8.48426953898386],["▁born",-8.484494738017881],["W",-8.484636796266905],["ber",-8.485415165543557],["ke",-8.496202686033737],["▁per",-8.496923114643792],["▁received",-8.497403654232913],["▁around",-8.49770164345168],["▁2006",-8.498101483144879],["▁di",-8.50048233348374],["▁Gu",-8.5036085688435],["▁13",-8.503840894437852],["▁town",-8.505458630696841],["▁pre",-8.506214603173731],["▁River",-8.50946863580932],["▁high",-8.510111944542057],["▁now",-8.512100563753998],["▁List",-8.514092315795756],["▁band",-8.514582520672509],["▁published",-8.517252655578453],["▁Car",-8.517577712693527],["▁due",-8.519273661038598],["wa",-8.520386637707652],["▁village",-8.52078958850769],["▁No",-8.521489045612212],["▁national",-8.522182069891098],["▁Cup",-8.523107256837287],["▁system",-8.524616095621242],["▁last",-8.526648664630589],["▁games",-8.527913683859135],["ster",-8.5291911012246],["ical",-8.530736916797887],["▁Di",-8.535377965210174],["▁Ne",-8.536666002887008],["by",-8.538926357459376],["▁species",-8.541993518399732],["▁long",-8.543953428465858],["▁player",-8.544431344793239],["▁left",-8.546192135182377],["▁Ma",-8.549010812333059],["hi",-8.55006591376337],["va",-8.551491473684917],["min",-8.553482288771768],["mar",-8.554524299923903],["▁College",-8.555629415942402],["▁20",-8.556940629960945],["▁make",-8.557118263614132],["tra",-8.557451706859434],["▁along",-8.559155086564976],["▁II",-8.55929836792978],["▁water",-8.560409783952156],["18",-8.563125215921662],["▁main",-8.563300955343479],["▁Park",-8.56394450576047],["ite",-8.564373155824878],["▁like",-8.56660936919853],["▁Su",-8.567775143501462],["mon",-8.568863294968843],["▁U.S.",-8.571851595408022],["▁Ri",-8.57220758840419],["▁own",-8.573779870353034],["▁birth",-8.573989842097394],["ated",-8.58000504824887],["▁head",-8.58167633228543],["line",-8.581748499828668],["▁because",-8.5819510718072],["▁club",-8.582908087509034],["▁war",-8.585460809732563],["ham",-8.585545914577622],["che",-8.586369879556914],["▁Ra",-8.586426196808977],["▁take",-8.590371824324489],["nd",-8.593073702732875],["▁support",-8.595250582392996],["▁building",-8.595339390344819],["▁small",-8.59534116805138],["▁five",-8.597484912330799],["▁large",-8.597751002621964],["ak",-8.598291037510327],["ology",-8.598572506643182],["During",-8.601956626625862],["▁William",-8.60214151577929],["▁said",-8.604428161630404],["chi",-8.606551159646322],["Category:People",-8.608207416170693],["▁Category:C",-8.610730939292862],["ong",-8.612919831887114],["ness",-8.613401240979336],["▁died",-8.615866590165322],["▁Her",-8.61637215654687],["▁within",-8.616835251052972],["▁High",-8.617905026346586],["ven",-8.622566872945564],["▁Air",-8.624643541977541],["▁co",-8.628892150317611],["end",-8.629842447254731],["que",-8.630054650079446],["▁become",-8.6303730706774],["▁Pi",-8.630751219854792],["▁service",-8.631003062841625],["▁described",-8.63267377211799],["▁third",-8.63706154862696],["the",-8.641106235076464],["▁Da",-8.642628317529697],["han",-8.64355639360807],["▁included",-8.644562927625593],["▁male",-8.644955476371727],["▁book",-8.647608342691418],["▁East",-8.650660214071346],["ier",-8.6530204516507],["However,",-8.655295740949807],["mp",-8.657231866202764],["▁play",-8.658976888495067],["▁Vi",-8.661633673830833],["ex",-8.664119407458667],["▁Category:P",-8.666053064146036],["▁record",-8.666244496398047],["sen",-8.66716572939591],["ru",-8.66744806503528],["▁Hu",-8.667448350823621],["▁George",-8.667698925072493],["es,",-8.669407850908204],["▁different",-8.670884295370561],["▁major",-8.671717403412657],["▁2010",-8.672593573610396],["▁Z",-8.673677551247687],["▁history",-8.67491367332116],["▁By",-8.6786971776504],["▁ex",-8.68002245159364],["▁district",-8.680230878943316],["▁down",-8.682113120491561],["gen",-8.6832318144128],["▁title",-8.685513468361213],["▁century",-8.685740453510668],["▁Award",-8.685811084332688],["▁Cor",-8.686681629993167],["▁period",-8.686728767437485],["▁million",-8.688570554133264],["vi",-8.69122967661065],["ren",-8.692039875691234],["▁footballer",-8.693146251545127],["up",-8.695480280516163],["▁still",-8.69830887896217],["▁very",-8.701022402537252],["▁near",-8.7011350983732],["▁those",-8.702032809893652],["O",-8.702864471531278],["▁One",-8.704502011564175],["her",-8.704963338555453],["gg",-8.705279928831484],["▁Ko",-8.706005891915098],["▁James",-8.709410652892974],["▁Robert",-8.709750420758256],["ford",-8.71003444635137],["▁sub",-8.710580268270556],["▁(S",-8.712776718203603],["▁Wa",-8.71279890001813],["▁death",-8.717348102231105],["▁women",-8.719329782089465],["▁km",-8.71938180026519],["▁form",-8.719768060756373],["▁US",-8.721035771712568],["▁\"The",-8.721260548809687],["▁original",-8.721415018529525],["▁Fa",-8.722184317050512],["ix",-8.722627383414444],["▁another",-8.723254635209571],["▁include",-8.723524786314787],["▁(A",-8.723995168774396],["ide",-8.724831710162285],["gan",-8.725254551198724],["▁2000",-8.725457501245646],["ence",-8.727519061861244],["▁side",-8.729364235293419],["ure",-8.729746364190644],["▁Category:S",-8.73061553072855],["▁X",-8.732460155541657],["]",-8.734543275764725],["tal",-8.736686616595657],["▁deaths",-8.736990071743213],["▁President",-8.739854032530983],["ung",-8.741416839029908],["▁London",-8.742589028156136],["20",-8.745196935245904],["ger",-8.746436547978796],["▁Per",-8.746527847425929],["▁General",-8.747665387669905],["▁day",-8.750971124666517],["▁Party",-8.754168333452796],["’s",-8.75438712324984],["ating",-8.758543610047022],["ring",-8.758670941668672],["▁order",-8.76001838232691],["ally",-8.760323078210307],["▁video",-8.760475159115959],["▁best",-8.761108050824813],["ov",-8.761901488910665],["er,",-8.76209157253603],["▁(M",-8.762972925141598],["▁When",-8.764184140948773],["ized",-8.76608870436949],["ric",-8.767751870525474],["▁house",-8.768296542505093],["▁Army",-8.768892292903425],["▁Royal",-8.770417467927533],["X",-8.77117721771445],["▁short",-8.77363121449349],["▁2008",-8.77418664833099],["field",-8.774311077274477],["▁international",-8.778234339808309],["▁2004",-8.779839786086495],["▁often",-8.780264217023314],["gar",-8.781333378921481],["har",-8.782323019544522],["▁off",-8.783730452555332],["▁England",-8.786167736971873],["moved",-8.789120642052909],["▁site",-8.78980303431613],["▁Bar",-8.792055768343923],["▁Paul",-8.792747778748728],["▁Indian",-8.793897652867212],["▁25",-8.794294662629405],["▁car",-8.797316050417127],["▁late",-8.797674951325476],["▁David",-8.798385828680152],["▁Division",-8.798480792347403],["s'",-8.799270767080731],["▁Council",-8.799432853817141],["▁world",-8.801056662966765],["using",-8.801844431557234],["ach",-8.8033973704956],["▁produced",-8.803431843251484],["▁We",-8.804418101105421],["▁Ga",-8.804929249992071],["▁development",-8.804981815719762],["▁30",-8.8053375000841],["▁Y",-8.80575230621128],["▁France",-8.805759119686718],["▁Pe",-8.808950466339333],["▁just",-8.8099638339106],["▁what",-8.810035621636148],["▁led",-8.810436436692772],["▁general",-8.810717465408333],["ji",-8.811337490378055],["▁Or",-8.811448460523557],["▁2011",-8.813291210189304],["▁power",-8.814869079153558],["▁round",-8.817779339606556],["▁Street",-8.817815156987479],["á",-8.819730726155909],["▁six",-8.82346695989309],["▁European",-8.824397490540832],["▁came",-8.825691958818197],["00",-8.825748935392987],["▁written",-8.825815785436266],["▁again",-8.82589531512424],["Y",-8.826592141091549],["gu",-8.827572422278847],["▁father",-8.829403056416783],["▁law",-8.83188814861003],["▁Ni",-8.834180798616801],["▁role",-8.835278691892384],["▁Sp",-8.836653346277155],["▁Club",-8.83696976409417],["▁total",-8.838461385469374],["▁debut",-8.838695047046102],["ities",-8.83913902272997],["▁production",-8.842016524114392],["▁Ja",-8.842480227688915],["▁la",-8.842936496641034],["ell",-8.84365553019308],["par",-8.844364391037749],["sion",-8.84523108951517],["▁Ex",-8.847704545015912],["out",-8.847925968706697],["▁version",-8.849132833499556],["▁Art",-8.850684233660333],["lar",-8.851255815916614],["▁Music",-8.852460834350955],["▁King",-8.853705136551628],["(",-8.853708425859839],["▁2007",-8.855798345091365],["▁created",-8.856008638304042],["▁Bi",-8.856615809463552],["mm",-8.85694744052768],["▁community",-8.857686510314243],["▁much",-8.858243970779796],["▁research",-8.858708899420243],["za",-8.858988773167532],["▁political",-8.860366404801757],["air",-8.86075251893778],["▁2009",-8.860759601427816],["▁2012",-8.86133511274964],["▁given",-8.86303404894144],["▁Church",-8.864316380150143],["▁son",-8.865812221990291],["▁started",-8.867133870901668],["▁St.",-8.870000260380705],["lic",-8.872550269557411],["▁lead",-8.874803566732261],["ick",-8.87569736100222],["▁north",-8.876462886465951],["rie",-8.877662551940027],["among",-8.878117965635624],["50",-8.879769059431986],["val",-8.879853018386058],["ail",-8.880811217494976],["bra",-8.88195224007801],["▁(C",-8.882203995554192],["nes",-8.883663708729443],["▁went",-8.884435211808588],["▁married",-8.886773761581077],["▁Cha",-8.886904502087027],["▁Roman",-8.88956262295249],["▁En",-8.891523530455492],["▁works",-8.89197523524452],["▁Si",-8.892367511139613],["ship",-8.892417479117007],["▁style",-8.892452786168821],["▁various",-8.893572550626777],["▁land",-8.89443052847724],["ium",-8.89490935594922],["▁Australian",-8.895824772245396],["▁provide",-8.896135205375453],["▁design",-8.896376812997774],["▁Association",-8.89644134105049],["▁Du",-8.897679052742493],["▁Category:M",-8.898957354522938],["len",-8.899312514514412],["▁Hi",-8.900169475331825],["▁First",-8.900367581638092],["we",-8.901582295070321],["▁Wi",-8.902395906555808],["15",-8.90498171161432],["▁top",-8.90667933745416],["▁post",-8.906720546008351],["▁air",-8.907436732279733],["▁From",-8.907716799141737],["▁Ba",-8.90790109732124],["▁announced",-8.908581727992269],["▁Jo",-8.908897667739154],["▁Ru",-8.90890943139357],["▁2019",-8.909446736984258],["▁art",-8.910079564389513],["10",-8.91081803514695],["▁Championship",-8.911413954799869],["having",-8.913815927330049],["▁professional",-8.915116789471433],["▁America",-8.918503724132464],["ze",-8.920476101116957],["▁India",-8.923550896552282],["▁military",-8.92410774858408],["▁field",-8.924474748426181],["▁control",-8.92769297346871],["▁next",-8.92819164920435],["side",-8.929089638858589],["gue",-8.929451238786413],["▁1,",-8.930354228628163],["▁Group",-8.930510428937085],["▁2003",-8.931780115347392],["▁Lu",-8.93202965258874],["▁country",-8.932916769047369],["▁present",-8.935144481310957],["▁few",-8.935482227640666],["▁\"S",-8.936145387892545],["▁inter",-8.936183859859083],["▁Act",-8.93674017626762],["low",-8.937643751976358],["▁Ch",-8.938660991518914],["▁These",-8.939220783469626],["can",-8.94030544436839],["▁even",-8.940429145275413],["joined",-8.943527743059422],["▁students",-8.944147020425481],["▁run",-8.944866415537174],["nce",-8.945700865006714],["▁point",-8.947921616830426],["▁2014",-8.949963405073289],["▁Union",-8.95013709901113],["▁Hall",-8.95193382388709],["▁Canada",-8.952258127456362],["▁Col",-8.95317678764024],["bu",-8.953625800874024],["ists",-8.953653811480297],["ations",-8.953978303699987],["▁live",-8.954977273836834],["▁result",-8.955767969582222],["▁24",-8.956868989772909],["▁list",-8.958615612631132],["▁Am",-8.959700876692905],["▁website",-8.959818742722161],["▁2002",-8.962685557989097],["lie",-8.963029490512357],["ator",-8.963725740532265],["▁worked",-8.965074565997849],["▁Other",-8.96585378652512],["▁position",-8.968401442301186],["▁south",-8.968424626336041],["cc",-8.970569889420931],["▁China",-8.971105901479774],["30",-8.971188738434314],["▁Mon",-8.97219465842044],["▁2013",-8.97232180140883],["▁2015",-8.972424267893174],["▁children",-8.973555671932147],["▁Category:A",-8.974604215838985],["▁Court",-8.976756465183149],["▁“",-8.978682149480374],["▁Australia",-8.979377226684385],["▁1999",-8.979554424821117],["▁2016",-8.980827565261539],["▁Un",-8.980829969970843],["car",-8.98158393092814],["ign",-8.983201161518364],["▁Black",-8.98361988858385],["less",-8.984276655491684],["▁example",-8.98484750908906],["▁event",-8.985129509057492],["▁2001",-8.985281283902136],["▁Japan",-8.987701276681532],["▁match",-8.98822131403587],["▁Te",-8.988299334420557],["pp",-8.988339899642643],["je",-8.988357478523843],["▁Road",-8.989702279000111],["▁Ti",-8.989971613296579],["▁returned",-8.990621109632002],["▁2005",-8.992171929857102],["▁[",-8.992707693657255],["▁California",-8.993532261951525],["▁church",-8.994012439615581],["▁race",-8.997459115913216],["ile",-8.99764661858097],["▁program",-8.999363218064383],["▁With",-8.999368113355752],["▁director",-9.000734627099979],["▁Ad",-9.00271210627874],["▁Best",-9.002991293730219],["ker",-9.0032125050736],["▁release",-9.003507910940227],["▁we",-9.003656988840008],["▁Ge",-9.00424629793243],["▁win",-9.006400721873625],["▁project",-9.00822123142696],["ari",-9.00843185748413],["▁Tu",-9.008680403226643],["▁Thomas",-9.009918097590724],["▁My",-9.010118256940915],["▁free",-9.010304415308266],["▁business",-9.010873305205788],["fer",-9.010881352770213],["ice",-9.01110991890097],["ction",-9.011263116837466],["ros",-9.011512238532243],["▁stage",-9.011649277159199],["des",-9.012720219539737],["▁Pre",-9.0130028569556],["lan",-9.013169928011935],["▁100",-9.013676950584989],["of",-9.015382654937099],["▁Center",-9.01553313031685],["▁opened",-9.016031465875278],["row",-9.016320413760905],["▁Island",-9.01652100024033],["▁Mi",-9.016781345052715],["cent",-9.017226437051372],["▁way",-9.017244528452576],["res",-9.01877339379312],["▁character",-9.018911795269169],["▁similar",-9.019081504161335],["▁Red",-9.019554672025723],["▁help",-9.019873966981702],["ual",-9.02026577670019],["▁Fi",-9.020407621432156],["▁songs",-9.020472004403578],["ü",-9.021136013123883],["▁go",-9.022858904765082],["▁without",-9.023652265884476],["▁Kingdom",-9.025208725652275],["▁wrote",-9.026208066971593],["▁Sch",-9.026986177596122],["J",-9.028034813573981],["▁events",-9.029611069486752],["▁Washington",-9.032436041347735],["▁Green",-9.032442374925909],["▁Peter",-9.034796283177087],["mal",-9.034959215219677],["com",-9.035753766027842],["▁|-id=",-9.036108775837617],["▁Charles",-9.03792127936416],["▁Je",-9.038237513760958],["well",-9.039222690006103],["▁man",-9.039379780182445],["▁Star",-9.03953552758241],["pur",-9.039818884455475],["According",-9.040377427290542],["▁special",-9.041307170759733],["▁Records",-9.041470411010186],["es.",-9.041687507087806],["ney",-9.042391508944641],["▁bi",-9.042476311057264],["tur",-9.043099516577545],["▁services",-9.045564417667523],["▁Category:B",-9.046254425961635],["▁coach",-9.046562115085774],["▁align=right",-9.047638571756483],["▁every",-9.047942640931074],["▁Department",-9.048155853803351],["▁Society",-9.048236934620656],["port",-9.050431612100434],["▁albums",-9.050470087949918],["▁me",-9.051323876921943],["▁Canadian",-9.051478442675714],["▁1998",-9.051631119364483],["▁men",-9.052455247585875],["▁half",-9.052887544796922],["▁league",-9.053208981495699],["und",-9.054438284771367],["tter",-9.055771682536362],["red",-9.056471170488644],["vis",-9.059167671918216],["ville",-9.059392236648321],["▁(B",-9.064423591627941],["pro",-9.06478138567003],["▁pa",-9.064966890378217],["▁Michael",-9.065228753150873],["art",-9.065235821582986],["▁election",-9.065524852024492],["▁right",-9.065850755385993],["▁return",-9.066136489898422],["▁term",-9.066445391213483],["▁Europe",-9.066970692307551],["▁refer",-9.067104794450383],["▁daughter",-9.068413916163388],["▁mo",-9.06934917747635],["▁bar",-9.069476391550364],["vin",-9.070981876905412],["▁continued",-9.071067762535193],["▁education",-9.071460325503029],["▁author",-9.071955217834384],["11",-9.072102307084657],["▁Summer",-9.072278578245895],["▁Institute",-9.072584312062887],["▁lost",-9.073225988713016],["▁light",-9.073465042725902],["ng",-9.07360111256043],["▁Har",-9.075124952780891],["ful",-9.075405925629779],["▁story",-9.076906979529426],["▁Mac",-9.077394124057518],["▁Ab",-9.077648252219166],["▁Can",-9.077755498289095],["▁founded",-9.07799437800933],["ik",-9.078782702065658],["▁open",-9.079128888493653],["▁22",-9.081889584791734],["▁non-",-9.083786024133266],["▁Central",-9.08495801716938],["▁old",-9.08585401221809],["▁recorded",-9.0858940427787],["act",-9.086367603075225],["▁court",-9.086607423624885],["▁Film",-9.088915681206673],["▁official",-9.089250258595682],["▁case",-9.09111938284451],["▁\"A",-9.092186017644066],["▁completed",-9.093874077657178],["mic",-9.093937735251718],["zi",-9.094144295018625],["▁Football",-9.095169042076776],["12",-9.095858871027252],["pos",-9.096096497681275],["▁Richard",-9.096151225909802],["q",-9.09623018638569],["▁considered",-9.096345604323384],["▁popular",-9.096476251653018],["”",-9.09687138203465],["▁Lake",-9.099078099272145],["▁directed",-9.099923459872493],["king",-9.101902993042044],["▁Germany",-9.102908704505655],["ative",-9.10291148296725],["’",-9.103396481080326],["▁(P",-9.10347275796112],["▁Grand",-9.103887349265136],["▁Saint",-9.10415521695311],["▁Museum",-9.104159415426603],["▁Minister",-9.105837274306325],["▁Some",-9.105974863013554],["▁1996",-9.106256456049426],["ius",-9.106410250626546],["▁social",-9.107817689205753],["▁Ben",-9.111004213703469],["▁average",-9.111255452892722],["▁21",-9.111925316678386],["qui",-9.112060646765357],["▁wife",-9.11222031759147],["▁together",-9.113168748461835],["▁Gi",-9.114382449651005],["mit",-9.114426948724537],["▁Olympics",-9.11557508316821],["wood",-9.116738277599714],["▁track",-9.11880526961265],["▁Tri",-9.119908381563151],["▁important",-9.121353585385936],["-S",-9.121391444304919],["▁days",-9.121929631787884],["▁Japanese",-9.122171004784937],["ugh",-9.122342133525287],["▁TV",-9.122629264861569],["▁J.",-9.12458946056395],["▁appeared",-9.125272095876904],["▁Games",-9.125906060639213],["ku",-9.126767708007556],["▁2017",-9.127812612186544],["ition",-9.127980630980352],["▁party",-9.128862508730911],["▁further",-9.129121827869731],["ward",-9.129316171931002],["▁Mc",-9.130016288958169],["cre",-9.130537195801429],["▁met",-9.130608568467787],["▁Catholic",-9.131553766604085],["▁Bay",-9.131939418912083],["ration",-9.131953066274349],["▁office",-9.132518782344517],["▁White",-9.132543170077433],["form",-9.13467536700224],["▁developed",-9.134958218682003],["dic",-9.13587882404871],["▁1997",-9.136773088986294],["cha",-9.138799049549645],["ization",-9.138931960334665],["▁language",-9.139026306357556],["▁times",-9.139294565892667],["▁groups",-9.140412987157138],["▁Western",-9.141416538718206],["▁addition",-9.141884129287229],["▁Academy",-9.142002477238531],["▁teams",-9.142400609572059],["ram",-9.142565092927114],["qu",-9.143353850983875],["all",-9.14528497915558],["ju",-9.147564560467757],["▁()",-9.148614124795294],["▁appointed",-9.149196558907079],["▁(D",-9.150087169519471],["▁good",-9.15092724087776],["▁elected",-9.151036840517694],["▁Ver",-9.154962307128509],["▁Chi",-9.15519382555215],["▁east",-9.155404850559437],["▁1.",-9.155813118134162],["▁start",-9.155963007952709],["▁fire",-9.156932840593026],["▁Italian",-9.156965818963144],["ern",-9.15801150464164],["▁areas",-9.159166760813058],["13",-9.161700204990426],["▁radio",-9.161994160546337],["▁alumni",-9.164857361429236],["du",-9.1649400279985],["▁points",-9.1655031099925],["lect",-9.16587615431856],["▁Pan",-9.165957612865602],["▁Africa",-9.166896203644228],["led",-9.167209611764866],["▁\"B",-9.168054081223735],["uk",-9.168224675182124],["▁consist",-9.168622671387153],["▁Awards",-9.169696847465985],["kin",-9.169982229647262],["▁Republic",-9.170470078613036],["▁should",-9.171223897777754],["▁formed",-9.171449646483186],["▁Ph",-9.171607382064698],["▁working",-9.171871542881053],["ug",-9.172702889117476],["cal",-9.172737019764227],["▁signed",-9.173129366182408],["▁23",-9.173452179899506],["▁process",-9.173618014786571],["▁Bra",-9.176928657200584],["iz",-9.176978604887069],["▁Mor",-9.177404634923162],["▁common",-9.178240748279672],["▁Texas",-9.179465919757584],["▁Category:E",-9.179782508849383],["ez",-9.180086437302059],["▁Company",-9.180151766175989],["▁Russian",-9.180189788079655],["While",-9.182285157359797],["▁Category:T",-9.182418609896704],["▁west",-9.18248184369562],["▁com",-9.182876059851884],["rid",-9.18411359527993],["▁Fe",-9.184568701184968],["▁making",-9.18621497066525],["ctor",-9.187042358533388],["▁Christian",-9.187911230804884],["ight",-9.18806084071703],["▁human",-9.188185226683625],["▁col",-9.1886437339582],["although",-9.189255910552244],["▁Th",-9.189781311648307],["▁himself",-9.19054702717516],["▁UK",-9.191115185827188],["▁mother",-9.191771605635337],["▁Early",-9.193437803988395],["ö",-9.19381086980491],["▁ten",-9.193846953251741],["▁\"M",-9.196291458940754],["amp",-9.196500329651013],["14",-9.196747081645949],["▁Zealand",-9.199409838771182],["▁1995",-9.199418509516466],["time",-9.19952254410664],["▁rock",-9.200048104489081],["▁po",-9.201239672332171],["jo",-9.202277469185566],["▁Mer",-9.203518100693833],["d6",-9.203923368931044],["▁hand",-9.203955972731292],["▁episode",-9.20396532386222],["▁du",-9.204824362126029],["▁attack",-9.205118860441413],["ches",-9.205780817502982],["▁1992",-9.206715923935741],["▁full",-9.207478899190882],["uch",-9.207644973987417],["▁modern",-9.207668261278746],["▁center",-9.208203206137402],["▁26",-9.208317331619499],["▁college",-9.209235449767014],["▁Shi",-9.209564519858176],["▁Mu",-9.20979181907034],["ological",-9.210020315502822],["▁Day",-9.210350960615807],["▁get",-9.210734769598545],["▁region",-9.210906831270743],["▁Great",-9.211868384498494],["▁1994",-9.213066192360442],["▁Super",-9.214502489965136],["▁Life",-9.215269311590033],["▁body",-9.216190299290357],["▁female",-9.216544323793762],["0,000",-9.216862521068096],["lip",-9.216957642418043],["▁level",-9.217913519895333],["▁Henry",-9.21799768620813],["▁seven",-9.218672716547315],["sha",-9.219254955104441],["▁see",-9.22053091264226],["▁available",-9.22085223205203],["qua",-9.225350739572539],["▁Sam",-9.226465818315933],["▁host",-9.226504672279775],["▁less",-9.227573808344646],["▁sea",-9.229652742651277],["▁Dr",-9.230624578159414],["▁contract",-9.231188117277478],["▁No.",-9.231529768017662],["▁information",-9.233563800614245],["Z",-9.23358722131188],["▁class",-9.233775208115578],["||",-9.233946534376997],["▁space",-9.234833607687658],["▁2018",-9.235216005157007],["▁data",-9.235230787240777],["▁27",-9.235735699196525],["▁28",-9.235931372832642],["▁tour",-9.238761316985647],["▁ca",-9.240090696153016],["▁close",-9.24010971741586],["!",-9.240137552965434],["berg",-9.24063486611833],["▁Law",-9.240692097794511],["▁19",-9.241539449337763],["▁road",-9.24158889345194],["▁schools",-9.242872609168717],["zz",-9.244094289263519],["▁across",-9.244169908329184],["ette",-9.247458553988565],["▁living",-9.247742371473935],["cho",-9.247831489146828],["cle",-9.248650076945495],["▁Ke",-9.2493746785815],["▁Tr",-9.249475332669437],["▁companies",-9.249881492148134],["cur",-9.250139710628488],["mor",-9.252297766236314],["▁sold",-9.253339015209415],["▁degree",-9.253486600726816],["▁playing",-9.254755298368176],["ome",-9.254785215378119],["die",-9.256199553266118],["bre",-9.256313571899046],["ire",-9.258829630708378],["▁Paris",-9.25930608872457],["▁young",-9.259732759223676],["▁model",-9.26095618107722],["▁real",-9.261003640083457],["tar",-9.262294791204726],["tern",-9.262532504656248],["▁Sal",-9.262768935062853],["emb",-9.263993573193828],["▁how",-9.265134442557978],["house",-9.266424679632609],["▁performance",-9.267855506364244],["▁black",-9.268056588518542],["▁Com",-9.268850604295167],["▁campaign",-9.269534983998373],["ture",-9.269602610947564],["ions",-9.271379673866733],["▁never",-9.271587443463892],["▁current",-9.27189672819534],["▁Order",-9.272523004721343],["-A",-9.273111721183021],["▁Smith",-9.273947216339923],["▁performed",-9.274159081466564],["▁Chinese",-9.276312543316644],["▁1990",-9.27866529514526],["arm",-9.278920415116165],["|",-9.278985520608135],["▁Los",-9.279230036839824],["▁Che",-9.279351484164257],["▁Bu",-9.279399623127881],["▁Q",-9.279417144026327],["í",-9.280088323296447],["▁1993",-9.281020351158265],["▁serve",-9.28229862355463],["town",-9.283065297005079],["▁(L",-9.285110935306024],["▁Sc",-9.285819102802206],["-B",-9.28597907873419],["▁Education",-9.28626224934024],["▁range",-9.286575883161643],["▁river",-9.28758586335985],["▁score",-9.287684806437433],["▁president",-9.28865816528541],["ington",-9.288783975815928],["▁study",-9.290167229888834],["▁Ireland",-9.291431514111439],["▁Hill",-9.291535825574794],["▁construction",-9.29249629854026],["▁African",-9.292600408880038],["▁must",-9.292965050030482],["▁Sea",-9.293718493189754],["let",-9.29375171412688],["▁does",-9.294577103511878],["▁Louis",-9.29616871396594],["▁market",-9.296960474482486],["▁though",-9.297603703189],["▁away",-9.297846323843721],["▁base",-9.29817304588027],["17",-9.298548984944315],["over",-9.29872120395392],["stan",-9.29881591747362],["16",-9.298877749788417],["▁stations",-9.299343322910328],["▁rest",-9.300233522435331],["dia",-9.300253213123119],["▁1991",-9.301497149307218],["gave",-9.30215500849233],["▁Tom",-9.302910995162566],["▁ma",-9.303009051982515],["▁great",-9.304287870314775],["cu",-9.30446612035095],["▁front",-9.304759428046403],["▁buildings",-9.305480279649712],["war",-9.30605883127275],["▁(T",-9.30606662447659],["▁places",-9.306706079116477],["▁(N",-9.30693889022662],["▁killed",-9.30814680014348],["▁taken",-9.308650110190811],["-1",-9.310614157697234],["▁Force",-9.313078781169173],["▁Virginia",-9.31343869596244],["ace",-9.313916338638021],["▁Martin",-9.314129151803499],["mark",-9.314190492313966],["▁\"I",-9.314625978164512],["sky",-9.314761260008975],["van",-9.31555690654396],["▁Qu",-9.315618192966044],["▁private",-9.31717572568116],["▁guitar",-9.317703042999236],["▁Mal",-9.317807691615146],["▁Za",-9.318557407781922],["▁Sir",-9.319858380714399],["▁Notes",-9.320183478694116],["▁Cal",-9.320615775601711],["▁Bre",-9.321413690728667],["–18",-9.32233264078676],["▁you",-9.323447949708312],["▁ship",-9.323741555828839],["?",-9.32400028199943],["ear",-9.324780032672939],["▁features",-9.325368847875318],["use",-9.325760990454851],["rap",-9.32587399735667],["▁once",-9.327334496118663],["▁followed",-9.328232343647798],["▁50",-9.328275583261819],["▁designed",-9.328385035249344],["eng",-9.328580987515885],["▁Spanish",-9.328608250361833],["21",-9.329447184485284],["▁reported",-9.330834363413036],["▁give",-9.331138459672566],["▁media",-9.33114190983257],["hol",-9.331733286167802],["oli",-9.332163729469965],["gra",-9.332291553745538],["▁Fu",-9.332385603800764],["41",-9.33265762322624],["▁months",-9.332778211128375],["▁find",-9.33282408915518],["25",-9.333196236886634],["cer",-9.333418439088348],["shire",-9.333764109744083],["▁Province",-9.334286291149873],["ize",-9.33447413016465],["unt",-9.335474488087275],["▁network",-9.335880799384503],["▁finished",-9.339262487953492],["ple",-9.339856096186516],["day",-9.340005259358337],["mes",-9.3401726588033],["▁novel",-9.340201980434998],["set",-9.340401925649022],["pan",-9.340403405350525],["ake",-9.341041844809983],["back",-9.341382024993997],["▁originally",-9.341447791231626],["▁allow",-9.341552241959631],["▁aircraft",-9.34249255163115],["ates",-9.342966967839473],["ult",-9.343205169511716],["▁Arch",-9.343628491648026],["ria",-9.344358955652051],["▁currently",-9.344739300073872],["▁largest",-9.346503321607479],["▁Va",-9.346719927000487],["▁Sun",-9.347299764351538],["▁Bal",-9.348978087829636],["▁brother",-9.349091454059408],["▁Men",-9.34973015125918],["▁movement",-9.350389525400693],["▁Min",-9.350839319685369],["dra",-9.351139273023424],["▁Category:D",-9.351831018478618],["▁white",-9.35185653894559],["▁Year",-9.352594212842279],["tel",-9.354501603609835],["for",-9.355530781457404],["cul",-9.355882145683243],["ound",-9.356095555397397],["▁practice",-9.357198805893747],["ces",-9.357973250337638],["mini",-9.35804350900663],["ici",-9.358847958844908],["▁magazine",-9.359088503488445],["▁collection",-9.359620005062416],["ica",-9.360096783467046],["▁politician",-9.360429983376948],["▁Rock",-9.361920061495223],["▁Mark",-9.362332154350653],["▁route",-9.363451661490611],["▁includes",-9.363598816909933],["Although",-9.363943692337854],["43",-9.364355260738991],["graph",-9.364591420637824],["▁(1",-9.365254932966307],["uff",-9.365974850638647],["ä",-9.366493662157529],["▁training",-9.367871095343926],["▁seen",-9.36804118109966],["▁Br",-9.371706419003646],["▁interest",-9.372395308563288],["▁Historic",-9.37428331829872],["40",-9.374483014240907],["▁bgcolor=#",-9.374500970855044],["▁health",-9.374787856550725],["ever",-9.374989084941287],["▁trans",-9.375230903114977],["▁throughout",-9.375761244269778],["▁Two",-9.376025911502564],["▁Mary",-9.376290423044582],["med",-9.376697356138324],["son,",-9.377709904774086],["ers,",-9.37792848080599],["51",-9.378090837434012],["▁books",-9.378736236020847],["▁Ju",-9.378987316230075],["▁Since",-9.379030025378613],["▁\"T",-9.379199592308806],["listed",-9.380662930432914],["▁edition",-9.381216048460013],["▁1st",-9.381470296714806],["vol",-9.381577546164602],["ore",-9.381720327505795],["off",-9.382422874572349],["▁1988",-9.3831894030488],["▁(F",-9.383841845462731],["ble",-9.38494175017701],["▁29",-9.385204672470966],["ral",-9.385327399945282],["lit",-9.38568831501162],["▁park",-9.385845501662498],["▁turn",-9.385885576455149],["▁artist",-9.386500673367104],["▁tournament",-9.387815019197584],["▁eight",-9.389232628728287],["pri",-9.389855859012329],["▁And",-9.390063694615895],["▁police",-9.390421842251728],["▁1989",-9.39139948648342],["▁establishments",-9.391415914915966],["▁Val",-9.391416699882294],["▁forces",-9.39210228935613],["▁Chicago",-9.392433466087585],["▁sent",-9.392990043329712],["ola",-9.393166722172154],["▁Festival",-9.39332588197337],["▁leading",-9.393655793083573],["▁battle",-9.393835667331652],["▁Ci",-9.394158238102001],["▁Edward",-9.395949291298303],["▁Category:F",-9.396099330824438],["▁Brown",-9.39704751220985],["▁Mexico",-9.397506878119149],["▁trade",-9.397678017584406],["▁board",-9.399247994329347],["▁Cla",-9.40187262322863],["▁Team",-9.402078270454815],["▁Navy",-9.403632197131383],["▁Government",-9.404206452476553],["arch",-9.40471436249265],["ree",-9.40476581284252],["▁Official",-9.40485720760383],["▁my",-9.405478084195803],["▁love",-9.405773571354947],["▁Dan",-9.406193242006497],["ible",-9.407310005125135],["▁countries",-9.407818058486377],["47",-9.407819141770531],["remained",-9.408342505448212],["cen",-9.408439189826222],["01",-9.409260980465097],["▁imp",-9.410395340447833],["ly,",-9.413300102397196],["awarded",-9.413532342940895],["▁artists",-9.41356053567311],["▁Italy",-9.413615679877159],["▁eventually",-9.413763235146119],["▁Port",-9.414681550870094],["ified",-9.415448197271107],["▁involved",-9.415502775067337],["ability",-9.416015609873941],["▁text",-9.416718207362196],["▁introduced",-9.417406705527267],["featured",-9.417407529432314],["▁2.",-9.417538876721581],["▁competition",-9.418261314122343],["▁test",-9.419022603730822],["▁(H",-9.419439629702868],["bas",-9.419594047607934],["▁past",-9.420203807909818],["▁Second",-9.420759226915042],["▁hit",-9.420872066313072],["nic",-9.421015148207797],["▁Pennsylvania",-9.4210954817025],["▁God",-9.421106642356591],["▁Service",-9.42281327750818],["mann",-9.422969012464348],["rac",-9.423872190938118],["▁Hol",-9.42593825657021],["▁Gar",-9.426111503112145],["▁Cu",-9.426312944225282],["▁move",-9.426983609335256],["▁railway",-9.427022908535298],["▁Han",-9.428559874737411],["bar",-9.429216019766676],["▁above",-9.430602363766118],["▁writer",-9.430872065913768],["▁ground",-9.431585693602923],["▁central",-9.431672480559245],["▁Most",-9.432059782501465],["▁Inter",-9.43260693964338],["▁Director",-9.433501694238272],["▁type",-9.433541456711392],["▁culture",-9.433947008444287],["▁added",-9.434436766284756],["shi",-9.435250079824796],["▁studio",-9.435373879821896],["▁Florida",-9.43579835404274],["▁Science",-9.435806166265795],["▁Committee",-9.436603749557309],["▁Par",-9.436736339571388],["▁Nu",-9.436752395832729],["▁change",-9.437060524314667],["▁size",-9.438085551360365],["▁replaced",-9.438528416223816],["▁(R",-9.439917781731326],["...",-9.441244825271198],["▁Blue",-9.441489541817297],["▁super",-9.441549574747164],["▁Angeles",-9.441845500787329],["▁Bas",-9.441850662972733],["▁goal",-9.44226220710261],["▁either",-9.442682105792386],["igh",-9.443348039019257],["▁Soviet",-9.443772840974797],["ade",-9.443907884417854],["▁plant",-9.44394398561609],["tation",-9.44413462222028],["ants",-9.44487649227964],["▁Final",-9.444928029567958],["ress",-9.445072556836443],["▁usually",-9.445804073079165],["▁Don",-9.446624341059282],["las",-9.446724680733581],["▁strong",-9.447435997149807],["▁Pat",-9.448612541249544],["▁Ly",-9.448650436606336],["ton,",-9.449101537353625],["▁night",-9.449207841283894],["lay",-9.44928802616818],["▁Land",-9.44969797869221],["▁years.",-9.450691905950153],["▁Sha",-9.450966963908225],["▁view",-9.453122785626768],["▁Town",-9.45419341984206],["▁previous",-9.454456892136205],["▁40",-9.454580052328568],["wing",-9.455207374021382],["▁Under",-9.455322449754174],["▁(the",-9.455700096466636],["95",-9.456184619640894],["aid",-9.456812974346601],["▁bank",-9.457813056733807],["▁Arts",-9.458256234256687],["▁Bur",-9.458526165248944],["▁Sh",-9.458919555418108],["ped",-9.45909441010448],["▁Championships",-9.460192590251784],["▁Mad",-9.460400250097456],["20th-century",-9.460435470467027],["▁least",-9.46064081241975],["▁Pu",-9.460755192028655],["▁Wales",-9.462514814483622],["▁science",-9.462835277161563],["▁Ram",-9.462839900034599],["hal",-9.463518060006235],["90",-9.463576981191242],["serv",-9.464293135213241],["bor",-9.464489844431336],["▁Ku",-9.464847961025155],["▁(I",-9.464898802169701],["▁2,",-9.465352764766324],["▁Career",-9.465778411546143],["▁Ya",-9.465797495821827],["pat",-9.46709497850863],["▁subject",-9.467503604102486],["▁farm",-9.467558675430475],["▁1987",-9.467678812021159],["cher",-9.467871742696348],["54",-9.467873868634488],["ā",-9.46918541050174],["▁Is",-9.469202376093175],["▁Battle",-9.470084479688234],["era",-9.470159604910073],["cla",-9.470278882065305],["▁But",-9.47037957448263],["▁Joseph",-9.470621987839706],["▁Cre",-9.471380886674487],["▁upon",-9.47154995557006],["▁provided",-9.472748652967178],["▁basketball",-9.473007081679835],["▁Dar",-9.473263638905866],["▁capital",-9.473560090844545],["ō",-9.474527144777127],["▁season.",-9.47457103378927],["▁rights",-9.474692949141348],["▁active",-9.474842197627616],["rat",-9.475211378059289],["vel",-9.475373668768706],["▁Carolina",-9.47588527200577],["▁read",-9.476045411772496],["▁units",-9.476093737170046],["mel",-9.477248013223507],["▁writing",-9.478181335618169],["▁Not",-9.478283820772369],["▁break",-9.478732181832548],["mat",-9.479160815226587],["▁vocals",-9.480380260194389],["▁deal",-9.480503611204249],["80",-9.480973629255868],["▁action",-9.481477527165797],["▁fall",-9.48232791347618],["▁put",-9.482588022126272],["▁Love",-9.482981910886723],["52",-9.483151645249965],["▁Public",-9.483173431261676],["▁Mount",-9.483808427691033],["▁mission",-9.485070751275634],["▁1984",-9.485711318417957],["60",-9.486466692196013],["▁1986",-9.487238321830903],["ather",-9.48864132701345],["▁shows",-9.489073453847285],["▁medal",-9.489139247939853],["▁wide",-9.489712484209555],["▁sports",-9.490941008843283],["▁Er",-9.491289500812254],["▁fourth",-9.491891247957874],["▁person",-9.492070529556301],["24",-9.492725449196188],["ella",-9.49373570220337],["pen",-9.495004941266346],["▁far",-9.495246479856652],["▁1980",-9.495422845078846],["▁Bank",-9.49678965239857],["▁saw",-9.497332340414289],["▁Old",-9.497472711232293],["ute",-9.498830610832377],["hop",-9.498837545167927],["ó",-9.499129915548746],["▁Tre",-9.500207805346044],["watch",-9.500424856161466],["bot",-9.50050860438196],["▁independent",-9.500764981447453],["dol",-9.501256260139334],["part",-9.501620482899085],["▁pl",-9.501856705598637],["▁cr",-9.502166861884321],["▁pi",-9.50285545470894],["▁\"D",-9.503676791830147],["▁organization",-9.503906430186332],["▁come",-9.503965172533146],["▁31",-9.504533869392436],["▁however",-9.504664956269112],["▁Register",-9.504903111531972],["▁(E",-9.505393761114862],["▁Sta",-9.508229280836579],["▁Railway",-9.508718252451182],["▁Research",-9.508834389735588],["▁Vo",-9.508948938024341],["bert",-9.509028452583411],["▁Northern",-9.510410879300753],["▁vi",-9.510590599298096],["▁traditional",-9.51132458692686],["▁missing",-9.511687731005349],["▁stated",-9.511813695204639],["ski",-9.51363797994396],["▁Category:H",-9.514509195835805],["ura",-9.51463013050734],["▁You",-9.514719059308879],["▁Board",-9.51478245853335],["▁Line",-9.515097949749297],["▁Russia",-9.515380693746263],["worth",-9.515427366584962],["▁section",-9.516359801336328],["▁\"C",-9.517084502117632],["▁Lord",-9.518693384539768],["▁Van",-9.518820368681194],["▁flow",-9.519430956708266],["▁writers",-9.519460302706756],["ken",-9.520728019027201],["▁access",-9.52146122799161],["▁natural",-9.52195307540707],["▁Home",-9.522604939440278],["▁co-",-9.52289922431265],["▁Wood",-9.5231971310539],["ston",-9.523351099057118],["22",-9.52335911626985],["een",-9.523565532448995],["05",-9.524010325819521],["▁via",-9.52462511353421],["▁personal",-9.524667211143022],["Films",-9.524675528431501],["▁1985",-9.52481330246953],["▁actor",-9.52496887951948],["▁Pol",-9.52517784703902],["▁Gra",-9.526531959483549],["▁economic",-9.52697057248131],["dom",-9.527776555471666],["▁reading",-9.528172907655126],[".com",-9.529696483312167],["▁Category:R",-9.530091676328441],["aries",-9.530116786015233],["▁success",-9.530545544749993],["rop",-9.530656620904393],["▁(J",-9.530757401332076],["▁red",-9.532147329195892],["▁structure",-9.532157841852198],["▁shot",-9.532530810330073],["▁Ed",-9.532720678723374],["▁unit",-9.533050267143702],["log",-9.533310055595553],["-L",-9.533431350824577],["▁contain",-9.533519285848834],["▁Frank",-9.533572999287056],["rather",-9.533890365508993],["23",-9.534103609730026],["▁Series",-9.534293810357747],["▁Bill",-9.53482455317106],["▁Part",-9.535128624035227],["-year",-9.535777724856205],["▁Irish",-9.536143919237736],["▁Empire",-9.536440039286527],["▁leader",-9.537186041150326],["▁decided",-9.539936098977456],["-C",-9.54017262115928],["ers.",-9.54042762859921],["▁division",-9.540756883610864],["scored",-9.541105833033697],["uck",-9.541134743370385],["▁singer",-9.541412392042119],["▁results",-9.541424769595066],["▁Greek",-9.541542385760888],["reached",-9.54206421173354],["▁(\"",-9.543726987893473],["gon",-9.544077777351475],["avi",-9.544585282521503],["▁championship",-9.547010448277566],["▁Yu",-9.548149102508217],["▁week",-9.548459280118038],["▁award",-9.548559776695539],["del",-9.549130849090002],["▁Christ",-9.549487670188812],["win",-9.549776915553922],["lam",-9.550342724856822],["57",-9.550356932167926],["▁M.",-9.550714303931416],["pal",-9.551132537225898],["▁force",-9.55569656744171],["▁account",-9.555857290319537],["▁states",-9.55596877990825],["▁outside",-9.556720106089704],["▁Tour",-9.55705522815132],["cket",-9.557216406410802],["▁Cross",-9.55722111651611],["▁musical",-9.557430609468032],["sco",-9.557989603305684],["▁Fort",-9.558229365039656],["▁commercial",-9.55834470079185],["▁census",-9.558572750754438],["▁review",-9.559172129353295],["▁rate",-9.559255296683101],["lli",-9.559952067286584],["35",-9.559956366147993],["itz",-9.56005252229564],["Q",-9.560238202530751],["ges",-9.560351519953779],["▁report",-9.560450392864102],["▁hold",-9.560950651260814],["etic",-9.561441034776161],["hir",-9.562583792411216],["-D",-9.562892524830533],["▁Ki",-9.563008829074114],["▁Au",-9.56302009144978],["▁command",-9.563217033108051],["bol",-9.563310205541002],["▁\"L",-9.563915088183284],["▁Parliament",-9.564264065739488],["▁\"the",-9.564558736826143],["col",-9.564778554064443],["ect",-9.565044322550083],["99",-9.565386956822191],["▁Wal",-9.565507053273839],["▁broadcast",-9.565857409674514],["stra",-9.566192141840792],["▁characters",-9.567082551631668],["mus",-9.567099729385763],["▁Lee",-9.568028393908753],["▁department",-9.568099028547284],["board",-9.568343306207858],["ock",-9.569087428650542],["teen",-9.569442557462084],["ili",-9.570380009649744],["▁northern",-9.57064526665702],["▁Georgia",-9.571093254942843],["light",-9.57203109334414],["lor",-9.572156267264695],["▁successful",-9.572736402763013],["▁1983",-9.573515273705679],["▁Chief",-9.573548043067115],["▁\"P",-9.57378931397106],["ving",-9.574328832824557],["ised",-9.574383378454286],["kar",-9.574501869739036],["▁gold",-9.574632565422334],["▁relationship",-9.575224689880113],["▁Latin",-9.575401652179778],["ami",-9.575651157232121],["▁individual",-9.575982614403328],["▁southern",-9.576392468232024],["▁producer",-9.577185432826097],["▁instead",-9.577306991853197],["▁Radio",-9.577383112713658],["▁centre",-9.57744246562191],["ara",-9.57750470157546],["04",-9.578036557839786],["▁fact",-9.578120774671314],["▁decision",-9.578910391291148],["brought",-9.579289536579807],["bri",-9.580762579278995],["▁lower",-9.580886553098708],["right",-9.580979736390187],["▁possible",-9.581546049272355],["53",-9.581947491177402],["▁industry",-9.582052891642965],["▁Major",-9.582435654160326],["45",-9.583028479274539],["gre",-9.583468044753275],["▁defeated",-9.583520593406321],["▁winning",-9.583992712643044],["▁border",-9.584148676479847],["▁date",-9.584306881253893],["55",-9.584781952109758],["▁Ran",-9.585020769798087],["42",-9.585465396220775],["▁Gold",-9.58623814727678],["▁1982",-9.586662734154055],["▁Out",-9.587191562092961],["▁seat",-9.587381441628935],["▁Spain",-9.589321610149245],["list",-9.58981362990755],["ming",-9.589830665592377],["94",-9.59074264796499],["▁Civil",-9.591658990019159],["▁behind",-9.591869295348703],["▁(G",-9.5929093918143],["yan",-9.593418959839152],["▁$",-9.593487870773382],["▁Tra",-9.594657696990785],["06",-9.594779915298506],["▁Places",-9.59540480419885],["pir",-9.595865007418796],["whose",-9.596110782372058],["▁almost",-9.596555477090233],["▁below",-9.598438315630318],["▁cross",-9.598890156768636],["▁Jack",-9.599181317780513],["▁previously",-9.599225067811165],["▁Cat",-9.599423047123448],["bel",-9.599440122246268],["▁beginning",-9.599544544746418],["pin",-9.600076798315252],["ious",-9.602413065753742],["mil",-9.602622315820549],["approximately",-9.602685751625927],["▁Big",-9.60420691998692],["▁movie",-9.604999587469083],["attended",-9.60515540968772],["▁child",-9.605850809888155],["03",-9.606061974976885],["▁Young",-9.606102944703494],["cus",-9.606409652202913],["▁Space",-9.607882238751937],["65",-9.608240052720761],["▁cast",-9.608683072950154],["▁Later",-9.608727655219846],["▁Ye",-9.608978586980633],["vid",-9.609793284492989],["02",-9.610439464259727],["idae",-9.61106335368578],["▁Cast",-9.61127567000716],["lock",-9.611289148176143],["▁length",-9.611421395529891],["▁island",-9.611709604624355],["ves",-9.611966708320656],["▁app",-9.612529509841883],["▁feature",-9.612635649073619],["▁regular",-9.613142753746358],["rist",-9.615164551011699],["▁Valley",-9.61545606844028],["pic",-9.615580986379735],["-based",-9.615915278421063],["▁newspaper",-9.61607909979246],["▁bat",-9.61610177609654],["▁meeting",-9.616127175203458],["▁summer",-9.616534729566743],["▁Cy",-9.616651808225708],["chan",-9.616682367487659],["▁primary",-9.617021044689798],["ón",-9.617527381374394],["▁Long",-9.61773729135636],["top",-9.617910007733553],["aga",-9.618084581651726],["▁1972",-9.618133955566936],["▁1979",-9.618205846279414],["▁(17",-9.61863281607199],["▁families",-9.618722665115522],["\")",-9.619460866314743],["tch",-9.620018576380463],["▁attempt",-9.620797491731189],["▁Wil",-9.622230111864404],["26",-9.622332922514577],["The",-9.623067230277467],["ole",-9.623407452609896],["▁Category:N",-9.624704543343059],["▁Nor",-9.624728114134278],["tract",-9.625166483237805],["▁offer",-9.62587576624875],["▁sound",-9.626348583898915],["▁Ser",-9.627065925235541],["▁drama",-9.627081354470509],["▁Middle",-9.627291703045227],["rel",-9.62743853968518],["vent",-9.62749179230909],["▁Time",-9.627674511205488],["▁train",-9.628061906988588],["▁Assembly",-9.628915550809916],["▁Bel",-9.62919076977651],["▁changed",-9.630060627786172],["▁year.",-9.630587703866613],["-2",-9.631002843174278],["▁Post",-9.631161645637707],["▁Congress",-9.631618081713366],["▁Press",-9.631761079134986],["ments",-9.633619132928205],["-M",-9.633729359699455],["app",-9.633932457644306],["▁double",-9.633939904669319],["▁food",-9.63542937858236],["▁Category:G",-9.63552841486305],["▁dance",-9.63555788607718],["▁sister",-9.636017238037116],["▁1976",-9.636498069584928],["play",-9.636681139988127],["▁plays",-9.636762803926766],["▁nine",-9.636791541593487],["▁plan",-9.63728434507933],["28",-9.637463513998073],["▁2nd",-9.6386653320251],["sur",-9.639008168969607],["ull",-9.639581827558523],["27",-9.639582040527756],["▁\"F",-9.640517196790489],["▁Mil",-9.640947051443861],["▁influence",-9.641029824576423],["▁Queen",-9.64146996310566],["▁experience",-9.64148067650393],["▁standard",-9.641604790134801],["rom",-9.641770891355726],["lia",-9.642025755056983],["▁1981",-9.642326339927934],["sch",-9.642617784025445],["burg",-9.64266373377476],["▁systems",-9.643355363209022],["pet",-9.64350593388916],["98",-9.643940618912374],["▁cover",-9.644605046333956],["▁increase",-9.644767921236015],["cker",-9.644887393076559],["▁itself",-9.645181317383308],["▁Southern",-9.645682584243254],["▁Open",-9.646154796659014],["▁issue",-9.646284685657571],["head",-9.646348968413681],["▁Stra",-9.647104089218578],["aka",-9.647106078540727],["▁block",-9.647504964576312],["Following",-9.648213745820067],["▁student",-9.648457848441202],["▁Kan",-9.648592876751371],["▁Tal",-9.649259015363805],["istic",-9.649909203277298],["▁allowed",-9.65006462373651],["spect",-9.651689191680541],[");",-9.651860991080417],["▁Ohio",-9.652844704202831],["▁ha",-9.653047943040617],["▁label",-9.65305482211174],["▁represented",-9.653310082614228],["▁paper",-9.653693618958858],["ux",-9.654437549545394],["▁Times",-9.65490146100048],["emi",-9.654967166091295],["▁significant",-9.654993539961202],["▁create",-9.65522522586059],["85",-9.65547596777297],["▁3.",-9.657473068538598],["▁soon",-9.657560442507638],["▁Game",-9.657675282495193],["▁little",-9.657949553200718],["▁taking",-9.658140279483217],["▁Joe",-9.658215107937815],["▁2010,",-9.659013285221071],["▁F.C.",-9.659247472496302],["▁closed",-9.659295801641482],["▁legal",-9.659470654208556],["▁Top",-9.659671918348483],["▁key",-9.659874043041308],["):",-9.660000374634421],["▁additional",-9.66015355696545],["▁Dr.",-9.660541151707429],["▁1970",-9.661145047124062],["▁Michigan",-9.661264259708622],["Category:Sport",-9.661502278404617],["-P",-9.661548560348438],["▁Track",-9.661568389876555],["▁studies",-9.66201291575831],["▁army",-9.662442282430604],["▁owned",-9.66264159102723],["▁Phil",-9.66357333184644],["pot",-9.663717158256073],["dar",-9.663863398305962],["▁future",-9.663903326244837],["var",-9.665222182368563],["phy",-9.665348507036331],["▁operations",-9.665651552578277],["▁runs",-9.665881884181596],["07",-9.666192862388217],["man,",-9.666523203045053],["▁complex",-9.666611756195337],["▁poet",-9.66669342323922],["hum",-9.666703121390755],["▁Bro",-9.667141073888507],["awa",-9.66730978034634],["▁required",-9.668643977258908],["och",-9.668940730763532],["▁1978",-9.669886533997412],["▁III",-9.670077827038998],["▁murder",-9.67007806917044],["une",-9.67056049041396],["▁Asia",-9.670953140438261],["08",-9.671189309415874],["▁1968",-9.671520658993666],["gel",-9.671884534411983],["▁Cho",-9.672352088882667],["70",-9.672453383718256],["▁travel",-9.672645689357767],["▁especially",-9.673373223972591],["▁Prince",-9.674682312832454],["▁according",-9.675270445578757],["▁C.",-9.675285815421155],["▁1974",-9.675796576858781],["pol",-9.676315398761169],["▁ended",-9.677932442959019],["▁3:",-9.679220520027407],["▁Ren",-9.67923220455316],["▁goals",-9.67984417340208],["▁need",-9.679862020725007],["96",-9.6799501184574],["▁launched",-9.679979544118149],["▁face",-9.680046170687238],["uc",-9.68035390643909],["cor",-9.681627059224594],["▁higher",-9.681683257331368],["nder",-9.681760202296898],["▁Mel",-9.681910601643603],["ography",-9.682090973378894],["▁singles",-9.682187186902148],["gle",-9.682590934574659],["▁Poland",-9.683055538796209],["+",-9.68339246586911],["▁money",-9.683395955669704],["▁union",-9.683647361106749],["nci",-9.683773313203544],["urg",-9.683804836248733],["placed",-9.684321313538637],["▁highest",-9.684455569241694],["▁Trans",-9.684480662770198],["▁Ve",-9.684545507520362],["▁color",-9.684815027159937],["▁channel",-9.685337439862797],["bal",-9.685788713282669],["▁2011,",-9.686707881996426],["▁programs",-9.687040115695662],["til",-9.687296580178545],["ologist",-9.687518227488471],["▁Asian",-9.687805937330328],["▁appearance",-9.689086106819676],["▁Commission",-9.689228231603163],["▁manager",-9.689276763426118],["referred",-9.689549606415135],["wan",-9.689784302363295],["▁staff",-9.690108177721195],["▁opening",-9.690119211997523],["ory",-9.690426417487236],["▁related",-9.691183731327826],["▁2012,",-9.691658040058822],["▁Ber",-9.69167747345153],["▁Gal",-9.691726339745248],["▁Bell",-9.691815145889949],["▁Op",-9.691840177195168],["▁bridge",-9.693220627896835],["▁cost",-9.693881107773375],["▁whom",-9.694304269294477],["▁location",-9.69436033863711],["▁1975",-9.694590021635552],["▁means",-9.694846296658074],["▁Es",-9.69496400191056],["gate",-9.695439278130843],["▁3,",-9.696022737954944],["rum",-9.696383545872674],["rad",-9.696643857887357],["lus",-9.696664795648267],["▁property",-9.696912263415248],["▁cap",-9.697134784730316],["▁Jersey",-9.698659068780275],["ray",-9.699216419488733],["▁Of",-9.699299242791044],["my",-9.699355244549688],["29",-9.699411958290353],["75",-9.69977098424568],["▁A.",-9.700574127843],["▁1945",-9.701259138828497],["▁Fo",-9.701670178008388],["97",-9.702006253560574],["spent",-9.702021907825241],["▁ever",-9.704076370647224],["▁time.",-9.704322059686005],["▁matches",-9.704322277799776],["88",-9.704611033009513],["▁woman",-9.704777039534752],["58",-9.705045280157783],["▁tax",-9.705194858899489],["ification",-9.705281774215463],["▁1977",-9.706208889117569],["▁historical",-9.706340806104736],["ency",-9.70649642197131],["▁county",-9.706873938817308],["▁Station",-9.706876651459867],["vision",-9.707399453120365],["▁care",-9.707507594604458],["▁sometimes",-9.708192545079106],["▁course",-9.70823600192527],["09",-9.708357456484826],["▁develop",-9.708659467661871],["ave",-9.708963364839061],["▁2013,",-9.709483494464633],["▁Britain",-9.709820925402234],["gal",-9.710044497348045],["ines",-9.710158625030564],["▁officer",-9.710391627342569],["▁2014,",-9.710740144890048],["ban",-9.710820189266638],["illa",-9.711397356087122],["▁CD",-9.711438421249541],["-R",-9.712691990208864],["rig",-9.712735635462492],["▁civil",-9.712917032512538],["▁Further",-9.712971729528368],["56",-9.713226351156745],["uri",-9.713279603379616],["▁Pacific",-9.713861189872276],["Women's",-9.713951770445806],["▁Illinois",-9.715178705812054],["▁Master",-9.715187587640466],["32",-9.715300055123924],["▁surface",-9.715434049957823],["▁H.",-9.715528470488985],["▁prior",-9.715878205639829],["▁thought",-9.716031048677552],["▁Scotland",-9.716669164275618],["iya",-9.716989749891182],["▁Son",-9.717337257119391],["86",-9.717679588907044],["▁Ol",-9.718105348453333],["▁1973",-9.718426242382288],["▁Many",-9.718542994920337],["bit",-9.718563468889906],["▁low",-9.72069063841387],["cut",-9.720735102919418],["▁generally",-9.720880930961563],["▁Conference",-9.720958825135737],["▁Dutch",-9.720968606391551],["76",-9.721105689282085],["▁seasons",-9.721182676010956],["▁Book",-9.721190012180951],["▁issues",-9.722015057494309],["▁focus",-9.723136552495856],["▁chief",-9.72413735936088],["▁System",-9.724164511763062],["а",-9.724241964283864],["tag",-9.724306411862461],["not",-9.72542615993921],["▁running",-9.726015985659032],["lton",-9.726348590289527],["▁material",-9.728569079155562],["▁2015,",-9.728788736469417],["los",-9.729628232208212],["▁1971",-9.730229016463195],["▁senior",-9.730441324809972],["▁If",-9.730611423773441],["ense",-9.732992326185636],["stin",-9.733617803095187],["onic",-9.733801618501028],["▁thus",-9.733854636196844],["▁management",-9.733905652141548],["▁Jean",-9.733972543196481],["▁lived",-9.734273418417237],["vers",-9.735010743816371],["▁Far",-9.73505632768035],["▁activities",-9.735263981621136],["opulated",-9.735736913502091],["▁Bon",-9.736223012829644],["ographic",-9.736264646499157],["▁engine",-9.73680199786361],["▁earlier",-9.737093188496218],["▁separate",-9.73735377077247],["cip",-9.737787271802024],["burn",-9.738344205319704],["38",-9.738967510045326],["▁Health",-9.740270928918736],["bad",-9.740412240413901],["gent",-9.741103008093383],["▁entire",-9.74110692756651],["▁Os",-9.741369475867865],["▁Jones",-9.741646296551709],["▁Journal",-9.742363307742826],["▁1940",-9.742523512989612],["associated",-9.742633333951863],["▁Free",-9.743018292616558],["put",-9.743335987329852],["▁disc",-9.744033005319677],["92",-9.744934303122388],["▁Theatre",-9.745418941228172],["entered",-9.745917325857778],["mmer",-9.74612094584037],["oph",-9.746322693235584],["▁share",-9.747217146947728],["▁(W",-9.747287493544901],["▁Republican",-9.747564796856464],["cade",-9.748606636015978],["▁1969",-9.748727195832794],["mun",-9.748819286056861],["▁Ze",-9.749204862590823],["wards",-9.749447410775556],["▁2009,",-9.749869104348301],["78",-9.750103551027705],["stone",-9.750115816650057],["▁S.",-9.750343536541518],["▁loss",-9.750964142506259],["▁Jan",-9.751249060602099],["34",-9.751400044578475],["work",-9.751720935359765],["▁genus",-9.752350214180305],["36",-9.752412795207112],["▁province",-9.752755846565277],["91",-9.753021314620273],["▁para",-9.753161839346326],["cia",-9.753445066632716],["▁hard",-9.753615193637536],["ida",-9.754060005963387],["▁hospital",-9.75413836915568],["▁McC",-9.75459456650737],["89",-9.754658843739435],["rag",-9.754741606003128],["▁Development",-9.75545378123252],["▁\"H",-9.755820796876343],["iga",-9.756481785925018],["▁Democratic",-9.75708072719926],["▁pay",-9.757376557928534],["▁Francisco",-9.75745166114273],["31",-9.757721261803495],["▁Centre",-9.757838355891941],["▁Hy",-9.758202365399077],["▁Water",-9.758272129565254],["▁Governor",-9.758802004691265],["▁Win",-9.758887174522004],["▁vote",-9.759104093316422],["37",-9.759161938746175],["▁income",-9.759207745069267],["roll",-9.759706566356249],["▁Up",-9.76108895719482],["bro",-9.761180749794994],["▁Office",-9.761463005532063],["▁Mid",-9.761610873303551],["▁Sub",-9.7617612497066],["▁complete",-9.76210103433205],["ular",-9.762493065602712],["▁Night",-9.762689394177126],["77",-9.762847279955842],["33",-9.762983178151233],["▁older",-9.763250359737272],["numerous",-9.763560129286343],["▁Massachusetts",-9.763641164685295],["pu",-9.76379972037672],["▁western",-9.763867800165217],["▁That",-9.764274366023132],["▁Library",-9.764485682176549],["wal",-9.764827804988762],["wer",-9.764839776943417],["▁(in",-9.765269254661433],["AC",-9.765556429106905],["▁#",-9.76601712493625],["▁2016,",-9.766175115108023],["59",-9.766301002888829],["▁mountain",-9.76766331887563],["▁Play",-9.767876592420608],["▁Kh",-9.768100182320136],["SA",-9.768274802064909],["▁structures",-9.768521960033677],["▁camp",-9.769365561966143],["MA",-9.769835219962976],["▁annual",-9.770298491206598],["▁Foundation",-9.770396069009264],["▁listing",-9.770621934863708],["ula",-9.770735380819275],["iro",-9.77114468448065],["-T",-9.771379174877433],["▁famous",-9.771431250161251],["93",-9.771797569930479],["studied",-9.771940840796304],["▁ran",-9.772088705285235],["ries",-9.772606702904884],["▁1967",-9.773578022413567],["▁husband",-9.77358223320778],["▁retired",-9.774333426592314],["old",-9.774385255790492],["▁voice",-9.774914828019673],["▁Over",-9.77494543876632],["▁better",-9.775503590930946],["▁Ham",-9.775574382443978],["▁fight",-9.7760275849423],["▁lack",-9.77640634740677],["▁$1",-9.776492741961771],["▁already",-9.776739434041966],["▁medical",-9.77702411342253],["rate",-9.77746638454379],["▁Eastern",-9.778528714591053],["44",-9.778925891707113],["▁wing",-9.7789775309321],["sol",-9.779105694860355],["▁noted",-9.779555889037013],["oll",-9.779877361534684],["▁Scott",-9.780819934603016],["▁re-",-9.781036927048046],["▁couple",-9.781355724441319],["▁Special",-9.781813545730845],["tive",-9.781929513711308],["▁prevent",-9.781968152579024],["FC",-9.782285682386531],["▁Dis",-9.78228811654083],["▁Boston",-9.78235704423753],["long",-9.78248559323468],["▁W.",-9.783283680658654],["▁perform",-9.783678355455375],["incorporated",-9.784028541536502],["vest",-9.784059007205732],["▁specific",-9.784076183732372],["▁visit",-9.78450319877534],["▁1964",-9.7849828124956],["-H",-9.785547287642931],["▁selected",-9.785887848594005],["▁increased",-9.78592251514896],["49",-9.785974987803774],["▁Carl",-9.786495783316465],["craft",-9.786951407217988],["lad",-9.787064671417347],["lim",-9.787618627063846],["▁Mus",-9.787623208884442],["▁meet",-9.78771101681972],["▁Will",-9.787773695728127],["▁2017,",-9.787790184130943],["▁federal",-9.787796121624046],["er.",-9.788048911364626],["▁2008,",-9.788876487514974],["▁ships",-9.789163231905036],["▁victory",-9.789637362062019],["▁sign",-9.789650398668762],["▁Sin",-9.789918572283096],["▁computer",-9.790410447709416],["lon",-9.790888004015672],["▁Ten",-9.790925245439603],["speople",-9.791182035864432],["▁municipality",-9.791386138336192],["ope",-9.791433045472143],["▁R.",-9.791459703752619],["▁interview",-9.79147787143406],["▁parts",-9.793047136651762],["▁Fin",-9.79334132262785],["▁stop",-9.793440198537763],["ith",-9.793625313926338],["▁Ter",-9.793677617697508],["▁Columbia",-9.794215695878309],["▁Oxford",-9.794419883511745],["▁painter",-9.795098640813658],["è",-9.795177409611455],["▁produce",-9.7953815077873],["▁Little",-9.795846017411124],["▁pass",-9.796168676637597],["cas",-9.796235729308492],["becoming",-9.79678750553834],["▁Pra",-9.796823836340007],["▁religious",-9.796946590817003],["▁Jewish",-9.797527030365679],["84",-9.79753355952396],["iel",-9.798314722485717],["68",-9.79881409172638],["▁Light",-9.799224954124444],["ery",-9.799316996389447],["▁Em",-9.799374282203486],["67",-9.799534089570477],["▁del",-9.799942273609082],["▁cut",-9.800004586883139],["▁professor",-9.800344316496952],["operated",-9.800592176242715],["▁direct",-9.800706941404723],["▁word",-9.800769095122096],["46",-9.800885678012355],["▁Show",-9.801004145420414],["▁Hal",-9.801233823929174],["▁4,",-9.801725350543562],["men's",-9.801818803353143],["39",-9.80182444656803],["▁Scottish",-9.802167177529729],["82",-9.802221339172903],["74",-9.802282259821],["87",-9.803046096777324],["▁Alexander",-9.803126527360654],["▁Kong",-9.803620587405083],["▁Reg",-9.804169063314195],["▁organ",-9.80483013350836],["▁Gen",-9.805279249441707],["▁communities",-9.805735669340368],["▁1960",-9.805773759516391],["▁Ce",-9.806033286300332],["▁response",-9.80604715045021],["▁join",-9.806579751949153],["met",-9.806725707177886],["▁evidence",-9.806728243274826],["rine",-9.806778435717499],["▁Pakistan",-9.80694076193844],["▁Pen",-9.807532693536908],["▁FC",-9.808333967791734],["▁Field",-9.809255813066152],["▁cases",-9.809824398141542],["rick",-9.810148134827896],["▁Ste",-9.810521275121427],["▁financial",-9.810951344154427],["kan",-9.812151280824557],["tus",-9.81260379620711],["▁majority",-9.812716675502148],["Category:English",-9.812781636211149],["lav",-9.813124497188854],["▁(K",-9.813273630664854],["▁Good",-9.814193449152974],["▁settlement",-9.81461586644528],["š",-9.81572825663567],["▁actors",-9.81660864361352],["cap",-9.817311212514037],["▁Tor",-9.81754193359647],["▁friend",-9.817667281315806],["ñ",-9.81871912680028],["▁Dun",-9.81912370285011],["▁recording",-9.819205186778913],["CA",-9.81947063839137],["▁Johnson",-9.819742641467611],["▁certain",-9.82011080823199],["▁function",-9.820345974637],["▁Mat",-9.820497990932974],["▁speed",-9.820509545105944],["chen",-9.820862442038893],["▁Creek",-9.82102728631423],["▁Sol",-9.821452587241854],["law",-9.821453312349863],["▁concept",-9.821523270206574],["umb",-9.821701800108888],["▁question",-9.821830327466099],["▁limited",-9.822305508633473],["▁minister",-9.822448181511906],["▁Live",-9.822458651731933],["char",-9.822690131776822],["▁Band",-9.823969959406007],["▁sport",-9.82419499944714],["loc",-9.824637432107355],["▁Lin",-9.824812531533782],["▁changes",-9.824989509733225],["▁Williams",-9.82532926527008],["▁self-",-9.825883022862026],["▁States.",-9.826332702043869],["bil",-9.826365830133323],["▁journalist",-9.82650179711121],["▁1966",-9.82689274047612],["▁act",-9.826970629147304],["aut",-9.827392843184452],["▁particular",-9.827820978206942],["▁Israel",-9.827873710787307],["omy",-9.82812627788983],["▁job",-9.828504861688163],["hur",-9.828579221807319],["▁others",-9.828995319755581],["▁Medal",-9.82952712794281],["ping",-9.829798461601397],["▁status",-9.830059668774709],["▁Char",-9.830170426066577],["▁concert",-9.830871927348232],["dal",-9.831324923118284],["▁Biography",-9.831599559041477],["▁Corps",-9.831833744523127],["cro",-9.83187143787103],["▁MP",-9.832042715255731],["nam",-9.832287434895312],["▁effect",-9.832625060347917],["▁Ger",-9.833764654688757],["▁terms",-9.83423443417942],["▁Prime",-9.834457459405893],["▁Ven",-9.835636126388396],["▁technology",-9.83621435392998],["Year",-9.836346662976378],["more",-9.837654891526464],["▁2018,",-9.838325244823626],["vert",-9.838392784858371],["▁honor",-9.83856271143723],["▁1965",-9.83857345907453],["63",-9.83913793460515],["hat",-9.840132892766906],["▁policy",-9.84019356403483],["duc",-9.84105498061398],["▁multiple",-9.841152053310925],["▁Victoria",-9.8413402908165],["▁Pri",-9.841732966662994],["▁2007,",-9.841838599346534],["▁60",-9.842054051069981],["key",-9.842541974525881],["▁editor",-9.842748433265166],["British",-9.84276147520228],["▁Coast",-9.842976999584055],["TV",-9.84317437609402],["▁forced",-9.84341722004214],["▁bass",-9.843696366547727],["▁Route",-9.843945637227598],["▁Bridge",-9.843974811856034],["▁cause",-9.844672920609176],["▁initially",-9.844836325391892],["▁energy",-9.84520703932161],["▁passed",-9.845918861444941],["▁star",-9.846141580274868],["▁Ash",-9.846293947000062],["▁Daniel",-9.846349789031523],["gor",-9.84708314394395],["▁hours",-9.847125832833786],["▁metal",-9.847186834866296],["▁1920",-9.847407558285232],["▁Andrew",-9.847630974808775],["▁serving",-9.84781402558852],["▁hockey",-9.84787435499298],["▁Cro",-9.84871172048849],["▁(2",-9.848897159563267],["rio",-9.849013258286481],["▁0.",-9.849193842915632],["ich",-9.849479110610366],["▁Earth",-9.850281915660814],["79",-9.850560090964583],["21st-century",-9.85057334243791],["▁forest",-9.851641577424525],["▁going",-9.85218448199818],["▁class=\"",-9.852324785424821],["mod",-9.852484683520387],["▁Bor",-9.852608883443121],["▁firm",-9.852908140912556],["wick",-9.853088700215428],["enc",-9.853111094102111],["tori",-9.85313446846367],["▁shown",-9.85342599903262],["▁Pal",-9.853526473047484],["lap",-9.853604747310174],["▁theory",-9.854207178201593],["pon",-9.854250588048416],["featuring",-9.85436093882779],["▁museum",-9.854392856174446],["▁Tro",-9.855187847289693],["duct",-9.855212744723701],["▁minutes",-9.855365880791824],["▁Ban",-9.855531362338356],["▁represent",-9.855564192102664],["▁call",-9.85566244729949],["its",-9.855697128411329],["AA",-9.856069830006405],["▁2020",-9.856264677253291],["án",-9.85626482390832],["lot",-9.856277472811003],["и",-9.856598715019294],["▁university",-9.857719948812187],["▁...",-9.85784276818993],["▁minor",-9.859054218376134],["▁table",-9.859630570160666],["▁origin",-9.859701921629414],["lum",-9.85994380791092],["ark",-9.860591862370725],["▁engineer",-9.860883178557613],["en,",-9.86126806290047],["▁square",-9.861303403593876],["rus",-9.861383129042736],["▁elections",-9.86154561031878],["▁native",-9.862487651149838],["▁Chart",-9.862633246631928],["▁remains",-9.862666171698674],["▁coast",-9.862884853100338],["▁particularly",-9.863221290680904],["▁Del",-9.863976407017848],["▁names",-9.864736143934111],["81",-9.864847484741722],["er's",-9.864980654250404],["▁meaning",-9.86535295777918],["▁marriage",-9.865395827016785],["pper",-9.866174716535648],["▁Kar",-9.866385654637622],["▁mostly",-9.867500261955058],["▁middle",-9.867719599214475],["Their",-9.86777958927072],["mas",-9.86799923661555],["ties",-9.868077240702998],["▁academic",-9.868224180309706],["▁chart",-9.868482778620132],["▁mid-",-9.868610053553105],["rim",-9.868621750192],["▁executive",-9.868924123699225],["RA",-9.869650680267881],["▁1944",-9.869765499049713],["▁Bishop",-9.86993707309709],["83",-9.87012379817808],["eau",-9.87050295162295],["▁sur",-9.870799806428066],["span",-9.871246301916946],["▁source",-9.871407841853367],["▁Bri",-9.871603359914856],["▁cell",-9.872062259540058],["▁amount",-9.87240547572754],["thi",-9.872730772437869],["▁appears",-9.872888319638827],["69",-9.873049971222533],["▁arch",-9.873645484315757],["stro",-9.874379665722788],["▁Hospital",-9.874694357619672],["▁partner",-9.87519274744367],["lem",-9.875521614968017],["▁bus",-9.875635497491535],["71",-9.875968746148594],["▁longer",-9.876315879573252],["gam",-9.87650203624646],["▁foreign",-9.876541857986908],["▁Berlin",-9.876574571777875],["-F",-9.876808164461062],["▁supported",-9.877472757781264],["mont",-9.877747264140634],["▁king",-9.877912254505004],["▁Main",-9.878035466546073],["▁Gallery",-9.87805122969787],["▁uses",-9.878107231909748],["caused",-9.878160153535514],["▁claimed",-9.879573975074512],["tent",-9.879658240571828],["▁Family",-9.879764911084408],["▁descent",-9.879989567942197],["▁code",-9.880272739484822],["abi",-9.880879199957997],["ident",-9.88139231840139],["▁seem",-9.881511130189294],["▁presented",-9.88151740011887],["▁Category:W",-9.88153697243542],["▁article",-9.881889646633033],["onia",-9.882067961549927],["▁master",-9.882488397087378],["▁cl",-9.882579765922111],["▁Jackson",-9.882601428496402],["▁Three",-9.882773962520636],["▁Dam",-9.88294537841912],["▁step",-9.883250528829697],["▁Kat",-9.883293659864329],["▁overall",-9.884231485449407],["▁Santa",-9.884488495346284],["▁Polish",-9.884599643345512],["▁Mun",-9.884721373191365],["▁month",-9.88480775265318],["▁Sports",-9.885289058439714],["▁crime",-9.885518719022684],["ement",-9.885634656284036],["print",-9.885800349915312],["tha",-9.885824395226727],["▁Hong",-9.886053595288846],["▁raised",-9.886369880756622],["▁Rose",-9.886396992071017],["▁Pl",-9.888988203177995],["cri",-9.88949789704817],["▁regional",-9.88966064845491],["▁Sur",-9.890188188646867],["▁Power",-9.89027467018408],["ico",-9.890877794353774],["▁65",-9.891083783026493],["▁Secretary",-9.89108921196802],["hel",-9.89147952645693],["ç",-9.892906952097677],["▁Tar",-9.892957814956732],["▁flight",-9.893176797833279],["73",-9.893372462546223],["▁\"G",-9.89354450776196],["▁him.",-9.894409788745346],["▁Stan",-9.894455699578046],["▁themselves",-9.89481339929151],["zar",-9.895004060320776],["▁today",-9.895082561271208],["earned",-9.895127003848001],["▁larger",-9.895363558350244],["pit",-9.895799535062496],["▁Airport",-9.895822835683983],["▁trial",-9.896336515337923],["▁disease",-9.896591231576629],["▁room",-9.896729459456202],["▁Pin",-9.896807126845506],["rain",-9.896822639467423],["▁Ang",-9.898429808141186],["SC",-9.898432268445752],["women's",-9.898453631588673],["▁Personal",-9.898706362397242],["▁machine",-9.898841721897904],["▁subsequently",-9.899113238452328],["▁store",-9.899613175566284],["▁Sand",-9.899782903406136],["lain",-9.899874968703045],["▁composed",-9.90066151399184],["▁failed",-9.900827499147791],["SS",-9.901215116208249],["CC",-9.901569246218655],["▁forward",-9.901608222100013],["▁Premier",-9.901849920429038],["▁cities",-9.902171196510176],["▁USA",-9.902671841714572],["▁Korea",-9.90335526853642],["▁council",-9.903521737277314],["ild",-9.903773010800103],["▁BBC",-9.90416129653741],["▁Professor",-9.904243143907697],["▁Police",-9.905139839160908],["▁always",-9.906203110266512],["however,",-9.906373720304268],["▁leg",-9.906820778730212],["▁leaving",-9.907019240967976],["▁festival",-9.908265029325719],["▁eastern",-9.9083017715916],["▁Comp",-9.90834198777091],["▁clubs",-9.908480561042724],["mir",-9.908541081036411],["ama",-9.90855107702976],["▁build",-9.90866617411091],["▁Head",-9.908746216352496],["▁winner",-9.908957285807166],["▁actress",-9.909233259555764],["▁Mont",-9.909681802127295],["▁6,",-9.910059062267951],["▁Regiment",-9.910447804653836],["▁cur",-9.910535138292577],["▁Ros",-9.911134346490883],["uth",-9.911215140469176],["▁platform",-9.911574627794758],["▁Jr.",-9.91170957323474],["e's",-9.911891702700455],["▁port",-9.911912674907512],["▁association",-9.91208524479459],["▁Ken",-9.912647125829215],["▁value",-9.912768560719108],["▁Its",-9.913310174730034],["competed",-9.913553289771643],["▁believed",-9.913592180222889],["▁crew",-9.91365250278171],["▁variety",-9.914141028537898],["▁Prize",-9.914183248650923],["▁Ag",-9.914314524469486],["▁3rd",-9.916935384788587],["▁Boy",-9.91823505959776],["▁Rome",-9.918745540829766],["▁Arm",-9.918753209222615],["tric",-9.919330649217653],["▁Justice",-9.91967156545989],["cast",-9.919943062026507],["▁Spring",-9.92041473348182],["aya",-9.920531057394077],["▁von",-9.920550821274702],["▁Senate",-9.920587236925096],["▁1963",-9.920624891708929],["▁horse",-9.920811873185798],["▁Sho",-9.92138096344741],["▁1962",-9.921566351177349],["▁troops",-9.921615139442276],["▁know",-9.921781784849374],["▁politicians",-9.92190880692821],["▁Class",-9.921929206049926],["▁defeat",-9.921962863982603],["▁parents",-9.92214882998009],["▁prison",-9.922249779847194],["ique",-9.922526801834465],["zy",-9.923280527643314],["Despite",-9.92397587160728],["▁offered",-9.924443396158647],["▁got",-9.92469695887588],["▁Para",-9.924824784903974],["uni",-9.924873492829503],["▁B.",-9.92505750764878],["▁1942",-9.925808034120623],["▁officers",-9.925911024065831],["OS",-9.926711019967234],["▁Production",-9.926731515987141],["▁Sydney",-9.926753471779923],["▁Tim",-9.926833102546622],["▁Av",-9.927102363380293],["rod",-9.927721266833561],["eli",-9.927966735399158],["ough",-9.928856723704332],["▁society",-9.928955457905843],["zer",-9.928970063595187],["▁Iran",-9.929272349956499],["▁operation",-9.929699442135094],["his",-9.929709661271957],["▁require",-9.93016826673212],["mbi",-9.930312986343223],["▁Fre",-9.930380652020208],["sign",-9.930961620762934],["-up",-9.931011244960507],["▁Jim",-9.931101016736546],["stor",-9.9315635084083],["▁weeks",-9.931908060637411],["▁7,",-9.931959110725495],["▁brand",-9.932451597549084],["▁Fri",-9.932472238666987],["nell",-9.93289604392689],["designated",-9.933212571909342],["▁lines",-9.933415646731486],["late",-9.933656071415866],["▁Ali",-9.933844271587066],["ky",-9.934076142821452],["▁Song",-9.934141921218208],["▁grow",-9.934769377514273],["▁Ac",-9.93535223620195],["▁acquired",-9.935423424233784],["▁nation",-9.935649535654955],["▁organizations",-9.935684118760904],["temp",-9.936485790106856],["-G",-9.936625158509816],["bla",-9.936638047056737],["▁Mike",-9.937107888302936],["▁operate",-9.937334700109401],["▁blue",-9.937416188951818],["▁Ontario",-9.937656764486476],["▁potential",-9.93799010283053],["ook",-9.937995362530234],["izing",-9.938249418406164],["unk",-9.938268728226863],["gro",-9.938485022701082],["▁Press,",-9.93948032096478],["▁custom",-9.940085125579827],["▁comedy",-9.940277247291965],["▁Both",-9.941758945569083],["ude",-9.942261404546766],["▁gas",-9.942768594648173],["▁mis",-9.943069836611517],["vari",-9.94314954216598],["▁Human",-9.943173429380423],["▁Chris",-9.943389081014631],["ille",-9.94364099211042],["ega",-9.943749535052591],["▁Mill",-9.943785803318766],["▁Korean",-9.944182656570618],["PA",-9.944605684284294],["Members",-9.945962349933444],["▁Bob",-9.94626652158099],["▁Sk",-9.946292445511945],["▁direction",-9.947607704443383],["▁clear",-9.947655336874682],["vor",-9.948344818294146],["▁\"W",-9.948435745711258],["▁Duke",-9.948580906789468],["▁rule",-9.949169560728555],["ska",-9.949588675265753],["carried",-9.94998442536501],["▁appear",-9.95027240249929],["ved",-9.950395503343477],["▁Cambridge",-9.950418827998426],["University",-9.950511916630944],["Association",-9.951045601833846],["▁cat",-9.951313753460504],["▁Olympic",-9.951372769074647],["▁Social",-9.951551285051778],["AS",-9.952285540517028],["▁E.",-9.952459017958128],["▁ball",-9.952978910814407],["▁awards",-9.952984788119906],["pul",-9.953564051687938],["▁Mir",-9.953687536786394],["_",-9.954395497378504],["▁gr",-9.954531946897724],["▁Maria",-9.954539988261084],["▁Brazil",-9.954912449355056],["▁done",-9.954942509581086],["rou",-9.955427385810337],["▁1943",-9.955450362387204],["kov",-9.95552248706221],["о",-9.955877700025233],["▁College,",-9.956046618630165],["▁Media",-9.956503291838452],["▁formation",-9.956520403283385],["▁rank",-9.956878888849696],["▁Federal",-9.958256343980473],["▁journal",-9.958355581180438],["▁format",-9.95870343781067],["▁Another",-9.958740135470675],["▁(O",-9.958822528266715],["▁proposed",-9.958987561389135],["water",-9.959034503067025],["48",-9.959743698377759],["ators",-9.959807835854425],["▁historian",-9.959973666730347],["room",-9.960005285341323],["▁appearances",-9.96000766711906],["rich",-9.960825930737826],["rian",-9.961244545200538],["east",-9.961322422021281],["▁poor",-9.962109062705336],["▁founder",-9.962564353525227],["▁pen",-9.962795884839824],["▁oil",-9.962955804677273],["▁des",-9.9631191639524],["bul",-9.96369095391414],["▁recent",-9.964285901624661],["▁Township",-9.964709803057037],["▁4:",-9.964788902350943],["▁1948",-9.965190371320908],["▁Shar",-9.96642130195848],["book",-9.966521998517884],["▁baseball",-9.967042656353897],["▁More",-9.967123928543497],["point",-9.96744744429017],["bury",-9.967544284938734],["▁latter",-9.967687449949766],["▁tracks",-9.968668028834593],["▁youth",-9.9702823357084],["tum",-9.970362916801637],["▁want",-9.9707365655243],["position",-9.971064900799485],["gli",-9.97160740620653],["▁whole",-9.971643892674289],["▁volume",-9.972113692029234],["▁1961",-9.97295255690502],["▁floor",-9.973004470068132],["▁Stephen",-9.97307713841603],["fect",-9.973227699939827],["▁transport",-9.973425056171155],["▁faculty",-9.97359748524983],["acy",-9.973684821283474],["▁agent",-9.974069280614042],["▁might",-9.974422938163164],["▁Francis",-9.974424662343194],["▁pe",-9.974449653566813],["▁cultural",-9.974808727914155],["ø",-9.975486528184831],["nning",-9.975702818701297],["▁feel",-9.975747355680731],["▁physical",-9.97594450527869],["▁turned",-9.976455423455494],["under",-9.976860976995507],["ject",-9.977075500829251],["▁starting",-9.977151365839017],["▁D.",-9.977642818634227],["ody",-9.977863582078692],["▁individuals",-9.9778975698032],["▁1956",-9.978040414374641],["lat",-9.978102782527484],["2010",-9.978701738917342],["000",-9.979446962697246],["▁online",-9.979892507871476],["▁Clark",-9.97999530100814],["nton",-9.980374799490177],["▁map",-9.980915097675176],["IS",-9.981071455437748],["▁pair",-9.981144328042381],["ware",-9.98115842717138],["▁news",-9.981162689960831],["▁approach",-9.98146980605741],["▁Cur",-9.981961388546807],["▁Cri",-9.982160017517748],["▁Ak",-9.982885730456054],["▁deep",-9.983281740694204],["▁keep",-9.983722009421648],["▁responsible",-9.984245367670857],["▁problems",-9.984333524350285],["▁Albert",-9.984334345349652],["▁Cons",-9.985125126413253],["▁Elizabeth",-9.985197253790489],["▁Also",-9.985369556467662],["dale",-9.98548471221403],["lands",-9.985603851699954],["▁1941",-9.985770950876665],["▁19th",-9.985845734674456],["asked",-9.98604557023141],["▁receive",-9.986165095454217],["lation",-9.986314008350206],["▁estate",-9.986647151676006],["▁Philip",-9.98681675845949],["(with",-9.98708273159878],["issued",-9.987188021549066],["▁35",-9.987687144742372],["ically",-9.987956728705052],["2)",-9.988329953889307],["Com",-9.988577151328307],["▁(3",-9.988782191329978],["-time",-9.988835035797422],["▁BC",-9.989032749311214],["▁box",-9.989174900693866],["▁difficult",-9.989210677180933],["oma",-9.990268944839988],["mag",-9.990381865898273],["▁Mur",-9.990716230232904],["shed",-9.991101077636511],["▁\"E",-9.991109047472444],["▁personnel",-9.99139184588413],["cat",-9.992009596030528],["▁leave",-9.99213796464924],["▁episodes",-9.9927001306205],["▁Miss",-9.993050870325288],["cept",-9.993272220883826],["press",-9.993458053765927],["▁Technology",-9.994288640411245],["▁Four",-9.99441451702711],["AM",-9.994420494952992],["▁method",-9.994502116416283],["anta",-9.994859759580496],["е",-9.99513329956597],["ball",-9.995336053557109],["▁conference",-9.995546795801351],["▁Record",-9.995687614533567],["▁Angel",-9.995809828288081],["▁Operation",-9.995889725009217],["▁conditions",-9.99655521334346],["despite",-9.996598791917478],["▁\"O",-9.996819937719213],["rec",-9.99695253366127],["▁Winter",-9.997019069390126],["▁Fair",-9.99723784656949],["▁nature",-9.997253119453111],["sho",-9.997405300167303],["▁stories",-9.997761116965764],["▁parties",-9.998191372165506],["▁Peak",-9.998733894853455],["▁Mul",-9.998834928727051],["remaining",-9.99907587487016],["mouth",-9.999366359196044],["ural",-9.999600999533913],["▁silver",-10.000024287996656],["▁Avenue",-10.00015512586388],["▁gun",-10.00076200467769],["▁Gro",-10.001243925158535],["▁products",-10.00153265403913],["▁fish",-10.001536841253833],["▁Even",-10.001609125865278],["▁pop",-10.002140189042674],["rated",-10.002513014170212],["▁expatriate",-10.002738904330084],["▁Dor",-10.003095661581867],["ters",-10.0031229341593],["▁Project",-10.003339259143981],["▁32",-10.003459784643127],["▁45",-10.003736230289817],["▁Bla",-10.004096041754838],["rov",-10.004108253341746],["▁Ty",-10.00411948614528],["ali",-10.004137805833409],["▁medalist",-10.004486980600898],["▁programme",-10.004672950357119],["▁van",-10.005647382434011],["▁8,",-10.005934367621222],["plo",-10.00603835245983],["▁Design",-10.006073378615847],["▁nearly",-10.006229960997723],["▁Islands",-10.007293264928935],["▁fle",-10.007430796531528],["fil",-10.007462800487001],["▁exist",-10.007647846042946],["▁heart",-10.00790072542593],["EC",-10.00792176361193],["rup",-10.007964477955534],["▁anti-",-10.00810130968846],["▁enough",-10.008106028799183],["▁stone",-10.008270784507769],["▁5,",-10.008439786562619],["▁houses",-10.008554123776529],["▁Toronto",-10.008838682449547],["get",-10.009168439465304],["▁Captain",-10.009214687844214],["▁scene",-10.009310894053856],["▁Business",-10.009728210892257],["▁prominent",-10.00977038433305],["▁Vol",-10.00988854863755],["▁1958",-10.010153977637572],["▁20th",-10.010171581513191],["▁discovered",-10.010429573771455],["▁solo",-10.01062961913458],["▁records",-10.01130165361067],["▁Earl",-10.011481254402337],["Olympic",-10.011918065751873],["▁look",-10.012566227091924],["got",-10.013568169770426],["verse",-10.013640779742857],["▁draw",-10.013811926788717],["▁fifth",-10.013890651170959],["▁Spe",-10.01401463126576],["mph",-10.0145524724468],["▁assistant",-10.01485320441583],["▁candidate",-10.01509744577356],["▁forms",-10.015131999789205],["▁architecture",-10.015308824117527],["▁tradition",-10.015751988192477],["pil",-10.01578283752527],["▁1959",-10.01589956707901],["▁musicians",-10.016037306902769],["ele",-10.016321342929198],["▁Player",-10.01639608639891],["▁Corporation",-10.016449958241317],["olo",-10.016820741893225],["▁Tan",-10.017624632586214],["hom",-10.017695881581885],["▁extended",-10.017915636674353],["▁Born",-10.0185491307169],["▁nearby",-10.01874817074036],["living",-10.018943575640069],["▁1946",-10.019093024466882],["▁mass",-10.01909371046707],["▁Fire",-10.019157398583111],["▁treatment",-10.019217244992724],["▁!",-10.019417943136153],["▁Area",-10.020138913322345],["▁Region",-10.020227736876679],["▁Bat",-10.020427987303243],["▁1950",-10.020765842433041],["comp",-10.021201832847819],["▁drug",-10.02169016549444],["▁opera",-10.021748872243599],["yard",-10.02174951199305],["▁ancient",-10.022359087861103],["▁Ministry",-10.02239155329254],["▁elements",-10.022588234846864],["▁ice",-10.023479049895755],["rob",-10.023567538198343],["▁constructed",-10.023779580457584],["▁heavy",-10.023908057822291],["y's",-10.024417474336992],["▁Var",-10.024536348103135],["▁Down",-10.024777540931419],["▁gene",-10.024930459681897],["bus",-10.025083955178516],["lid",-10.025133578453865],["▁Military",-10.025173330119372],["cular",-10.025741585878933],["▁9,",-10.025969503225175],["renamed",-10.026169977487593],["▁think",-10.027125587330259],["▁reach",-10.027397534331973],["▁equal",-10.027765471200725],["č",-10.027979425439968],["▁Network",-10.028010338179989],["▁1952",-10.028017111375547],["mond",-10.028139491244387],["500",-10.028684454800803],["▁century.",-10.02892085567558],["▁Il",-10.029083425684837],["▁distance",-10.030757414513776],["▁covered",-10.031353690238449],["ale",-10.031396518922639],["n't",-10.031410903512997],["▁2:",-10.03232161355928],["▁walk",-10.032750923019844],["▁talk",-10.033160050891235],["▁L.",-10.033486717760633],["run",-10.033674859813003],["try",-10.034039726882543],["▁Marine",-10.034339580844701],["▁positive",-10.034403296018704],["-3",-10.034652628401195],["▁fellow",-10.034802373601998],["▁limit",-10.035279033826681],["▁200",-10.035318046903317],["▁rugby",-10.035327268537884],["AR",-10.035399887335304],["▁kind",-10.035732082113197],["▁residents",-10.035814950753439],["inger",-10.035927570271294],["▁directly",-10.036157791197938],["cra",-10.036701791499132],["whether",-10.036784128293258],["▁Minnesota",-10.036820757766405],["▁Point",-10.036991274860183],["▁arrived",-10.037126394217992],["arian",-10.037559991364644],["▁Cam",-10.037580622727287],["▁Member",-10.037708011405574],["▁content",-10.0377739533156],["struct",-10.037784739854251],["lift",-10.037929652524516],["▁1939",-10.037953921150725],["pre",-10.038707680691111],["▁dead",-10.039050429789889],["▁+",-10.039537303470418],["mainly",-10.039583881146587],["▁Wisconsin",-10.039643465487098],["▁Death",-10.039938232205415],["▁People",-10.040010411355572],["▁reason",-10.0405563766991],["▁told",-10.040559409919048],["primarily",-10.04060723519391],["tim",-10.04089033833505],["lla",-10.04101428250963],["▁Mr.",-10.041581550404974],["▁1957",-10.041675822962079],["▁Supreme",-10.042143729383337],["▁Arthur",-10.042360763404798],["▁(V",-10.042654880934265],["▁saying",-10.043048258247815],["▁Ky",-10.043233198622003],["ij",-10.043752862836204],["▁anti",-10.044157848322012],["transferred",-10.04451295222388],["▁Mas",-10.045555614802092],["▁adult",-10.0459689349213],["bound",-10.046392787742594],["S.",-10.046775002358245],["▁Netherlands",-10.046839874830606],["▁target",-10.046957794662697],["▁soldiers",-10.047233844155508],["cycl",-10.04738790496674],["▁kill",-10.047804851331088],["▁Im",-10.047814023335645],["▁Wilson",-10.047993409770315],["▁Community",-10.04799879152269],["▁Lady",-10.048219906177538],["▁display",-10.048928657630688],["▁Round",-10.050048375610555],["▁Cra",-10.050361886208922],["▁press",-10.050483541332127],["mate",-10.05093127982393],["▁Television",-10.051127094441089],["▁1980s",-10.05130387514418],["▁software",-10.052379595173411],["vit",-10.05246869952514],["▁idea",-10.052500351619681],["▁Books",-10.052988595909943],["▁1947",-10.053141769836298],["▁agreement",-10.053262734709257],["▁guest",-10.053340221759195],["▁Den",-10.053687916608897],["omi",-10.05389253575651],["giving",-10.053896724462609],["matic",-10.05431372838164],["▁Die",-10.05432381817247],["▁Muslim",-10.054863107224472],["▁security",-10.054892158142426],["▁Philadelphia",-10.055650373929069],["2000",-10.05568790212774],["▁Works",-10.055719021976506],["▁Web",-10.055937798865196],["▁Highway",-10.055941225042629],["▁Steve",-10.056132135844342],["▁product",-10.056163004650585],["▁P.",-10.056229624439647],["▁Transport",-10.05624935347338],["anna",-10.056327100658761],["ogen",-10.056844064893022],["▁End",-10.057657476002056],["rill",-10.05909639329833],["▁plans",-10.059160453456828],["▁Forest",-10.059222206607014],["LA",-10.05963291379683],["▁Camp",-10.060165518156793],["▁piano",-10.060688893057016],["promoted",-10.061118168208843],["▁Hay",-10.06132924675845],["mbo",-10.061739896227913],["▁Castle",-10.062105120107688],["Notable",-10.062289183828245],["sburg",-10.062428053032313],["ister",-10.062698007928363],["▁page",-10.062793489281852],["ease",-10.062920397171585],["▁administrative",-10.062940162758705],["▁grade",-10.06339561485369],["▁remain",-10.06397934187544],["mu",-10.064022525664868],["vil",-10.065254918555782],["ST",-10.065631956788728],["▁Cap",-10.065888687852203],["▁letter",-10.066587943720364],["▁parish",-10.06661135074092],["mission",-10.066780275018782],["managed",-10.066813359274734],["▁O'",-10.06777527991541],["▁Tha",-10.067831562300821],["urn",-10.068011376379385],["elli",-10.068800949828669],["▁\"R",-10.068991515351142],["▁Kal",-10.06914911215106],["64",-10.06959968439101],["uel",-10.069749404618609],["▁Roger",-10.07023380550372],["▁Kr",-10.070371117430735],["▁bring",-10.070594990938565],["▁Ir",-10.070662648256594],["ttle",-10.070792469172686],["▁Plat",-10.071237908483527],[".A.",-10.071422550285105],["▁comic",-10.071451367759176],["▁†",-10.071569469425796],["▁pilot",-10.07161457695929],["▁Junior",-10.071931340513204],["dri",-10.072240568238541],["▁likely",-10.07230508983709],["rest",-10.07254120102087],["▁words",-10.072622746375677],["▁continue",-10.072717341437933],["▁Sweden",-10.073127113963372],["▁enter",-10.074101539248355],["BC",-10.074381429892524],["▁1955",-10.074559177034756],["▁path",-10.074990810101852],["▁reform",-10.075191595221439],["66",-10.075243497576844],["sel",-10.075326983951252],["E9E9E9",-10.075469755069696],["rent",-10.075518351558607],["▁notable",-10.076321873585972],["akh",-10.076361681138813],["▁wanted",-10.076599631551352],["▁incident",-10.076809277556965],["▁Simon",-10.07682201308798],["▁Nations",-10.077635941873886],["▁revealed",-10.077663266492994],["▁friends",-10.07775482247878],["▁them.",-10.0782126790577],["▁wood",-10.078229214890323],["udi",-10.078862971721819],["▁conflict",-10.079096756853955],["ava",-10.079236816494003],["II",-10.079304394510007],["▁initial",-10.079425251268662],["–17",-10.079584946968131],["pha",-10.079823190376526],["▁1954",-10.080785069339798],["▁Category:O",-10.08090553744317],["phi",-10.080975857748154],["▁champion",-10.08127396243011],["▁1970s",-10.081337620866407],["▁Matt",-10.081667219562378],["▁situation",-10.081725256252302],["▁image",-10.08186843124601],["jan",-10.082472940353343],["▁2010.",-10.082608203335413],["ville,",-10.083208960560812],["▁Short",-10.083426373425725],["BA",-10.083689257745622],["▁representative",-10.08450247759047],["▁(U",-10.084596289385294],["▁Eu",-10.084612125412283],["assigned",-10.084945674826926],["▁Anti",-10.0850430956859],["aci",-10.085580452957345],["dedicated",-10.085631039950218],["▁pressure",-10.086096196734193],["▁Ray",-10.08621843015795],["▁Cle",-10.086258990530737],["▁administration",-10.086471784927753],["▁dark",-10.08657454113098],["▁write",-10.08706059195931],["▁Kim",-10.08769608106007],["▁Sen",-10.0881325009604],["▁branch",-10.088633458035657],["tru",-10.089171956652672],["▁architect",-10.08964979191144],["helped",-10.089715334814725],["grew",-10.08974191867491],["rog",-10.089834094198594],["▁Mari",-10.089936230335935],["ira",-10.090391760159845],["note",-10.090628498870068],["vic",-10.090843954201027],["▁Ap",-10.090954798883761],["▁lake",-10.09123897519999],["▁drive",-10.091618380194328],["▁winners",-10.092096972018215],["▁literature",-10.092190049196205],["she",-10.092319093401631],["▁signal",-10.092657518442573],["▁Review",-10.092695000853244],["FL",-10.092720025365617],["AF",-10.093075068883188],["bur",-10.093204197882182],["▁Taylor",-10.093980362981839],["▁Swedish",-10.094189794933234],["▁boat",-10.094780053422019],["▁matter",-10.094914964910483],["▁Sri",-10.094930134805246],["▁Us",-10.094980070084427],["TA",-10.095422999782876],["▁screen",-10.095838062283853],["▁quarter",-10.096057850745144],["gui",-10.096092256674359],["▁Mountain",-10.096129023529647],["н",-10.096628857798075],["lib",-10.097621803761074],["▁extra",-10.097642608997694],["▁Missouri",-10.097928665985807],["▁historic",-10.098053211898472],["ific",-10.098077174174344],["▁Women",-10.098136086792444],["▁Kitt",-10.09844544940444],["▁composer",-10.098488448794733],["pel",-10.099110144031055],["▁Studies",-10.09942955910853],["▁Sav",-10.099609497556012],["west",-10.099789522969358],["▁Hor",-10.09986384597737],["els",-10.099965210013092],["▁Pur",-10.100227705885326],["table",-10.10119951851734],["graduated",-10.10139139346912],["▁Golden",-10.101960724946395],["▁environment",-10.102769680646093],["▁Zo",-10.10317311952426],["▁School,",-10.103728950059192],["SE",-10.104170430750615],["▁80",-10.1048095353868],["▁basis",-10.104959453705371],["grad",-10.105520566559226],["▁officially",-10.105609734113084],["▁\"a",-10.105697522112125],["▁problem",-10.106002531418733],["▁growth",-10.106215645515638],["rett",-10.106759853537053],["glo",-10.107170740649803],["anti",-10.108155535711669],["▁(The",-10.108283122580751],["▁traffic",-10.109043647898126],["spi",-10.10931687613356],["vas",-10.109389503366113],["▁temple",-10.109864056698944],["▁News",-10.109886886678215],["▁lies",-10.110321676235582],["▁green",-10.110726174421242],["▁street",-10.110950301878631],["▁Davis",-10.111022582302741],["▁wind",-10.112477076732244],["▁levels",-10.113634448579832],["-language",-10.11483851883998],["▁damage",-10.11532030922315],["cit",-10.115333451233184],["▁percent",-10.115570244206124],["▁highly",-10.115591237269935],["▁lives",-10.115752252043691],["lop",-10.11577573579714],["▁effects",-10.116017565151807],["▁Category:K",-10.11604419364818],["ensis",-10.11642754501744],["stein",-10.116715958399928],["▁households",-10.116779174516969],["▁1949",-10.116779654585486],["▁micro",-10.116866487442728],["cel",-10.116982509219278],["borough",-10.117128222848802],["gger",-10.11795808548368],["▁campus",-10.118087162347306],["cop",-10.118272187905045],["▁languages",-10.118804978602295],["▁(16",-10.118955399095336],["▁2005,",-10.1194826331621],["ér",-10.119577494560994],["▁Ji",-10.119639136337561],["▁1953",-10.119872399694959],["ello",-10.120707009817586],["▁Like",-10.120716014050933],["born",-10.120764619721982],["▁Season",-10.120878882928201],["▁yet",-10.12102269363178],["▁digital",-10.121122430795518],["▁rules",-10.121342888839166],["▁1951",-10.122471222037898],["NA",-10.122518840120156],["▁races",-10.122568830650534],["▁Oregon",-10.123012248721606],["▁mu",-10.123063436795638],["band",-10.12339472059115],["▁Alb",-10.123540821671195],["▁removed",-10.12354551789901],["uz",-10.123586988900152],["▁impact",-10.1240712155606],["ova",-10.12416666177256],["finally",-10.124368769289138],["▁Tur",-10.12497095137633],["▁Mag",-10.125352875115013],["▁Stone",-10.125729926280716],["▁Count",-10.125833406858089],["72",-10.126637783058262],["ł",-10.126759421767881],["CE",-10.126943916459323],["ites",-10.127238470444443],["▁believe",-10.127424741778054],["▁mid",-10.12780982723319],["▁Max",-10.127865699401477],["▁quickly",-10.12831129919635],["ides",-10.128498582144987],["gained",-10.128550154472073],["▁Beach",-10.128640316071667],["▁portion",-10.12877954542132],["us,",-10.12922034353647],["▁projects",-10.1293479342952],["▁Bibliography",-10.129560905793097],["▁equipment",-10.129720716356873],["▁sources",-10.129838674459528],["▁figure",-10.130960003107548],["▁rural",-10.131009903909497],["night",-10.131091011871485],["eries",-10.13154908717405],["hard",-10.131926987038982],["atory",-10.132141312780696],["▁facilities",-10.132701776434317],["▁Medical",-10.132727362247973],["▁Cli",-10.133077799540946],["▁destroyed",-10.133407484490277],["▁governor",-10.133523243801095],["ulation",-10.133623636966526],["hood",-10.133791919288047],["▁Sim",-10.134335285579207],["▁leaders",-10.134800370255332],["▁Program",-10.134919256624828],["▁unknown",-10.134947251246572],["▁activity",-10.134993175520968],["▁Kur",-10.13529062169233],["▁capacity",-10.13559129013202],["▁Mart",-10.135659960564638],["▁credit",-10.135784282258054],["▁charge",-10.135834240155939],["▁intended",-10.136030641944371],["ú",-10.136601655670482],["In",-10.137327428113307],["ctic",-10.137459350707555],["▁syn",-10.137736285655455],["alongside",-10.138539837310837],["elle",-10.138561346008151],["▁tower",-10.138666640403073],["▁album,",-10.138666780640154],["▁exhibition",-10.139161961138642],["▁smaller",-10.139285104338056],["▁Baseball",-10.139310353535311],["enni",-10.139467456373659],["▁describe",-10.13951251479694],["▁Lewis",-10.140547011763827],["pra",-10.141540045949307],["▁divided",-10.141735515587635],["▁captain",-10.141828955185206],["▁area.",-10.14208016347468],["▁committee",-10.142093023850581],["▁24,",-10.14211315270598],["conducted",-10.142228392428674],["▁Sy",-10.142284700648265],["National",-10.142345009112267],["▁shape",-10.142678669777693],["idae.",-10.142980071918634],["probably",-10.143020078008165],["CO",-10.143411891290059],["▁36",-10.14387471729904],["bell",-10.143882041230015],["▁Stadium",-10.143925745956325],["▁Wall",-10.144108422198398],["▁lawyer",-10.14427511005163],["gram",-10.14437472611273],["rton",-10.144481030405643],["▁70",-10.145086764705706],["zan",-10.1451319642178],["▁pick",-10.145182617574028],["ante",-10.145346445064936],["▁median",-10.145460438672172],["nish",-10.145973086199884],["▁Fred",-10.146002176173035],["▁Fox",-10.146048756197517],["▁inside",-10.146278221303762],["▁Age",-10.146437039233254],["rey",-10.147008016240987],["▁secret",-10.14707735252853],["yer",-10.14896108141998],["▁surname",-10.14972669389731],["nom",-10.149884237890953],["▁‘",-10.149937661966343],["▁Pr",-10.15010129581429],["▁stars",-10.150150860047317],["▁strike",-10.150557440280041],["down",-10.15087406492543],["▁Kansas",-10.150906479770645],["▁articles",-10.151109478045196],["▁2011.",-10.151505381598898],["▁operating",-10.151931491224442],["horn",-10.151977183980927],["▁distribution",-10.152181127795723],["▁ordered",-10.152472974614843],["▁1960s",-10.152624897284094],["ley,",-10.152842230345916],["▁relations",-10.15290732577403],["▁cricketer",-10.153105250371004],["1)",-10.153248165637478],["▁commonly",-10.153768189891084],["aria",-10.153962580898888],["▁spread",-10.154135219588722],["▁2009.",-10.154277130567706],["▁contact",-10.155455497023471],["▁planned",-10.15549309820636],["▁Representatives",-10.155652400680253],["▁Mak",-10.156175930170606],["tron",-10.15638758949988],["▁miles",-10.156450019629371],["▁upper",-10.158078938836056],["rol",-10.158346860626],["▁Before",-10.158395012212084],["▁institutions",-10.158428306521479],["▁d'",-10.158443359712251],["onne",-10.158464484929079],["fla",-10.158698467161548],["▁bill",-10.158886697828756],["▁photo",-10.159130954087153],["▁search",-10.159275816340429],["▁Command",-10.159437059544649],["▁immediately",-10.15944862532262],["▁promote",-10.160424847852457],["cell",-10.16126792577273],["▁finish",-10.161289889005468],["▁mixed",-10.161418367111594],["▁Indiana",-10.161493451727264],["▁(b.",-10.161698998455725],["-N",-10.162329103077127],["▁risk",-10.16240791469742],["rem",-10.162637006241525],["kins",-10.162855082483961],["▁mine",-10.163353648225716],["▁housing",-10.163385714303168],["▁theatre",-10.163411163754278],["▁workers",-10.164286212352096],["efefe",-10.164583513233245],["▁moving",-10.165020814650704],["▁price",-10.165736818331963],["▁Ocean",-10.165788643481118],["▁split",-10.165924269902325],["▁teacher",-10.1659751706048],["▁Each",-10.16628618347651],["ré",-10.166567682156881],["participated",-10.167126133818552],["range",-10.167317207389685],["▁save",-10.167331666354002],["▁purchased",-10.167687208476584],["kept",-10.167837265548116],["▁Gri",-10.168081259189378],["▁Walter",-10.168154144175405],["▁exchange",-10.168444918139786],["▁Les",-10.168469977044264],["ddy",-10.169033238468224],["ation,",-10.169243395464216],["▁Country",-10.169524181138588],["lant",-10.169964244848428],["cord",-10.169969201124578],["▁Guard",-10.170084547391674],["▁blood",-10.170129364499697],["▁Ann",-10.170557080219035],["▁Met",-10.170976113963516],["ove",-10.171109402999415],["▁2012.",-10.17116231074462],["▁quality",-10.171593937373574],["vir",-10.171621506131926],["▁ski",-10.171709486995468],["▁peace",-10.171799118410751],["▁owner",-10.171814789431048],["▁Squadron",-10.17263151706813],["▁avoid",-10.173115276525408],["yne",-10.173231623660685],["▁captured",-10.173417958787343],["reg",-10.173800169509619],["▁multi",-10.17436469419046],["▁Len",-10.174579436445699],["any",-10.174581696122294],["▁Mexican",-10.17484934815742],["▁temperature",-10.175091137941072],["62",-10.175550156395111],["▁connection",-10.175627084308953],["Canadian",-10.175636835232659],["typically",-10.176144972548974],["▁Ker",-10.176151213463378],["-to-",-10.176165096688962],["▁4th",-10.176312737970017],["▁Atlantic",-10.176650503032919],["▁audience",-10.17681177905623],["▁Iraq",-10.17710069051666],["*",-10.177177474163624],["▁spring",-10.178066718091692],["▁Colorado",-10.178428819197665],["▁challenge",-10.178594341854009],["▁attention",-10.179411808054352],["▁Rob",-10.179448625089039],["▁compete",-10.180029352566809],["▁sexual",-10.180231272550337],["▁print",-10.180515675185308],["kes",-10.181604385509326],["▁fiction",-10.181912196976048],["IT",-10.181929736865136],["1.",-10.182426996275343],["▁par",-10.182728691625758],["▁1936",-10.183542164552371],["gio",-10.183656815864381],["ı",-10.183750815141591],["ality",-10.183907280083359],["▁G.",-10.184005847210091],["▁Gr",-10.184119713818893],["▁joint",-10.18419026150616],["ation.",-10.18454135697343],["▁Norway",-10.185149894487093],["▁Album",-10.185319309509394],["▁needed",-10.18537760027785],["ika",-10.185553988667701],["▁1990s",-10.185704782936316],["▁Work",-10.185956828235346],["▁loan",-10.186124279947556],["▁2013.",-10.186458054807957],["▁background",-10.186732317512595],["▁pp.",-10.186982275819913],["▁commander",-10.186999033741102],["starring",-10.187252624835544],["▁females",-10.187263566223502],["▁Modern",-10.18727884700696],["nominated",-10.187670425552612],["▁Tennessee",-10.187731464579484],["▁Indonesia",-10.188841964477074],["▁Officer",-10.189008579230348],["eve",-10.189418728836877],["▁Rad",-10.18964946123324],["▁Turkey",-10.190016847937592],["▁occasion",-10.190078165445598],["comm",-10.191108617347494],["▁adopted",-10.191284826831325],["▁comes",-10.191726495103472],["▁types",-10.193180137398626],["▁novels",-10.193257542697694],["count",-10.193547676470784],["radi",-10.193607549306464],["▁generation",-10.193894415723927],["lag",-10.194477542254607],["▁organized",-10.194827990221832],["▁Economic",-10.195388472733637],["uli",-10.195540572438246],["▁Inc.",-10.195739662085993],["▁illustrat",-10.196309943099294],["▁recently",-10.196417699214118],["▁Knight",-10.1965203986273],["▁*",-10.19664574860567],["▁1918",-10.196823037809565],["▁Garden",-10.196845578072057],["▁judge",-10.196886203582398],["▁Khan",-10.197179038299081],["chin",-10.197353927935447],["▁efforts",-10.197547380887649],["▁protein",-10.197725892659887],["ept",-10.198537786615407],["▁analysis",-10.19898281013784],["▁Heart",-10.199030433578713],["ians",-10.199110884317395],["▁su",-10.19914159023578],["▁basic",-10.199503339755102],["pton",-10.199809082820432],["gri",-10.199942624175957],["nov",-10.200140276409178],["▁industrial",-10.200219761199794],["▁hundred",-10.200727619835812],["61",-10.201009172590553],["▁Memorial",-10.201053110386951],["educated",-10.201132267525905],["▁teaching",-10.201285764631805],["▁symbol",-10.201301744032055],["▁Sciences",-10.201471469929068],["▁surrounding",-10.201767536430577],["ridge",-10.201869384960094],["wheel",-10.202021164403897],["▁Sources",-10.202110798977849],["▁2008.",-10.20213108522135],["▁10,",-10.202481649868432],["р",-10.202549830444235],["▁2007.",-10.20261849380725],["▁Sar",-10.203425485013515],["▁Maryland",-10.203627446708188],["ception",-10.20401657858031],["▁Hot",-10.204177558154841],["cos",-10.204402683618987],["▁2014.",-10.204482339165297],["load",-10.204672568061374],["▁follow",-10.20471767056068],["AP",-10.205272130996216],["morph",-10.20527275072964],["United",-10.20533244758593],["▁ending",-10.205803387084915],["▁Ball",-10.205821813631458],["place",-10.20584647670746],["▁poem",-10.2061600674274],["▁Ur",-10.206271782353884],["gie",-10.206297398128475],["th-century",-10.206546660421564],["▁Gor",-10.20657450245856],["▁mill",-10.206724192141827],["▁Shan",-10.207164885153077],["▁Sil",-10.20721965053507],["▁bishop",-10.207734486218442],["▁slow",-10.2082375009678],["▁combined",-10.208771483492278],["▁Philippines",-10.209152393563308],["▁declared",-10.209308280168209],["▁90",-10.209329795707387],["5,000",-10.209653220537504],["▁priest",-10.210028531821688],["▁Zi",-10.210137334171321],["▁$2",-10.210346884285622],["▁widely",-10.210457041445066],["imi",-10.21055191646348],["rdin",-10.211090837291225],["▁Management",-10.211210295397132],["▁classical",-10.212137387969188],["shore",-10.21402871955633],["▁Des",-10.214137224248784],["▁reference",-10.215399748342369],["una",-10.215400929272832],["▁Anna",-10.215679865924194],["▁1938",-10.21571097780925],["sca",-10.215828044267365],["IN",-10.216418497929007],["▁cancer",-10.216890854628174],["bli",-10.217055942470202],["corro",-10.21733808435172],["tribu",-10.217513253347748],["▁weight",-10.217773995431841],["lis",-10.21783843591502],["▁London,",-10.217954148388701],["▁(4",-10.218050999722022],["nut",-10.21807637695927],["▁demand",-10.218156941716435],["▁Emperor",-10.219125859589987],["▁launch",-10.21920189467464],["▁protest",-10.219710720224095],["oil",-10.219775736988629],["▁Harry",-10.220329242678725],["▁commission",-10.220358419559746],["▁Artist",-10.220599179909666],["pac",-10.220713629695904],["▁transfer",-10.220754375173977],["rack",-10.221036087244604],["▁wall",-10.221116178256038],["▁Wei",-10.221519717912885],["▁principal",-10.221831434534744],["-K",-10.221836715666708],["▁EP",-10.221927453368604],["▁doctor",-10.221951369079392],["▁Mos",-10.222116550972492],["▁Engineering",-10.22213436056416],["▁Ross",-10.222375773561016],["▁territory",-10.222834513469175],["rush",-10.223472273140349],["titled",-10.22384791820257],["▁reserve",-10.224157488919708],["bird",-10.224422857680775],["▁stand",-10.224504102766582],["strat",-10.225098513182154],["▁benefit",-10.225541562958341],["▁Tele",-10.225786045728993],["▁Eric",-10.226011440919308],["▁here",-10.226013871233295],["▁4.",-10.22607125212662],["▁Fra",-10.226126448204313],["therefore",-10.226273595771142],["▁condition",-10.22632522048415],["▁creation",-10.226630281158855],["▁models",-10.22680803965606],["▁plants",-10.227161705450069],["▁spot",-10.227795039579755],["cio",-10.228825617058712],["losing",-10.228913892511772],["Indian",-10.229048508453225],["hill",-10.229260102303595],["▁44",-10.229324713135991],["compared",-10.229546827706715],["▁composition",-10.22960129869131],["ista",-10.229725596917365],["actually",-10.22999200386518],["dent",-10.230179199460252],["▁highway",-10.230239192568499],["▁documentary",-10.230276842968374],["ivity",-10.230595555016707],["▁hall",-10.231213302872824],["▁mi",-10.231449821008711],["▁Arab",-10.231614295006326],["▁Results",-10.231932897987454],["▁accept",-10.232341824822857],["3)",-10.23266051341322],["blo",-10.232794715671314],["▁permanent",-10.232852213558932],["C.",-10.23297847286846],["sport",-10.233474486588753],["▁leaves",-10.233661702039083],["▁Lind",-10.23420949963832],["▁2015.",-10.234871992464802],["riot",-10.235067105169783],["▁64",-10.235119306976138],["estimated",-10.2352596120998],["▁door",-10.235524783827506],["▁boy",-10.235611352451597],["traction",-10.235674163066943],["uda",-10.235927687289877],["▁guard",-10.236240467187555],["ference",-10.236833869343522],["▁bio",-10.237602479972436],["▁Bru",-10.238244208841175],["▁yards",-10.23834789766349],["▁grand",-10.238850308313308],["ania",-10.238934299322894],["▁Alex",-10.239009163803543],["▁occurred",-10.239333173579853],["▁engineering",-10.239755032308361],["mos",-10.239895630165295],["new",-10.240018228884106],["▁11,",-10.240263329551633],["▁Tony",-10.240273261202447],["mut",-10.240704257257107],["▁accepted",-10.2410895354179],["▁unique",-10.24121077008062],["▁pre-",-10.241614978551652],["▁largely",-10.241740145568972],["▁Federation",-10.24217146781969],["▁Yo",-10.242809070023027],["▁Foreign",-10.242896092489822],["▁billion",-10.243186685205421],["▁communication",-10.243391477057251],["É",-10.2434667618675],["▁claim",-10.243472373658978],["▁critic",-10.243564443069298],["▁mentioned",-10.243755185212748],["▁contemporary",-10.243777502346328],["▁Cer",-10.244109178447879],["▁fell",-10.24465755078099],["▁purpose",-10.244845754479321],["▁indicate",-10.245350873297737],["▁tell",-10.24620214184032],["pas",-10.246960679201829],["▁foot",-10.2470949243022],["▁suggest",-10.247217327373189],["▁Hel",-10.247359974331912],["▁Cape",-10.247498941167636],["dem",-10.247589071800887],["▁(or",-10.247823186988843],["▁leadership",-10.24802943273548],["▁mix",-10.248080228564527],["num",-10.248148622725274],["▁Arizona",-10.248555604053157],["▁tank",-10.248596142038126],["pho",-10.249577639873328],["ranked",-10.249976747059337],["▁Category:I",-10.250280943904311],["▁Queensland",-10.250303393015988],["-18",-10.250357536156995],["▁begins",-10.251025564063019],["MS",-10.251063815394057],["▁bronze",-10.251295339340166],["▁politics",-10.252341764549458],["lah",-10.252391737946803],["▁1937",-10.25268299554887],["own",-10.252878838904854],["▁session",-10.25357647400632],["▁Sunday",-10.253872454494473],["aki",-10.254324748105176],["taught",-10.2543580687932],["▁fine",-10.255104798578946],["▁Pun",-10.255141992171431],["▁Moscow",-10.25528995778423],["▁recognized",-10.255560088336512],["ne,",-10.255766003751845],["▁However",-10.255769155842723],["▁Hart",-10.255930763350927],["▁critical",-10.256102109402805],["▁opt",-10.256306430962221],["▁ability",-10.256419056597329],["spe",-10.256796848568758],["▁organisation",-10.257307926935564],["aged",-10.257664237144763],["▁knowledge",-10.257671357962026],["▁fra",-10.257930681081849],["▁33",-10.258101771941034],["▁presence",-10.258598469562036],["▁Gun",-10.258653563142229],["▁big",-10.259084554090624],["lig",-10.259332589483677],["▁ban",-10.259554311027102],["ffer",-10.26015347197556],["suffered",-10.260934919638343],["''",-10.261093614668981],["▁Kentucky",-10.26182036920837],["▁stay",-10.261943429286147],["▁fast",-10.261997345648211],["mine",-10.262307890672476],["▁advance",-10.262395824405813],["▁count",-10.263544291994162],["▁Bud",-10.26363164800565],["▁feed",-10.264178909445368],["-year-old",-10.264347608052466],["epi",-10.264990644631121],["hara",-10.265208626989132],["IC",-10.265506143834308],["[",-10.265521560595323],["▁true",-10.266141625575715],["▁Hard",-10.26712751115694],["▁acting",-10.26732141095387],["▁scale",-10.267473919628728],["TC",-10.267588410258247],["▁Glen",-10.267792092258365],["▁urban",-10.267872271574443],["▁option",-10.26792709339963],["SR",-10.268169256710877],["▁tree",-10.268364865802232],["▁secondary",-10.268462202808916],["star",-10.268618961578571],["zen",-10.268658426078495],["▁airport",-10.26885923321892],["▁Bir",-10.26889775750272],["pping",-10.269018601062491],["▁Common",-10.269317544631736],["qual",-10.269419723771753],["providing",-10.269682411034033],["▁profile",-10.269861471030065],["▁Melbourne",-10.270271712405084],["bat",-10.270667082109858],["bgcolor=#f",-10.271133996414715],["▁Jay",-10.271423545776008],["▁Key",-10.271423566072137],["▁broad",-10.271575960582918],["▁Malaysia",-10.271857067511036],["agreed",-10.271872869760452],["▁setting",-10.27219469998354],["PC",-10.272553334759076],["▁singers",-10.272648172533117],["▁Category:Al",-10.272787474608924],["▁Wolf",-10.272856077005763],["▁Brian",-10.273251605932513],["▁painting",-10.273273065584835],["▁34",-10.273362581359317],["buried",-10.27354622139045],["▁12,",-10.273561554414922],["▁feet",-10.273565339363163],["▁Vice",-10.274292527808104],["rina",-10.274773743581829],["▁towns",-10.27502466245004],["agh",-10.275249945807165],["▁Dal",-10.275651794025464],["▁Bad",-10.275715753405805],["mac",-10.276199562287069],["▁Kin",-10.276585657432273],["▁sales",-10.276892843099803],["▁Austria",-10.277316184295804],["hang",-10.277328954346904],["▁districts",-10.277407962628235],["▁except",-10.27744216416589],["▁expanded",-10.277734110192139],["▁Lan",-10.277826655615534],["▁Wild",-10.27785910146582],["▁Magazine",-10.278055276697398],["▁sites",-10.278081421833512],["▁1930",-10.27825179041959],["▁activist",-10.278397724838268],["▁promotion",-10.27840754582836],["AN",-10.278550274812739],["▁15,",-10.278910759195055],["▁numbers",-10.279610917718216],["chu",-10.279938135821231],["BS",-10.280187943740433],["▁drums",-10.280271331961691],["▁Anne",-10.280276614686509],["▁Miller",-10.28030664312338],["▁pattern",-10.280669167222603],["hosted",-10.280727193857087],["▁lot",-10.280946202082815],["omb",-10.28099458096851],["▁reduced",-10.28108694645674],["▁NY",-10.281158906735811],["▁etc.",-10.281332816681424],["▁standing",-10.282469668554022],["▁Ul",-10.282504676771689],["▁Anderson",-10.282652904131359],["▁Channel",-10.283392939968767],["▁App",-10.2836843385723],["▁Singapore",-10.283708555807314],["▁expected",-10.284087016226879],["▁belong",-10.284126898268775],["lion",-10.284424823107368],["▁serious",-10.284587113549819],["▁protect",-10.284600980016863],["meter",-10.284844494031471],["▁picture",-10.285093170924062],["goes",-10.285469426267195],["▁Doctor",-10.285608916792308],["▁effective",-10.286183017929035],["merged",-10.286520358304735],["▁simple",-10.286743655932746],["▁identified",-10.286946640652987],["ably",-10.287094346587372],["nik",-10.287344750716912],["▁programming",-10.288408502628947],["▁web",-10.288415411211858],["-Ma",-10.288774263928728],["▁F.",-10.28937091713447],["▁2016.",-10.289467794562745],["▁Pass",-10.289785240851863],["▁Iowa",-10.290194760473396],["dig",-10.290553441938522],["lov",-10.29059737665645],["▁How",-10.290674830402633],["▁rail",-10.291026140561966],["▁Ferr",-10.291076074112631],["▁Historical",-10.291132668586998],["▁Sat",-10.291362362303934],["▁garden",-10.291880150696658],["enny",-10.29199909798758],["AT",-10.292176729632324],["▁Your",-10.292395004732972],["▁attend",-10.292976599535631],["▁votes",-10.293140568480215],["▁Senior",-10.293561552674351],["itive",-10.29364621422518],["▁19,",-10.293709697063337],["▁£",-10.293809377765053],["▁def",-10.294033702944061],["▁density",-10.2940774868509],["▁phase",-10.29439648355871],["1,",-10.29482358218897],["inspired",-10.2951101424742],["▁Real",-10.295289730348669],["▁sum",-10.295912127744845],["ić",-10.295930712196553],["▁hotel",-10.295974995638169],["▁twice",-10.296040989460506],["▁1919",-10.296439389156888],["▁Fame",-10.297082654289026],["▁stream",-10.297439700601931],["▁escape",-10.297456144758813],["▁Background",-10.2978305975401],["▁bear",-10.297883210623365],["▁1935",-10.29826352869597],["▁mayor",-10.298518676636851],["à",-10.29874234453],["▁motor",-10.299191655179651],["▁Six",-10.2994019168181],["EAR",-10.299454695320568],["name",-10.299561774679793],["bid",-10.300050936673541],["▁effort",-10.30006587689229],["▁14,",-10.300205762024898],["ū",-10.300645228728987],["bay",-10.300701453163649],["▁1914",-10.301114729204485],["clo",-10.301210937884603],["▁sector",-10.301238818626272],["▁Jews",-10.301716436816081],["▁beat",-10.302218220756798],["Australian",-10.302372933524088],["▁Gre",-10.302660947703407],["pec",-10.302749383904091],["▁Ob",-10.302968567372412],["▁assist",-10.303146652704973],["▁Norwegian",-10.30322773877896],["▁confirmed",-10.303253232587263],["stru",-10.303457777051245],["nnie",-10.303558145013666],["▁rise",-10.304053294837427],["view",-10.304064057640524],["▁broke",-10.304082084185122],["▁Regional",-10.304154912644425],["▁coming",-10.304356361605105],["▁graduate",-10.304423155070268],["▁scientific",-10.305076195825103],["Because",-10.305368184203898],["â",-10.30561481138613],["▁500",-10.305651203109653],["▁global",-10.30583249142813],["▁squad",-10.306067621828426],["▁paid",-10.306171089968856],["▁nomination",-10.306661664664322],["dated",-10.30690045769033],["▁Building",-10.307114766935397],["▁cars",-10.307536720172422],["▁titles",-10.307536790369694],["▁library",-10.307772240561937],["▁Brook",-10.30789547375387],["▁Bowl",-10.308162246616703],["PS",-10.308426445676952],["▁Infantry",-10.30845845418265],["rust",-10.308622834072372],["▁greater",-10.308622901028548],["poli",-10.30904078740885],["▁file",-10.309145955973866],["▁Vietnam",-10.309160448501892],["atus",-10.30942986746517],["read",-10.309465772153404],["ín",-10.310421326264679],["▁pun",-10.31065137949867],["▁Singles",-10.310712679862464],["tail",-10.310794469480015],["box",-10.311104793307148],["▁Entertainment",-10.311361168200989],["▁include:",-10.311375233379575],["▁grant",-10.311390032608378],["rav",-10.3115329779189],["▁Jane",-10.311605354215278],["▁Sound",-10.311705662099232],["RI",-10.311729732150496],["▁reviews",-10.311800164570766],["▁1917",-10.31189198174573],["▁Eli",-10.312058963824848],["▁task",-10.312317790964741],["▁Classic",-10.312364592970173],["▁says",-10.312454814285454],["ür",-10.312654154132566],["▁corner",-10.312690774462766],["▁pr",-10.312989567002276],["▁Seven",-10.313407969997781],["▁alternative",-10.313422795362424],["ways",-10.313586433481598],["▁Report",-10.313598394602389],["▁maintain",-10.313758785831483],["▁Lar",-10.313903116461697],["▁felt",-10.31402770870956],["soci",-10.314119951296295],["▁Holy",-10.314330726459527],["▁Steven",-10.314418457972986],["▁alone",-10.314876246527165],["▁twenty",-10.314912944573651],["▁Med",-10.315118514896382],["▁scoring",-10.315209841014296],["gun",-10.31522715875957],["▁Week",-10.315501546318536],["▁Whit",-10.315521038667852],["aba",-10.315570419377408],["cannot",-10.315837289255896],["▁Christmas",-10.316293537472426],["▁spoke",-10.31709862716924],["▁racing",-10.31731483403863],["ush",-10.31798978215601],["▁household",-10.318469121272546],["▁newly",-10.318475479146718],["▁defense",-10.318503220025315],["▁Allen",-10.31852237119031],["▁roles",-10.31887778622067],["▁Sky",-10.319021961331163],["ion,",-10.31916307154985],["▁object",-10.319751333499894],["chy",-10.32067307032675],["▁Adam",-10.321256810016246],["riv",-10.321381353151798],["card",-10.321406380008273],["▁Revolution",-10.321717994062164],["▁statement",-10.321977422815294],["▁royal",-10.322054374305981],["ashi",-10.322056230032404],["▁Dave",-10.322104408805199],["–16",-10.322200373724137],["▁LIN",-10.32228889418341],["but",-10.32288042696114],["(also",-10.323104789375375],["▁chance",-10.323420035087333],["▁Liberal",-10.323745621834538],["▁Third",-10.32432497280426],["▁translation",-10.324335457454806],["astic",-10.32435216687512],["azi",-10.32473081224039],["eco",-10.325166996648472],["▁continues",-10.325749122652361],["situated",-10.326292970860633],["-4",-10.326507857600088],["▁Victor",-10.326554164018647],["▁seats",-10.326727259467111],["▁sex",-10.326824306651227],["▁California,",-10.32686740848441],["▁Howard",-10.326920283218243],["▁21,",-10.327243164440429],["▁draft",-10.327424953850123],["oke",-10.32755646496551],["ity,",-10.327668964166245],["▁20,",-10.327831282978098],["ER",-10.327841571898386],["▁2017.",-10.327932923051485],["▁Temple",-10.328182004949337],["▁younger",-10.328294557534374],["▁mode",-10.328630550854335],["▁Geography",-10.328793052520554],["▁Race",-10.329268614299924],["▁Sel",-10.329682528375443],["RC",-10.32988178066834],["1990",-10.330115462459277],["▁Roll",-10.33030035132843],["▁positions",-10.330540971520636],["▁Today",-10.331094688363684],["▁Who",-10.331332494800927],["▁spin",-10.331591240817193],["▁Lincoln",-10.332265724880251],["assi",-10.332286866515812],["ologi",-10.332622242661056],["▁gain",-10.3326236824096],["▁1900",-10.332838959916055],["▁poly",-10.333098176517995],["▁Manchester",-10.333307551220114],["▁chairman",-10.333392567681454],["▁Douglas",-10.333447959813132],["▁hill",-10.333494851210034],["ppe",-10.334350630785067],["▁Professional",-10.334481180793386],["▁investigation",-10.334884912147125],["▁Jacob",-10.335342595977375],["▁rating",-10.335506762638758],["▁Mah",-10.335631778756396],["abb",-10.336129598131341],["lou",-10.336138143856457],["▁Greece",-10.336165248630424],["▁trail",-10.336192799325723],["enberg",-10.336255799104173],["▁Front",-10.336459510736086],["▁1928",-10.336614622932728],["SO",-10.33669175976047],["▁applied",-10.336951084718633],["▁Wo",-10.337633038167706],["▁Silver",-10.337694331328725],["▁13,",-10.337696146351636],["lac",-10.337918688735785],["etro",-10.338137139295856],["ket",-10.338324651818022],["aud",-10.339319302945846],["▁formerly",-10.339818015395885],["2.",-10.340294190557874],["icle",-10.340526126638926],["▁Battalion",-10.340540050738046],["▁supply",-10.340540301559548],["▁Bol",-10.340825370749503],["▁electronic",-10.340969063395345],["▁edge",-10.341295999941309],["▁Morris",-10.341469365045027],["▁Plot",-10.341604365000569],["▁Motor",-10.341762864180867],["▁Kra",-10.342121301810742],["▁Category:German",-10.342194533042912],["▁suit",-10.34257233020247],["▁Switzerland",-10.343004275297702],["ism,",-10.343062775888725],["▁facility",-10.343379402102169],["▁1933",-10.343404116420007],["▁Opera",-10.343459359013826],["Among",-10.343541937652617],["▁Staff",-10.343854678123957],["▁classes",-10.343937806792415],["cou",-10.344177727193467],["▁1929",-10.344367010473688],["▁request",-10.34451801001449],["kel",-10.344934437806176],["▁Billboard",-10.344979653161621],["zon",-10.34502855509683],["▁winter",-10.345371489920852],["▁marked",-10.345841151454577],["▁world.",-10.3460836693798],["-W",-10.346228532799358],["maker",-10.34623222150315],["▁Affairs",-10.346491081808038],["▁Nick",-10.347004698737068],["▁Survey",-10.347364970223982],["▁Jon",-10.347927066689218],["uti",-10.348051094806259],["▁girl",-10.348263859267657],["▁Ford",-10.348358764106637],["▁shop",-10.348585308127296],["SI",-10.348921584319015],["▁suggested",-10.349291127647206],["▁Hand",-10.349825815491485],["▁Thi",-10.35012303861757],["▁Story",-10.35073330916972],["isation",-10.350825317365278],["▁mile",-10.35095420813011],["▁threat",-10.351074924644745],["▁integr",-10.351263008809248],["▁Unit",-10.351553090467235],["▁claims",-10.351706921311656],["▁(as",-10.3520228691752],["▁Egypt",-10.352252907805472],["▁slave",-10.352718881019667],["▁Category:French",-10.353149332026083],["▁Well",-10.353339380843543],["▁accident",-10.35341934624062],["tors",-10.353451784879622],["2011",-10.353564099730535],["▁injury",-10.35359515564044],["▁simply",-10.354020325692233],["rell",-10.354034459049391],["▁Tel",-10.354566727922618],["quest",-10.354746266473514],["dish",-10.354789557435884],["▁musician",-10.355059264251365],["viv",-10.355101024780188],["2007",-10.355308842954408],["▁card",-10.355494738230165],["▁Brigade",-10.355679257249518],["▁publication",-10.355833008036633],["ID",-10.355884797731473],["▁mono",-10.355972927400579],["▁coaches",-10.356138201497558],["▁electric",-10.356366234434883],["▁growing",-10.356527458098649],["▁performances",-10.356545047495871],["▁metres",-10.356789496515434],["▁Category:V",-10.35684444177262],["occupied",-10.357235076177052],["▁About",-10.357769995551669],["▁peak",-10.35799522058315],["▁Due",-10.358560611294212],["▁sense",-10.3589561269203],["ature",-10.359485879558454],["▁5th",-10.359542572667038],["▁McG",-10.359650990188683],["▁22,",-10.360356098140198],["▁entry",-10.36040770599838],["▁speech",-10.360857971439367],["Art",-10.361039809543295],["-E",-10.361053484758008],["weight",-10.36144602587999],["▁strip",-10.361472228917638],["tried",-10.361807817453979],["▁authorities",-10.362006267416277],["▁Now",-10.362207976510152],["▁Executive",-10.362766701971378],["▁connected",-10.362779354551801],["▁religion",-10.363002538512172],["▁headquarters",-10.363290385035762],["etty",-10.363299743336182],["▁Back",-10.363344848607188],["Buildings",-10.363350413226197],["▁sequence",-10.363350768572273],["granted",-10.363364693562371],["▁vehicles",-10.363711007003145],["▁Jun",-10.363868584874595],["▁Oklahoma",-10.363881375718947],["▁things",-10.36422197434452],["fold",-10.364233067055222],["▁arts",-10.364422300401271],["credited",-10.36471796082391],["iva",-10.365039140791454],["master",-10.365091171842554],["2009",-10.36527312574866],["cken",-10.365574061995286],["▁stock",-10.36560693340826],["▁succeeded",-10.36645975926991],["▁23,",-10.366723782453695],["▁Alabama",-10.366909657718038],["▁Patrick",-10.367036493666141],["▁cells",-10.367102759064796],["▁Between",-10.367381265935943],["▁oldest",-10.368036216201638],["▁1934",-10.368036984068839],["▁Test",-10.368370855467264],["zu",-10.368778506601128],["where",-10.369187846157518],["▁Way",-10.369414900964308],["▁Services",-10.36979277446676],["DP",-10.37015911999717],["▁advanced",-10.370434259717015],["2008",-10.37051484405094],["▁28,",-10.370764745576817],["▁progress",-10.370770931856699],["▁defined",-10.371090038091408],["▁protection",-10.371123008569569],["▁Frederick",-10.371185577846676],["▁Est",-10.371301298250245],["other",-10.371438952136536],["▁Bha",-10.371440751395438],["ounce",-10.371490227109373],["thro",-10.371938005930257],["▁Nan",-10.37208851075337],["(disambiguation)",-10.37240323308554],["▁combat",-10.37247245819799],["▁Hamilton",-10.372628069284584],["▁2018.",-10.372740596002382],["▁counter",-10.372775344083356],["▁2006.",-10.372956525201285],["▁30,",-10.373306247295414],["▁foundation",-10.373386542266577],["▁Ana",-10.373436818279629],["▁team.",-10.373447922797693],["▁Juan",-10.373601952489425],["(now",-10.374111592777492],["▁zone",-10.374286255676726],["SP",-10.374465460715593],["▁fighting",-10.37457987584509],["▁Luc",-10.374663211662499],["▁Nar",-10.374676066197601],["▁Farm",-10.374701937444263],["▁Gla",-10.374846401926813],["▁1910",-10.375081686972038],["▁survey",-10.375228238064754],["▁completely",-10.37550464577453],["▁Fel",-10.375667686310427],["▁Norman",-10.375718452388618],["▁versions",-10.376389727076134],["▁T.",-10.37659190923508],["▁hope",-10.376695839730756],["lated",-10.376962517696654],["▁roof",-10.376986762682215],["Qu",-10.377432667713089],["existing",-10.377441636745164],["stood",-10.377711277823227],["▁25,",-10.37865963394795],["▁figures",-10.378778123411829],["bridge",-10.378979681971243],["▁document",-10.379141538008648],["▁Anthony",-10.379223057658294],["▁Security",-10.37938012076271],["cid",-10.379686333839077],["▁26,",-10.379766310302506],["than",-10.379818576135277],["▁Political",-10.379958927606696],["▁1932",-10.38034132918953],["▁notes",-10.381891743041946],["ila",-10.382047386001384],["leg",-10.382536077353866],["▁Czech",-10.38318593022273],["▁IV",-10.383433373175267],["▁technical",-10.383771385044243],["most",-10.38390584966432],["bach",-10.38400764008479],["▁pin",-10.384355333434234],["▁Lieutenant",-10.384435226574347],["▁1924",-10.384539408168559],["▁tribe",-10.384727759101683],["▁Gil",-10.384810086656383],["▁achieved",-10.38493693564451],["opposed",-10.385051875531405],["▁vehicle",-10.385075756979013],["▁1912",-10.385138215262103],["▁27,",-10.385190216747377],["▁strength",-10.385697542938315],["▁Lemm",-10.385823692466575],["▁attacks",-10.385844829502721],["▁Chan",-10.385853520486789],["▁restaurant",-10.386845372701716],["▁Information",-10.386947284499728],["▁NFL",-10.387362432706395],["▁enjoy",-10.387443674665995],["▁Quebec",-10.387691326122331],["▁height",-10.387742179534298],["▁(d.",-10.388128981437898],["ă",-10.389433587180397],["▁safety",-10.38943474644294],["▁Louisiana",-10.390560016360071],["had",-10.39062471211367],["rro",-10.39074172979639],["19th-century",-10.390811330708846],["▁Chile",-10.39086042808516],["▁arrested",-10.39116200952006],["▁University,",-10.391320218226092],["▁16,",-10.39175413378542],["▁trip",-10.39185672519855],["▁opposition",-10.392128715230985],["obtained",-10.392306762662242],["▁DVD",-10.392610847850788],["▁wave",-10.392668454098347],["wel",-10.393161651170898],["aired",-10.393344218980172],["creating",-10.393384517722048],["▁Dec",-10.393423465385741],["scription",-10.393794439074547],["lau",-10.393873274537546],["▁Base",-10.394590594170296],["ibility",-10.394861756797486],["▁chosen",-10.395087470201833],["▁Senator",-10.395170112092076],["▁Pope",-10.395244301652848],["cock",-10.395974462911308],["▁domestic",-10.396246584704054],["▁Gordon",-10.39672540632241],["▁Dream",-10.396738743732577],["▁materials",-10.39682084425236],["titu",-10.39687815857327],["▁fuel",-10.397278354478741],["▁Buck",-10.397319709802353],["bow",-10.39751947774005],["▁Alan",-10.398324160778548],["agi",-10.398394471873791],["▁expansion",-10.398650174602311],[">",-10.398928184091135],["▁Connecticut",-10.399032563868861],["▁Az",-10.399084509097472],["▁Naval",-10.399136500614443],["▁Dance",-10.399378799935615],["▁Hotel",-10.40037201703832],["▁Prior",-10.40055550204619],["▁Mass",-10.401239034608185],["2006",-10.401868728392957],["rative",-10.402098351520785],["▁Mai",-10.402114032779474],["eek",-10.402206764408456],["-J",-10.402759416144672],["▁necessary",-10.40280449581338],["tries",-10.403027318435914],["▁trains",-10.403349880670262],["▁Qua",-10.403813502142896],["▁Bern",-10.40387910222078],["uro",-10.404835875207981],["▁authority",-10.405022148335929],["itch",-10.40503581702654],["▁memory",-10.405801074167796],["▁officials",-10.406391131199562],["▁script",-10.406649769901469],["▁Plan",-10.406796307999507],["heim",-10.406829781045923],["▁flat",-10.407617538071113],["▁style=\"text",-10.407664091980989],["▁6.",-10.407719034829775],["throp",-10.408004573395395],["▁arms",-10.40846485584708],["2,",-10.408485329912681],["▁application",-10.409082141999901],["▁link",-10.409129713868412],["▁Brand",-10.409247436056946],["▁1931",-10.409353508387934],["▁Samuel",-10.409663214498977],["Several",-10.409938659290882],["aire",-10.410081321329434],["▁demo",-10.410163603613944],["FF",-10.410491657435538],["▁(15",-10.410514040371872],["▁prize",-10.410698364807331],["▁(5",-10.410929950719265],["▁killing",-10.411061055034365],["stead",-10.411544727197473],["▁Chamber",-10.41157096740275],["▁iron",-10.411748420836098],["▁animals",-10.41203978521658],["A)",-10.41225779023414],["▁statistics",-10.412314781538777],["▁Constitution",-10.412373117447538],["▁Grant",-10.412645034602205],["▁reaction",-10.412722280004301],["▁plot",-10.413508194419778],["bought",-10.41356925439066],["▁orchestra",-10.41430592443472],["entitled",-10.414520572256917],["▁1927",-10.414683427999629],["▁failure",-10.414749884399487],["settled",-10.414982127716751],["▁resources",-10.415671260520195],["▁normal",-10.415860226151633],["▁Auto",-10.415993649860715],["pell",-10.41616170812128],["hem",-10.416265195244712],["▁morning",-10.41631181835662],["▁sixth",-10.416325799971373],["▁Diego",-10.416422307627169],["DA",-10.41682837122289],["▁criminal",-10.417050890373261],["▁learn",-10.417123658640174],["▁75",-10.417516031159305],["▁holding",-10.417576325503532],["ulate",-10.417657465100083],["▁yellow",-10.417753539297639],["▁fully",-10.417795378317134],["▁reflect",-10.417971293266495],["▁your",-10.41849789424213],["▁climate",-10.41850701379926],["▁honour",-10.41863415411309],["▁reports",-10.418815102103562],["oxi",-10.418850476552091],["▁Argentina",-10.418901821806424],["▁something",-10.41891932968858],["▁Gene",-10.419122405323687],["▁castle",-10.419880920350172],["▁Hockey",-10.420785748375897],["towards",-10.420901097444137],["gran",-10.42102602544461],["▁1922",-10.421036558819061],["▁Py",-10.421329144112082],["▁moment",-10.42136453129151],["▁Wy",-10.422001674410172],["▁Flo",-10.42257700791885],["▁properties",-10.422660494327275],["self",-10.42282715440498],["2012",-10.42292074422119],["▁frequently",-10.423079317790211],["▁Sport",-10.423083071247794],["axi",-10.424249099567275],["▁piece",-10.424691764276504],["▁relatively",-10.424874666358889],["jun",-10.424934910287801],["▁Tournament",-10.4251398489434],["▁Bus",-10.425226951038166],["▁lyrics",-10.425254926238024],["▁29,",-10.425419828214425],["▁Karl",-10.425786658463007],["▁jazz",-10.426302308724816],["anne",-10.426365389109787],["gla",-10.426564701719794],["CI",-10.42666213760896],["▁critics",-10.42668386256944],["▁narrow",-10.426728731616983],["▁chain",-10.426859676654306],["▁Tokyo",-10.42696677184864],["▁proceed",-10.4270851904676],["▁Antonio",-10.427103651559177],["▁Trust",-10.427120260716109],["▁add",-10.427441378390386],["▁acid",-10.427695779609122],["▁guitarist",-10.428070546090376],["lian",-10.428287174417322],["▁Internet",-10.429677272929457],["▁Though",-10.430286611167457],["▁Ry",-10.430765094232585],["▁What",-10.431153841760935],["▁Labour",-10.431170875144858],["▁Coll",-10.431284556310855],["▁pain",-10.431296952158062],["▁Category:Re",-10.431496644897793],["▁Moon",-10.431897681170314],["▁NCAA",-10.432037986799223],["▁crash",-10.432551407797959],["▁regions",-10.432683566223854],["▁Nazi",-10.432696410446153],["▁rear",-10.432702024645994],["▁Native",-10.43287599956566],["▁Youth",-10.433765221992614],["▁Orchestra",-10.434310646218401],["▁Honor",-10.434348932739468],["stad",-10.434479096512037],["say",-10.434487143299238],["▁Ay",-10.43455677312099],["▁dog",-10.434674276437194],["armed",-10.43475323235818],["contains",-10.434974563979349],["body",-10.43544797431726],["(which",-10.435537249434672],["▁2005.",-10.43577654144159],["▁Kam",-10.436289543014338],["path",-10.436427256919039],["▁solution",-10.436540556673433],["fought",-10.436548256473541],["▁seed",-10.436801345443376],["▁Nov",-10.437195595124994],["rug",-10.437555184408396],["▁Baron",-10.437647823852673],["▁shoot",-10.43811334884784],["▁copies",-10.439319169142198],["▁Fer",-10.439439338699998],["100",-10.439755252406956],["▁Lim",-10.43989059201001],["▁Cuba",-10.439940078961977],["lab",-10.440239592274109],["▁Turkish",-10.440415266626822],["▁Heritage",-10.440589411419136],["▁category",-10.440638199400217],["kha",-10.4406989470188],["▁weak",-10.440772032844905],["▁begin",-10.440829718320895],["▁regiment",-10.441465270743214],["▁neighborhood",-10.441802017941296],["▁fans",-10.443056582769273],["MC",-10.443064697072888],["▁Houston",-10.443303134128191],["▁Pop",-10.444044828252549],["▁18,",-10.444110412619318],["▁Description",-10.444140799030908],["▁Prix",-10.444216682222182],["▁daily",-10.444244212336196],["▁bomb",-10.444258965776102],["▁storm",-10.44431964277451],["▁Village",-10.44473136841929],["trained",-10.444912465027922],["▁Local",-10.445026480067652],["cil",-10.445185259301732],["enz",-10.445518534621716],["▁Commonwealth",-10.445583982105829],["raw",-10.445934046653502],["▁Metro",-10.446310616480158],["▁Der",-10.446367918278156],["▁1921",-10.446808634860055],["cott",-10.447106714127],["mid",-10.447132295036404],["rip",-10.447638272056594],["▁Burn",-10.447690851057928],["▁Girl",-10.44774479729363],["▁straight",-10.448227130851185],["bia",-10.448508788060005],["▁methods",-10.448533107290883],["▁appeal",-10.448742037210579],["▁Champions",-10.448785643153869],["#",-10.449186267051997],["▁Wing",-10.449595865505588],["eller",-10.45087208866156],["▁system.",-10.451051786358907],["▁1925",-10.451111637224441],["▁\"J",-10.451114114464133],["▁York,",-10.451900005959438],["▁und",-10.451983537941022],["▁commissioned",-10.452092367168877],["▁commune",-10.452117160783068],["▁Gall",-10.452323246060669],["▁Bear",-10.45238892554012],["▁Portuguese",-10.452469045534349],["▁Dark",-10.452641591411618],["ibb",-10.453535104292254],["▁Puerto",-10.453669404141268],["▁1915",-10.453827026050519],["▁Call",-10.45382958615795],["2013",-10.454594287879468],["▁Category:New",-10.45476119345201],["▁buy",-10.454947524295418],["illo",-10.455003882957497],["▁Dev",-10.455355307300106],["People's",-10.455396830046679],["▁learning",-10.456389986652889],["hou",-10.456617041020682],["▁choice",-10.457094237326013],["▁Mississippi",-10.457162231797923],["▁1950s",-10.457294531842617],["▁high-",-10.457578479995233],["▁Culture",-10.457713262591211],["▁Ant",-10.457921631558074],["Italian",-10.457969892913646],["▁Shu",-10.458012106968145],["▁subsequent",-10.458247477066115],["▁exception",-10.458567219676747],["▁Dick",-10.458915234561786],["▁collaborat",-10.459151462908753],["▁India.",-10.459210536998983],["▁suburb",-10.459322610405668],["ising",-10.460690694278659],["▁1926",-10.460700800281884],["▁principle",-10.461678866669644],["▁electro",-10.461876277615982],["▁Bureau",-10.462019381321717],["▁Johann",-10.462085262085532],["MI",-10.462136578227806],["▁powerful",-10.462226631472468],["▁participate",-10.462305589085828],["stat",-10.46232294730409],["RT",-10.462566686551899],["▁1923",-10.462731851110577],["▁selection",-10.462940877621417],["▁chair",-10.463443013041045],["▁FM",-10.463539077022526],["▁Moore",-10.463710554486179],["▁frame",-10.463977588406447],["far",-10.464643049157308],["▁approved",-10.464961976071853],["▁cricket",-10.465391814534474],["LP",-10.465549896486277],["▁Sara",-10.466019495162778],["▁hair",-10.466400597270045],["▁economy",-10.466439591212522],["2005",-10.466627392369126],["wich",-10.466946894888226],["▁Belgium",-10.46701318452648],["▁citizens",-10.467235631784186],["arri",-10.467247981020707],["▁post-",-10.467325371145545],["▁Commander",-10.467350316210212],["▁Kir",-10.46795119476133],["▁al-",-10.468057381902787],["▁actresses",-10.468235367798359],["▁\"K",-10.468876544925209],["▁express",-10.469010950095512],["▁Administration",-10.469339315125175],["▁Lang",-10.46947434831063],["▁designer",-10.469670439318968],["▁Michel",-10.469957084975066],["receiving",-10.470048840181935],["▁factor",-10.470093147925976],["▁establish",-10.470109962920281],["▁colour",-10.470265153079783],["▁Mayor",-10.470558501729824],["▁expert",-10.470765218138276],["▁column",-10.470805875636074],["▁experiment",-10.470855425565183],["▁mean",-10.471058822043446],["▁Tech",-10.47108325504474],["scope",-10.471135402503348],["▁Mission",-10.471506176596455],["proved",-10.471690591063775],["IP",-10.471763688292315],["▁Reserve",-10.471952536426361],["derived",-10.47210674681438],["2015",-10.47243377000786],["▁photograph",-10.47266553682869],["▁dropped",-10.47286368486602],["lane",-10.47311172484912],["▁flag",-10.473315920909176],["rib",-10.47343009501501],["▁1:",-10.474013624727203],["▁1916",-10.474804040918952],["emo",-10.474955773651326],["▁Category:J",-10.474999004415313],["▁opponent",-10.475270331707332],["▁behavior",-10.47544263819222],["▁funding",-10.475624745992878],["▁respect",-10.475731942800014],["▁Israeli",-10.47618204952285],["▁Carr",-10.476194770228407],["▁Clo",-10.476267828712732],["▁performing",-10.476838689673718],["▁churches",-10.477295670483402],["ES",-10.47782046600941],["▁sell",-10.477967008641889],["▁entrance",-10.478437588499352],["vs.",-10.47865639123189],["sses",-10.478708312748811],["▁visual",-10.478957804442192],["▁shift",-10.479290316197263],["voc",-10.47954520728255],["▁steam",-10.479778358502752],["ched",-10.479810455080822],["ender",-10.480601415059901],["▁#1",-10.48095636386732],["▁Fund",-10.4811283649964],["▁driver",-10.481482003622686],["2014",-10.481833444668737],["▁aim",-10.481838636207783],["▁maximum",-10.481976456273168],["▁Jordan",-10.482264431134407],["▁reduce",-10.48256704081617],["Men's",-10.482618493253336],["ancy",-10.482771878117173],["refused",-10.483139828540757],["▁extensive",-10.483620402357396],["▁Denmark",-10.483738734115745],["4)",-10.484185048067722],["▁literary",-10.484194358130457],["▁(1)",-10.484608392328216],["▁environmental",-10.484873728135533],["▁Last",-10.485265171680002],["▁Square",-10.485328130697852],["å",-10.485710912558195],["▁recognition",-10.486067665060554],["▁Collection",-10.486242743941222],["-like",-10.486309916361106],["roy",-10.48637389668141],["holder",-10.486893959508075],["▁fan",-10.487365619430793],["▁Independent",-10.487579263480113],["▁internal",-10.487990022716652],["tech",-10.488186044094554],["▁Detroit",-10.488279796948502],["otic",-10.4884092504535],["▁spell",-10.488520820029146],["▁kick",-10.489211870196302],["▁address",-10.489750236254237],["▁Thor",-10.489955889472633],["(died",-10.490274716343823],["▁plate",-10.491380238382506],[".4%",-10.49156607881218],["DS",-10.491672497400165],["▁Glo",-10.49194136098247],["▁Nigeria",-10.492607367687658],["▁mind",-10.492874693542452],["RE",-10.494023974446351],["▁fun",-10.49408033780131],["▁Reception",-10.494308439589974],["▁employed",-10.494321864534164],["▁Chairman",-10.49451164657816],["etti",-10.49478204612073],["BI",-10.495073637322124],["▁drop",-10.495078319763682],["▁fashion",-10.495204725054325],["▁harm",-10.495872290526071],["▁Rio",-10.495984646120226],["▁hands",-10.496039135600546],[".5%",-10.496355147637273],["▁heat",-10.496461272201127],["▁Mol",-10.496908123627085],["cover",-10.496925907153024],["▁Express",-10.497000965660076],["▁Rem",-10.497104904319748],["▁discover",-10.497171300201622],["lett",-10.497188798425238],["▁7.",-10.49725532971771],["▁Dy",-10.49773033345917],["Legislative",-10.498150655836659],["▁manufacturer",-10.498192841182915],["▁sun",-10.498346186066739],["3rd",-10.498430572925772],["▁guns",-10.498516600422255],["state)",-10.49901401703375],["▁rival",-10.499298961203326],["NE",-10.499412089237028],["converted",-10.49988952199531],["▁others.",-10.500041501706642],["aux",-10.50004955377852],["▁constant",-10.500214222997453],["▁1913",-10.500263948546445],["containing",-10.500474513776389],["▁Cemetery",-10.500505097189764],["▁Hunt",-10.500786612588366],["▁Only",-10.501360251463971],["▁residence",-10.501549566522476],["eel",-10.501704067733574],["Musical",-10.50182478831702],["people",-10.501829303940202],["dow",-10.501888071617842],["visited",-10.502192568211962],["▁relative",-10.502464795620542],["hot",-10.502778678087884],["▁Harris",-10.50294315480863],["▁children's",-10.503083192229658],["ground",-10.503702306796766],["▁Matthew",-10.503993212074537],["phone",-10.50401223060555],["boy",-10.504581619815745],["▁shared",-10.504631865437064],["▁struggle",-10.505098234829992],["▁tele",-10.505617491960699],[".org",-10.505989659255347],["▁Taiwan",-10.5066436051001],["comb",-10.506723696245142],["▁stadium",-10.507849382408978],["gna",-10.507879347182145],["posed",-10.507887700455377],["▁Arkansas",-10.50790311032385],["▁Ukraine",-10.507996225403497],["▁trees",-10.508191159897255],["▁beyond",-10.508798825546839],["▁nuclear",-10.509238611887913],[".6%",-10.509844959698695],["pression",-10.510649580906938],["▁message",-10.510891025353928],["▁extension",-10.510926330213378],["▁fleet",-10.51109519138025],["▁retirement",-10.511342812747275],["▁Eagle",-10.511353571906897],["▁bit",-10.51182634887869],["▁solid",-10.511993161522124],["alia",-10.512334353857636],["▁Iron",-10.512396160029231],["▁enemy",-10.512694463384758],["▁founding",-10.513502844782638],["▁consecutive",-10.5135757779254],["ipe",-10.51451119716838],["▁nor",-10.51535530590784],["▁Nicol",-10.515503962891803],["▁Portugal",-10.516374411058726],["▁sample",-10.516482222646268],["▁Monte",-10.516763213194023],["▁negative",-10.517101452563205],["▁Bull",-10.517312713330087],[".7%",-10.517556157624247],["▁steel",-10.517649630194295],["Villages",-10.517772680053994],["▁identity",-10.518077829225719],["▁Beau",-10.518766763286589],["▁Cooper",-10.518790241148023],["▁Whi",-10.51997349597098],["mount",-10.520019456308518],["▁coin",-10.520092072628739],["▁reign",-10.52025710261533],["World",-10.52026690646657],["▁contest",-10.520302982780779],["▁Dublin",-10.52065662566105],["▁Kent",-10.520922775421703],["rab",-10.52103078262042],["ingham",-10.521093844910794],["▁segment",-10.521191051774679],["▁1911",-10.521427503011699],["▁determined",-10.521692557357163],["▁centuries",-10.522354305288047],["▁habitat",-10.522521959270733],["▁Rai",-10.52257712934158],["▁fear",-10.522988436916641],["▁soccer",-10.523039597626664],["▁Imperial",-10.523441990147445],["▁Kevin",-10.523468143270748],["▁Margaret",-10.523657268504575],["cot",-10.524000082025614],["active",-10.524031531667822],["▁increasing",-10.52462729723531],["▁Tam",-10.524814528439096],["RD",-10.52506617130189],["▁align=center|",-10.52541498826052],["▁Od",-10.525716148969671],["▁Helen",-10.525756016841607],["▁carry",-10.525801208885843],["tap",-10.525970589237106],["▁magn",-10.526071822430437],["▁weapons",-10.526176014291547],["▁Global",-10.526680630126865],["tier",-10.526955011891515],["▁herself",-10.52719878784971],["▁decide",-10.527357652991467],["▁Guide",-10.527377862726464],["▁Cook",-10.527481065616517],["▁correct",-10.527900877472499],["rce",-10.528016407932503],["▁Stage",-10.528475213304631],["▁safe",-10.528604234969311],["▁Jesus",-10.528758331323758],["duction",-10.529730769369312],["ović",-10.529828024224363],["▁guide",-10.529953114212997],["▁Cole",-10.529994647174957],["▁Ottoman",-10.530217837130326],["▁playoff",-10.530415295988135],["°",-10.530418946463698],["dell",-10.53059978027662],["fine",-10.530713667146514],["ī",-10.531130929626023],["Pro",-10.531611211954644],["▁Hawaii",-10.531617470820114],["▁worldwide",-10.531807207747013],["▁José",-10.53188735452443],["▁Dean",-10.531933177624351],["▁rare",-10.531944104400907],["▁\"N",-10.532450867211828],["▁fighter",-10.533103994030482],["▁Walker",-10.533112848936655],["CP",-10.53329409628163],["▁glass",-10.533599135871777],["unable",-10.534071929724208],["ô",-10.534304727401382],["▁fit",-10.534840542960282],["▁Election",-10.535571505877664],["▁lecture",-10.535709680680766],["▁contrast",-10.536092471685127],["▁poll",-10.536339035950093],["▁advantage",-10.53640225293485],["lev",-10.53661206033813],["▁meant",-10.537040680974547],["▁wild",-10.537616494177033],["▁existence",-10.537798017717718],["▁Lawrence",-10.537906471688474],["▁Jeff",-10.537960567434952],["▁tennis",-10.538057789009907],["▁Rhode",-10.538274097129445],["▁investment",-10.538323642097652],["roc",-10.538740581733963],["▁planning",-10.538983324862087],["▁introduction",-10.539384643171122],["▁establishment",-10.540135759578686],["▁valley",-10.540231398918971],["▁girls",-10.540830019990551],["allowing",-10.540938517194416],["▁Raj",-10.540957217666389],["2004",-10.541077542847388],["gas",-10.541140922139677],["▁Alfred",-10.541161032891305],["▁Challenge",-10.541468864948467],["-in-",-10.541934452529768],["passes",-10.541987510245441],["▁chapter",-10.542175767061934],["▁qualified",-10.542494420076705],["▁Edinburgh",-10.542512479050584],["▁institution",-10.543108046166338],["▁Kaz",-10.543135031717613],["▁camera",-10.543212139957754],["▁Petr",-10.543660459759653],["▁D.C.",-10.543835207518883],["1980",-10.54390956521806],["▁occur",-10.5446906616196],["▁string",-10.544899307681678],["▁educational",-10.544921157250883],["(track",-10.545685588101676],["▁poetry",-10.546263697157299],["▁Judge",-10.546304760626173],["▁Communist",-10.5467005000035],["cited",-10.546954825326496],["oko",-10.546960728877135],["▁slightly",-10.547908641546755],[".9%",-10.54810076827121],["▁Miami",-10.548533097953161],["▁Market",-10.548619260695826],["-day",-10.548664492017645],["▁auto",-10.548837172199734],["▁Run",-10.548997621502714],["ultimately",-10.549464733562708],["▁touchdown",-10.551227251197977],["▁Kha",-10.551241188936721],["▁Ryan",-10.551306627277159],["▁Kid",-10.551312992469112],["Railway",-10.551590316874073],["▁sit",-10.551928126555577],[".D.",-10.552084278510957],["quot",-10.552220896107103],["▁Website",-10.552372605987951],["▁push",-10.552572561503798],["tiv",-10.55265795378571],["600",-10.553270287892953],["▁improve",-10.553423642322489],["▁combination",-10.553895281674963],["face",-10.554040417950482],["▁Fle",-10.554439940532],["▁Bah",-10.554696934227245],["▁Fla",-10.554772513084393],["▁Trade",-10.554910676436268],["▁Tamil",-10.555287029683424],["▁panel",-10.555467584904772],["fish",-10.555696190089547],["▁eye",-10.555719487506392],["▁Leon",-10.55580469258104],["mist",-10.556080407962266],["▁someone",-10.55625319789928],["▁description",-10.5566129668169],["LC",-10.557525438668549],["▁Islamic",-10.557897894744078],["quit",-10.557929529429185],["▁chemical",-10.55800803289963],["▁18th",-10.559006442452745],["▁successfully",-10.559145509680624],["▁Bernard",-10.559466456305776],["▁consul",-10.559886356821272],["▁Electric",-10.560089878077424],["ened",-10.560219288291496],["▁ethnic",-10.56056816667036],["▁compilation",-10.560906991721803],["▁Low",-10.560963170435773],["core",-10.560983451493511],["▁conduct",-10.56147739375422],["resulted",-10.561727118540004],["▁Conservative",-10.562175834539227],["Songs",-10.562218367133037],["ist,",-10.56225115707296],["▁Colonel",-10.562812700925996],["▁passenger",-10.56368634511724],["▁Donald",-10.563702665795619],["▁abandoned",-10.563847508095177],["▁6th",-10.564120913585512],["alleged",-10.564127944133153],["did",-10.564162882369708],["▁correspond",-10.565205445006683],["800",-10.565540522981024],["▁repair",-10.565633670155124],["Alumni",-10.565823012983785],["▁labor",-10.566053269152897],["mad",-10.566260700107122],["source",-10.567195388363274],["▁throw",-10.568167120907784],["▁doing",-10.568329486613901],["▁finding",-10.56894801170017],["▁partnership",-10.569497852389588],[".3%",-10.56949996071758],["quite",-10.569505156079913],["scheduled",-10.569922750892339],["▁consider",-10.57023897810728],["▁debate",-10.570436500709313],["ion.",-10.570661931584032],["▁drink",-10.570846633353254],["ntro",-10.570957740641498],["▁Nat",-10.5713639597562],["ë",-10.571376815375082],["invited",-10.57176726954059],["lection",-10.571959153282906],["▁fund",-10.572119505558774],["CS",-10.57218012843321],["▁Section",-10.572434784683335],["▁brown",-10.572592324878983],["▁Cit",-10.572708268178845],["▁junior",-10.573248439382638],["▁independence",-10.573374463370092],["RS",-10.57343646148845],["▁novelist",-10.573920317018706],["Moth",-10.5739514444073],["▁Hell",-10.573956720160592],["2016",-10.574032516313192],["lash",-10.574046037687559],["▁Metropolitan",-10.574142168873346],["▁township",-10.575177381035521],["iri",-10.575446294510545],["xpatriate",-10.575522685227805],["▁cinema",-10.576092434081712],["▁arrangement",-10.576266915287944],["▁collaboration",-10.576479295409728],["ensure",-10.577191467033362],["▁Volume",-10.577500970689842],["FA",-10.577604423602406],["pop",-10.57835510565023],["▁folk",-10.578528451348264],["▁Champion",-10.578528876772186],["resulting",-10.578618380150308],["▁Bruce",-10.579053395218112],["involving",-10.579087291941999],["▁Ron",-10.579506189033935],["▁proper",-10.579566878078586],["1960",-10.579797787810742],["Japanese",-10.580297071662002],["stall",-10.580628741928841],["direct",-10.580700991426628],["▁purchase",-10.580871656899838],["▁animal",-10.581185398276519],["rai",-10.58171947367095],["▁monument",-10.58230968017673],["Male",-10.582392565653976],["▁Finland",-10.583269113268372],["▁Bou",-10.583559011970323],["▁Dol",-10.584086606044325],["▁Standard",-10.584128463384067],["▁Utah",-10.584313254772871],["▁formal",-10.5848554332101],["▁Villa",-10.584993299446355],["▁presidential",-10.585646179369151],["AL",-10.5857838714043],["▁violence",-10.585938373633885],["▁fruit",-10.58618350290092],["evo",-10.586201581264906],["half",-10.586485026110909],["▁Jose",-10.586647440147644],["▁Railroad",-10.58665640768523],["udd",-10.586960811888249],["▁Morgan",-10.587076786564712],["▁Hollywood",-10.587135547974691],["▁Kil",-10.587627029671815],["-10",-10.589360900170504],["arra",-10.589387798368037],["2001",-10.589481725999729],["contributed",-10.589499635389911],["▁supporting",-10.589612745903656],["▁obtain",-10.58961372453776],["NC",-10.590798109707814],["▁Secret",-10.590892072644252],["▁budget",-10.590972918991062],["▁Bow",-10.5917429341148],["▁Syn",-10.591768161904575],["▁Shin",-10.592032696751813],["▁plea",-10.593142430623013],["pes",-10.593310482341412],["OR",-10.593630886580126],["2003",-10.593972930262009],["ops",-10.594021805827907],["representing",-10.594220226574334],["▁Greg",-10.594338187648233],["WA",-10.594396623554136],["▁Lam",-10.594603315081688],["ED",-10.594632966097876],["▁Sid",-10.594972480519298],["▁rescue",-10.595251696532424],["state",-10.59542717094518],["▁moth",-10.595602945602423],["▁brief",-10.595716427679443],["▁7th",-10.596034051241796],["▁Saturday",-10.59627310205284],["▁fair",-10.597272521924909],["▁passing",-10.598590137361198],["▁jump",-10.598596513317144],["▁patients",-10.59956720437763],["▁Five",-10.600686845749935],["▁scheme",-10.600703395939169],["▁proposal",-10.600828909861145],["▁franchise",-10.600945884528002],["▁squadron",-10.601099311108117],["runner",-10.601205983084792],["tack",-10.60126626819891],["▁1890",-10.602131481528463],["plane",-10.602323278354271],["▁Deputy",-10.602611663733661],["present",-10.603067173349864],["▁Sm",-10.60371083660958],["▁Engineer",-10.603797825373023],["▁Lanka",-10.603967212953744],["}",-10.604611345546997],["▁invasion",-10.604851777363232],["▁Lou",-10.605276252308359],["fir",-10.605407452890729],["▁Montreal",-10.605576349264398],["▁sole",-10.605644494287601],["▁Singh",-10.605771492857139],["fall",-10.605784614290545],["▁seek",-10.60617769006415],["▁Marie",-10.606562178215587],["etta",-10.606828897356532],["▁Din",-10.60732695624385],["▁Dead",-10.607647041094978],["focused",-10.607649950488616],["▁sil",-10.607769219422408],["▁Euro",-10.60807768970109],["▁Sign",-10.608107147050049],["▁interior",-10.608134839495545],["▁Shah",-10.60839362843332],["▁collected",-10.60877886182701],["\"|",-10.60885098111395],["▁Our",-10.609245851563289],["causing",-10.609249475575227],["▁defender",-10.609443775471838],["▁manage",-10.609616240984531],["motion",-10.610146347743148],["▁Organization",-10.610492996106242],["-class",-10.610505662014614],["indi",-10.610946786828649],["▁heavily",-10.611038669518807],["▁Welsh",-10.611066254441486],["▁determine",-10.611206615189658],["▁ceremony",-10.611449984967326],["▁p.",-10.611538247323322],["▁Russell",-10.611675027984104],["▁Fall",-10.612071101701332],["mur",-10.612155910360103],[".1%",-10.612186451914784],["resigned",-10.612530193656685],["▁sail",-10.61255852657385],["▁inhabitants",-10.613655541928521],["2002",-10.61375443680933],["▁reception",-10.61450641812148],["▁(for",-10.61481978297819],["▁theater",-10.616178192819667],["dou",-10.616697663781483],["▁operator",-10.616791367956589],["aceae",-10.616843306314868],["CT",-10.616918339495326],[".2%",-10.616980337447437],["▁catch",-10.616989507324206],["▁Atlanta",-10.617843990086262],["л",-10.617916713570692],["▁laid",-10.618438207222736],["▁Audi",-10.618752344871218],["▁drawing",-10.619074400905578],["regarding",-10.619074842820597],["▁employ",-10.619853225034667],["▁wish",-10.619914026610477],["troph",-10.620656184379357],["▁Hungary",-10.621032194889757],["▁Dur",-10.621398366979536],["▁breed",-10.622462419808706],["now",-10.622914654035624],["▁speak",-10.62299157593019],["stom",-10.623256343061454],["math",-10.623420008139465],["cies",-10.624094076181121],["quin",-10.624212362336632],["dating",-10.624562846835925],["▁marine",-10.624819369719589],["▁Berg",-10.625204391683221],["▁Christopher",-10.625298262399252],["▁maintained",-10.625367796110153],["▁Hindu",-10.625385247449643],["▁Cleveland",-10.625394024159938],[".8%",-10.62541183680946],["ş",-10.625664308931407],["▁c.",-10.62575275006516],["<",-10.625803985318882],["▁Mit",-10.625901370863016],["ela",-10.625984826825919],["▁delay",-10.62630353327624],["atta",-10.626475784981086],["▁capture",-10.626734678384963],["▁bodies",-10.626749170097249],["hired",-10.62676104720862],["Argentine",-10.626844122677936],["▁Publishing",-10.627717770592698],["▁bin",-10.62799810676975],["▁Defense",-10.628998348513974],["rise",-10.629284243255393],["▁Magn",-10.629515891735188],["▁$3",-10.629604205524586],["▁Steel",-10.629688794085848],["▁Peace",-10.62974470329549],["eria",-10.629833669663304],["▁Semi",-10.630202508427267],["▁Emil",-10.630213548910623],["▁opinion",-10.63029417991766],["▁sculpture",-10.630669899504221],["Upon",-10.630892217815452],["▁Beat",-10.631332016018403],["dynamic",-10.631907844191291],["attempted",-10.63216436585977],["phon",-10.632244594208794],["▁weather",-10.632389063774783],["▁Zu",-10.632490857156439],["▁Site",-10.632893095997558],["▁reveal",-10.633020730123471],["▁uncle",-10.633151580068317],[".com/",-10.633331552760215],["α",-10.633507589492755],["▁Page",-10.63351724787105],["▁Digital",-10.634009237853633],["▁birds",-10.634050969341311],["plic",-10.63415899193907],["▁injured",-10.635022380311419],["MD",-10.635286010923142],["▁sale",-10.635738668410957],["▁Model",-10.635781444002326],["nnel",-10.636034631134821],["▁dynasty",-10.636265130430152],["faced",-10.636424640525844],["▁planet",-10.636521398106408],["2017",-10.636908998923039],["▁margin",-10.637052473857702],["▁civilian",-10.637270191808097],["▁importance",-10.637354823741047],["ey,",-10.63737093045646],["▁actual",-10.637504463446113],["▁Cher",-10.638000934073958],["▁Once",-10.638066639890287],["▁producing",-10.638563855709576],["▁installed",-10.638582033846061],["▁Kelly",-10.63860991281962],["▁Dragon",-10.639102534776551],["×",-10.63923378941823],["▁instance",-10.639325237723638],["▁Bush",-10.639503417609758],["Fish",-10.639750178166937],["▁clean",-10.64017434478901],["▁Palace",-10.64060935646754],["-related",-10.640830981714501],["▁device",-10.640875447994885],["raj",-10.64165452377706],["▁talent",-10.64171584030909],["rang",-10.642116166836571],["▁Cardinal",-10.64221632810183],["▁Swa",-10.642664716483434],["▁specifically",-10.642709485939731],["known",-10.643087049946232],["▁reality",-10.64358517623909],["1,000",-10.644561811082035],["▁genre",-10.644673294327667],["league",-10.644731569404355],["▁stating",-10.645702968111362],["▁Every",-10.645878956085882],["▁Child",-10.64624375421855],["lom",-10.646472794002472],["▁volunteer",-10.64670314297961],["ME",-10.647026597448782],["yce",-10.647796479051305],["hall",-10.647831201926822],["▁Sai",-10.647852022041844],["▁(10",-10.648102630199148],["▁twelve",-10.64818428164536],["▁mention",-10.64821157500414],["▁Romania",-10.648834837705449],["▁bowl",-10.649557777165398],["▁Box",-10.649919629024295],["avy",-10.64993864369976],["word",-10.6500064817461],["▁Studio",-10.650351850469708],["▁Stewart",-10.650626948646693],["▁Hampshire",-10.651278780366447],["erra",-10.651326478713411],["▁select",-10.651516934513646],["▁Kon",-10.65164023741111],["▁midfielder",-10.6517026257389],["▁Ever",-10.651807275929018],["▁expression",-10.65265242716962],["ON",-10.652719127251306],["▁parallel",-10.652738956246264],["▁municipal",-10.652835956575652],["▁regulation",-10.653267495701073],["5%",-10.653296988956741],["▁Jimmy",-10.653658242576066],["▁replace",-10.653881698913349],["ceased",-10.653892184768328],["▁Gon",-10.653970791800626],["▁Tower",-10.65443092230857],["HS",-10.654574393349991],["dication",-10.654610071106692],["▁Drive",-10.654728878925908],["ine,",-10.654973645057927],["lish",-10.655152766412789],["▁Medicine",-10.655172989407221],["expressed",-10.655561881924573],["▁entirely",-10.656565387626843],["▁Campbell",-10.656613702253331],["nada",-10.657088262601404],["▁Row",-10.657373851238567],["▁send",-10.657384416657626],["▁Princess",-10.65740705125982],["▁Wind",-10.657418845815108],["▁multi-",-10.658079159320314],["▁Vin",-10.658108300558668],["▁Rat",-10.658364111348817],["▁Baltimore",-10.659027690412977],["▁translated",-10.659145852282283],["▁observed",-10.659386382901621],["▁context",-10.659781622156924],["Serbian",-10.659788404174583],["▁Disney",-10.659829619413111],["▁Orthodox",-10.659912528825286],["SD",-10.660185265797766],["▁Seattle",-10.660503557885633],["▁heard",-10.660537086368919],["▁explain",-10.660871768914477],["▁Rich",-10.661067699268235],["▁Brad",-10.661311037024385],["▁Barb",-10.661556073324467],["▁registered",-10.661647341388123],["iev",-10.661779163402404],["hri",-10.662063930557135],["▁Fal",-10.66240771821434],["▁Sab",-10.662519711681526],["▁Edition",-10.663063394836987],["▁animated",-10.663159567001482],["▁Kennedy",-10.663460126839222],["OC",-10.663673499266428],["1999",-10.663685640555002],["season",-10.663770606265189],["▁Personnel",-10.663904238103669],["▁shell",-10.663968428966006],["▁Neu",-10.664099251726054],["▁occupation",-10.664557383478556],["▁Lor",-10.664661069303799],["▁Oblast",-10.664776056239132],["▁constituency",-10.66482060382227],["▁Crown",-10.66490921306621],["−",-10.66535633343795],["▁Milan",-10.665491414825194],["TS",-10.665724561482163],["▁agency",-10.665743588583704],["hab",-10.666038012373505],["▁extend",-10.66669796443213],["CD",-10.666762992792329],["gni",-10.666902522163468],["getting",-10.667052997926177],["▁northeast",-10.667114445721193],["▁Anton",-10.667146524214175],["gil",-10.66805430866301],["argued",-10.668151068880977],["▁Stock",-10.668310148751686],["ML",-10.66856868038873],["▁dry",-10.66894070006736],["▁publisher",-10.669386862876378],["pod",-10.66963842819988],["engaged",-10.669790977609352],["▁affect",-10.670147159163426],["▁Convention",-10.67029203683216],["▁Rain",-10.670560874676715],["▁closely",-10.671267421265622],["▁Energy",-10.67133374656988],["▁Ivan",-10.67150357234948],["▁Know",-10.672178028839868],["▁opportunity",-10.672237324470244],["▁Category:In",-10.672590138546425],["▁resistance",-10.672638916081352],["▁tropical",-10.67292374705157],["corn",-10.673548347002182],["▁soil",-10.673627736354584],["starred",-10.673742608200165],["▁Case",-10.673956213116268],["I'm",-10.674584844007981],["▁Nelson",-10.674739422758725],["▁Vienna",-10.675217249588782],["trying",-10.675496324055489],["▁Comics",-10.675506518486891],["▁provision",-10.675736961238746],["▁Capital",-10.675774448975682],["▁wh",-10.6763601887908],["▁ranking",-10.6764139952939],["▁150",-10.676421196889859],["DI",-10.676576939743882],["▁Bab",-10.676995488282882],["▁Thus",-10.677118567357445],["cad",-10.677245567634515],["▁Jam",-10.67728411059955],["spor",-10.677287912437665],["▁Cricket",-10.677648179600116],["el,",-10.678347226612413],["▁neuro",-10.679092455185804],["▁1904",-10.679680193716925],["▁CEO",-10.679732232453555],["▁railroad",-10.680041556971995],["▁medicine",-10.680152139743223],["acted",-10.680399307938814],["boat",-10.680479445727649],["1970",-10.680556290342754],["▁fill",-10.680874318790819],["▁Commun",-10.681172506184296],["shortly",-10.681176764545322],["▁crowd",-10.682010668833305],["-12",-10.682813458125327],["▁concluded",-10.68314292917186],["▁Billy",-10.683548812274067],["▁really",-10.683926348847676],["polit",-10.683929662749112],["▁recipient",-10.684410386171312],["DF",-10.684474493468834],["▁improved",-10.684705421828626],["fusion",-10.68502362760419],["▁Thompson",-10.685160512897614],["▁Math",-10.685898082426542],["▁brick",-10.685911241574773],["▁Chu",-10.686071753493149],["itude",-10.686633375409679],["▁edited",-10.687067396179398],["▁classic",-10.687541634014606],["▁Map",-10.68797559315732],["▁Div",-10.688471816715115],["▁wait",-10.689352056348813],["▁hour",-10.689463909992437],["▁Pittsburgh",-10.690054736277245],["▁Just",-10.690076807646562],["▁Sarah",-10.690155486039696],["fro",-10.69026316881494],["▁universities",-10.690278197038852],["regarded",-10.691464156028747],["SU",-10.691618572310194],["▁Franklin",-10.691880349984336],["▁wear",-10.691891080085796],["▁license",-10.691925913466504],["▁flying",-10.69192829031589],[".0%",-10.691940294789498],["▁Albania",-10.692472325400288],["▁landscape",-10.69274574523071],["color",-10.692828037295994],["▁philosophy",-10.693010283984874],["oga",-10.693080798112772],["▁measure",-10.693426542400333],["?\"",-10.69346489699035],["▁Austin",-10.693641121930028],["enburg",-10.693835792610665],["selling",-10.694220699571162],["▁athletic",-10.69433729547012],["▁adaptation",-10.694606087838832],["▁possibly",-10.694673897311091],["▁Oak",-10.694974266952226],["metric",-10.694990334228123],["▁classification",-10.694992906875118],["▁1880",-10.695531338147424],["▁transition",-10.69569008149296],["▁Gate",-10.69613667684104],["▁controlled",-10.696315395375116],["▁raid",-10.696472405016367],["▁brain",-10.696739504922729],["ET",-10.696909237328498],["1950",-10.696972641058215],["▁Graham",-10.697497022197048],["Russian",-10.697520321800344],["▁Athletic",-10.697574570703805],["attacked",-10.697954505164638],["▁vice",-10.69815991887273],["▁affected",-10.699519003445278],["sko",-10.699764924214143],["▁Kill",-10.700283781507425],["▁Current",-10.700472407419063],["▁Baker",-10.70083336795956],["▁|align=center|",-10.701006920506519],["▁ABC",-10.701090706874435],["▁Thailand",-10.70163469222299],["▁bottom",-10.701750986094465],["▁factory",-10.701789091284347],["▁agricultural",-10.701807263755914],["▁belief",-10.701868464094193],["▁distributed",-10.702164577011425],["▁Episode",-10.70246719167525],["▁comment",-10.702876457857041],["▁Labor",-10.70291987028197],["leton",-10.702996767344617],["▁items",-10.703028823005164],["▁distinct",-10.703141277217087],["▁domain",-10.703471081713507],["▁exhibit",-10.70355013313752],["▁Control",-10.703739020090294],["developing",-10.70433715854933],["▁(see",-10.704341680534506],["▁singing",-10.704530162303715],["▁Carlos",-10.705049372492482],["▁treat",-10.705287811960314],["adjacent",-10.705327154557411],["▁chose",-10.705375855225057],["bou",-10.705618914350516],["mul",-10.705734773210514],["▁Wright",-10.70582370054367],["▁Agency",-10.70643544390856],["▁freedom",-10.706519003808816],["▁easily",-10.706566324004314],["▁Robinson",-10.70681491584731],["▁greatest",-10.70691953508201],["vary",-10.70711694508718],["ão",-10.707606093238104],["plan",-10.707780844143652],["▁1901",-10.707956123557206],["finishing",-10.70827008895567],["EA",-10.70882496861284],["reaching",-10.709153885652487],["▁Training",-10.709426825282618],["▁Dakota",-10.709573172433176],["▁opposite",-10.710335268431365],["▁detect",-10.710345681031036],["briefly",-10.710439661011565],["▁Carter",-10.710441044387878],["▁agree",-10.710652496215612],["▁shooting",-10.710784796415123],["▁check",-10.71144713366531],["▁explore",-10.711920524052038],["▁committed",-10.711985599750353],["▁Dallas",-10.712130106577849],["▁(2006)",-10.712378605592983],["▁prince",-10.712408770229695],["▁intelligence",-10.712613393796097],["▁Bun",-10.712945835989197],["▁merchant",-10.713052162397593],["stre",-10.7131352708073],["▁severe",-10.713981970463667],["▁Guinea",-10.714013530958482],["roughly",-10.714259031651416],["▁(2007)",-10.714640922172295],["▁Vir",-10.7147748244703],["nig",-10.715209993365024],["mol",-10.715371105434196],["▁Stanley",-10.715593908894412],["▁8.",-10.715615738579679],["▁FIFA",-10.716010720351681],["▁Marshall",-10.71606563997073],["fire",-10.716344787972854],["adapted",-10.716392824453147],["som",-10.716452725850752],["West",-10.716762484066493],["SL",-10.71729852760593],["cir",-10.717811813746682],["1998",-10.717917480558457],["rite",-10.718071741751803],["▁Johnny",-10.71883669768612],["▁tea",-10.719043830459162],["▁expedition",-10.719176666135521],["hid",-10.719376784242007],["▁northwest",-10.719426520256222],["CR",-10.719432258387002],["▁layer",-10.719706120484211],["▁naval",-10.720085047800492],["▁decade",-10.72017093848536],["ographer",-10.720315246501647],["-level",-10.720375774524829],["▁earliest",-10.720471389744416],["▁Liverpool",-10.7204715121959],["1st",-10.720602791035535],["▁fly",-10.720612491805417],["pid",-10.720801629054511],["▁Alliance",-10.721087720534364],["▁|align=left|",-10.721162619927226],["▁speaker",-10.721793473855573],["▁hip",-10.7218182755311],["History",-10.722186659116252],["feld",-10.722282444606142],["▁Trail",-10.722597310109606],["▁Rico",-10.722728670475474],["onym",-10.723459389863672],["!\"",-10.723463077651616],["▁equivalent",-10.723653178217782],["▁associate",-10.724057806120111],["▁Gulf",-10.724367682780068],["▁favor",-10.72492622107355],["▁survived",-10.725057868335654],["▁medium",-10.725212461328736],["▁compound",-10.726112786342805],["▁(2005)",-10.726169991129225],["▁Lower",-10.726185238196393],["contained",-10.726227234221632],["Companies",-10.726919804005803],["▁1902",-10.727134530324692],["▁Movement",-10.727292179818235],["▁Category:Un",-10.727957211597433],["▁Murray",-10.729044576250715],["Iranian",-10.729117261041813],["▁Gary",-10.72917740475033],["▁offering",-10.7293175638646],["CH",-10.729665100056419],["returning",-10.730374079471156],["▁prove",-10.730392697623705],["-17",-10.730558159075956],["▁soundtrack",-10.73096917021929],["▁witness",-10.731162886222776],["▁typical",-10.731204192033433],["roid",-10.73131542798837],["▁Nav",-10.731372694916015],["▁secretary",-10.731547800278312],["▁Pierre",-10.731888652612984],["-of-",-10.73214580419367],["▁sentence",-10.732254506755126],["▁Century",-10.73232684795863],["▁broken",-10.732390692854676],["▁genera",-10.732533566927984],["▁Bomb",-10.732734610463401],["aph",-10.73317469438472],["▁successor",-10.733471423476113],["▁crossing",-10.73379202622581],["arranged",-10.734360689487419],["▁climb",-10.734543234551682],["▁Full",-10.73461775605182],["▁circuit",-10.735176395445215],["▁fee",-10.735208915503305],["▁Disc",-10.73537957031806],["(including",-10.735468614836938],["▁Bengal",-10.73562919007471],["lumin",-10.735869908012008],["1997",-10.735914063426414],["▁|}",-10.73597887624051],["lves",-10.736086954416724],["classified",-10.736352484124584],["▁Urban",-10.73635506646137],["nett",-10.736725231089707],["▁Cathedral",-10.737106666798256],["fection",-10.737226742389755],["ör",-10.73758034526433],["▁exercise",-10.737624050009718],["(from",-10.739083078359581],["▁faith",-10.73911952226819],["▁Coach",-10.73934720794532],["▁involve",-10.739717036279725],["▁retain",-10.739797439217668],["▁Rub",-10.739842095434584],["▁Upper",-10.740361967457591],["rock",-10.740404105860751],["▁athletes",-10.740532367223297],["▁seventh",-10.74145357689494],["▁Soccer",-10.742326896361774],["House",-10.742478961574902],["PR",-10.742787703642737],["fully",-10.742853462134693],["gir",-10.744123725303648],["▁eleven",-10.744199865776839],["▁8th",-10.74429569357222],["▁regularly",-10.744596254445495],["т",-10.744828589880509],["▁Jason",-10.74496220481354],["African-American",-10.745782422391487],["1996",-10.74636625476647],["like",-10.746627705646715],["mobil",-10.746689804003747],["-yard",-10.746849401812753],["▁statue",-10.747039731576503],["▁coal",-10.747372269125146],["ów",-10.747406626934405],["how",-10.747682450908027],["▁criticism",-10.747729347185134],["DE",-10.747913385625898],["US",-10.748087366955014],["▁defensive",-10.748244050720189],["▁calling",-10.748251262202393],["▁Elementary",-10.748895682625598],["1995",-10.749046295802284],["▁pioneer",-10.74965174847939],["corp",-10.750061612992095],["▁Horse",-10.750161235957844],["▁Serbia",-10.750448922931337],["▁l'",-10.750583259134979],["▁lose",-10.751109398824457],["▁spirit",-10.752271659807946],["▁Wayne",-10.752335915743435],["▁refus",-10.752380975018156],["▁Range",-10.752810496391579],["▁Hunter",-10.752832480048912],["▁Peru",-10.7531452978935],["▁dispute",-10.753164426232788],["▁pitch",-10.75329790504978],["▁Discography",-10.754027703356462],["▁appointment",-10.754459103014815],["▁duty",-10.754782680939547],["stock",-10.755114716435187],["PI",-10.755341452808743],["raz",-10.755443864370013],["▁mental",-10.755503262791555],["▁shut",-10.755530529677785],["▁Profile",-10.755646587937527],["▁Movie",-10.75565353400788],["1994",-10.755673009605797],["accused",-10.755991701838981],["▁discuss",-10.756082366120431],["space",-10.75681610018856],["▁bond",-10.757136115393905],["TE",-10.757409412987004],["▁ahead",-10.757786938491545],["▁Commissioner",-10.75779496678666],["▁parent",-10.757826815000463],["▁Daily",-10.758090905598173],["owski",-10.758274291676925],["▁why",-10.75845307254208],["force",-10.759290614653404],["▁satellite",-10.759566766057496],["writer",-10.759704374664377],["▁Assistant",-10.760275712242406],["200",-10.760307252777615],["▁Birmingham",-10.760395541431434],["▁colonial",-10.760456273239237],["▁(e.g.",-10.760536581688369],["LGBT",-10.760551948967414],["praised",-10.762016029488384],["▁sponsor",-10.76247190731034],["▁Arena",-10.7628373959999],["▁Code",-10.763094191466529],["enne",-10.76331400077761],["▁justice",-10.763795975314641],["▁Food",-10.763985267965651],["▁retail",-10.764088717846397],["bank",-10.764118262258881],["joining",-10.764352826862337],["▁Stud",-10.764380758205235],["bag",-10.764397587149313],["▁Father",-10.76453542448947],["▁Cru",-10.764564713752192],["▁Mrs.",-10.764577802557602],["2018",-10.764694514094648],["▁Through",-10.764906243355359],["▁Blo",-10.764941307974347],["lob",-10.765288344305986],["▁difference",-10.76543434491349],["▁Type",-10.765521645212589],["power",-10.76576809024561],["▁Tol",-10.765774263129567],["▁Literature",-10.765934418923923],["▁representation",-10.766168098486123],["▁(2008)",-10.766380767433457],["▁advocate",-10.766436616255861],["Politics",-10.767124885458355],["▁attached",-10.767203968299597],["FI",-10.767290903305291],["anni",-10.767420487238889],["▁portrait",-10.767453957801836],["▁raise",-10.767904451311779],["▁Yorkshire",-10.76803382689693],["1992",-10.768205574987801],["▁racial",-10.76864185111278],["influenced",-10.769481000735862],["Tran",-10.769545551855987],["▁Gill",-10.770116107635086],["▁Brooklyn",-10.770814248685639],["▁physician",-10.771412924506512],["cession",-10.771638315247937],["▁businesses",-10.771750190173988],["notably",-10.77273707603383],["▁arrest",-10.772834850510762],["▁tie",-10.772950971118629],["▁legislation",-10.773050458483684],["▁Rick",-10.773486386840876],["▁knock",-10.77394288719219],["▁Warren",-10.774085095146594],["IF",-10.774288040850992],["▁assault",-10.775038771971857],["UEFA",-10.775433252796416],["▁Construction",-10.775603054705464],["▁delivered",-10.775959604827369],["▁Category:South",-10.776041162875915],["▁tall",-10.777570620990415],["life",-10.77781502455863],["raising",-10.777902144502626],["ether",-10.777926380722011],["1993",-10.777956267807868],["▁defence",-10.778165473930766],["AD",-10.778305516106425],["▁Jazz",-10.778369001074955],["loop",-10.778803066316797],["▁arrive",-10.778865485430993],["▁emerge",-10.778913717675934],["capable",-10.779032348326549],["▁procedure",-10.77912782095426],["ugu",-10.779488375353214],["▁Alaska",-10.779899129243544],["enko",-10.779905005618318],["▁residential",-10.780004962753994],["▁Woman",-10.780019499831639],["▁Orleans",-10.780095523186576],["admitted",-10.780303767413287],["ž",-10.780349793070087],["person",-10.78045116923843],["▁Vel",-10.78158606579466],["▁Wrestling",-10.782175595136348],["hua",-10.782458894624648],["▁(2009)",-10.783211504598071],["▁Primary",-10.783323885905515],["▁Municipality",-10.78334999438013],["▁publishing",-10.783637200032487],["▁depth",-10.783698996400227],["style",-10.783772784561057],["avo",-10.784024334160943],["к",-10.784549981528702],["▁monitor",-10.78493719055331],["▁discussion",-10.785232706470625],["UC",-10.786649680548475],["▁DJ",-10.787059651506977],["▁Charlie",-10.787108479612408],["mig",-10.787110434992842],["▁minute",-10.78752842739737],["▁nothing",-10.787602973899101],["▁Authority",-10.787607995042013],["▁membership",-10.787734180565465],["▁uniform",-10.787805521919987],["▁definition",-10.787939576106604],["accompanied",-10.788072589557085],["▁variation",-10.788386208758258],["▁element",-10.788670670247274],["tsch",-10.788803057368847],["CF",-10.789661509012612],["▁arrival",-10.789748461628596],["▁depict",-10.790376564740612],["▁Barr",-10.79078094239759],["▁mechanism",-10.790952061507417],["▁audio",-10.790995362832986],["▁southeast",-10.791397795203077],["SF",-10.791623285469681],["▁rose",-10.791737042890054],["▁looking",-10.792104032258777],["▁Maur",-10.792693665782355],["▁Fight",-10.792761413429343],["▁Barry",-10.792797557570857],["▁anniversary",-10.793220050814075],["2,000",-10.793311373168653],["▁twin",-10.793450350188312],["▁(2004)",-10.793700894293004],["▁vocal",-10.793715957006974],["▁rejected",-10.793939649580954],["▁Cass",-10.794596652986746],["▁Theater",-10.794745237832133],["▁Shaw",-10.7953531119405],["▁Fleet",-10.795562314884627],["née",-10.795727138171905],["▁pursue",-10.795889346086934],["Spanish",-10.796207264757482],["▁apartment",-10.79622524407599],["▁beach",-10.796644923345596],["Universal",-10.796916832659726],["Private",-10.796937379927748],["nap",-10.797501575155014],["1991",-10.79758669237234],["▁Charlotte",-10.797835514512139],["▁abuse",-10.798195895548398],["Neil",-10.798221564936126],["▁wounded",-10.798621919040466],["HL",-10.798676311493804],["▁improvement",-10.798783826439191],["mba",-10.798897476812508],["1945",-10.79896101748262],["▁ago",-10.799027783636976],["▁achievement",-10.79938411177485],["friend",-10.799450349903008],["▁understanding",-10.800024968357922],["▁gender",-10.800070398070718],["▁Luis",-10.800229882108683],["▁Portland",-10.80032629421393],["▁mobile",-10.801422675939758],["▁Maj",-10.80244883727186],["Psych",-10.802501135542373],["▁driving",-10.802844570324776],["caught",-10.803742988023737],["▁NBA",-10.80379901455164],["biggest",-10.804138240744065],["▁southwest",-10.80425246546689],["perhaps",-10.804934670088807],["▁1898",-10.804941137969713],["▁provincial",-10.805045846131097],["▁Spirit",-10.805051715465467],["Philippine",-10.805102777873884],["▁Madrid",-10.805567213389438],["sexual",-10.805684012243619],["▁painted",-10.806074224271041],["ledge",-10.806310031801662],["▁replacement",-10.806380950677758],["voted",-10.806436186080068],["formally",-10.806711394866765],["bble",-10.807077443076546],["▁switch",-10.807805660238516],["hawk",-10.808674077518615],["▁initiative",-10.808697979323563],["English-language",-10.80895299139324],["▁1870",-10.8094177527856],["▁Henri",-10.809422829975574],["▁Defence",-10.80951382681691],["trans",-10.810097881787396],["2nd",-10.811027975279755],["▁9th",-10.811036392514966],["▁continuous",-10.811564132933285],["dine",-10.811603938692487],["▁Prefecture",-10.811626484168553],["▁gang",-10.812328438888578],["▁apply",-10.812696210139105],["identify",-10.81299445953565],["▁memorial",-10.813246934458896],["ruled",-10.813456422961282],["▁Voice",-10.813517069462792],["▁Admiral",-10.813700372826114],["ische",-10.813898732196186],["raft",-10.813972091801388],["▁offensive",-10.81464829789109],["RO",-10.814745195429765],["▁restored",-10.815433569867231],["▁assistance",-10.815703801240202],["▁Benjamin",-10.816622417430796],["▁Susan",-10.817245439930655],["▁XI",-10.817425953071607],["▁Mess",-10.81783361257307],["▁Delhi",-10.818045636560393],["▁Eye",-10.818581307926856],["IL",-10.818750744962804],["▁prisoners",-10.818942746113642],["▁Fellow",-10.819186309576878],["premiered",-10.819229516842038],["▁Glasgow",-10.81945783265809],["▁(2010)",-10.819634867827704],["orient",-10.820075245584691],["headed",-10.820972561595287],["▁Colombia",-10.821146111050332],["▁Broadway",-10.821384915619097],["▁decline",-10.82148001666386],["arrow",-10.821765946099813],["▁Trophy",-10.821919723461924],["enna",-10.822520134919904],["▁tre",-10.823002514687223],["Flora",-10.823468944702958],["▁ruler",-10.823932659140251],["▁complain",-10.824377856636625],["=\"background:#",-10.824525430736028],["▁semi",-10.82515410292689],["▁Mother",-10.825486847110081],["▁(US",-10.825573854456428],["▁mining",-10.825722493634235],["▁parliament",-10.825911889447864],["▁magic",-10.82652055431763],["▁Baby",-10.8267813882946],["▁Egyptian",-10.826826536305088],["1940",-10.827066608422616],["▁Concert",-10.827358966337957],["Military",-10.827376141685713],["extremely",-10.827389164443755],["▁policies",-10.827556643994845],["▁convention",-10.82792543148063],["▁storage",-10.827944155513709],["filled",-10.828444519162135],["▁Limited",-10.828658847747016],["▁meters",-10.828771058047852],["▁preced",-10.829344950042518],["▁suicide",-10.829468413675807],["oivodeship",-10.829553493523758],["▁march",-10.830016515912538],["MP",-10.830064514263116],["▁plain",-10.8303112416448],["didn't",-10.830364635237045],["Selected",-10.830594781915714],["▁manuscript",-10.830646748927562],["▁fictional",-10.831414253067665],["sati",-10.8314599291045],["▁Orange",-10.831875352341106],["▁Derby",-10.832020740415077],["▁sort",-10.832156909146097],["hik",-10.832342389734094],["drew",-10.832465128319946],["▁crisis",-10.832937311125118],["iste",-10.832954647514292],["▁disorder",-10.83316306802509],["▁client",-10.833254904292222],["▁1899",-10.833473374091218],["▁battalion",-10.833790997453207],["▁illegal",-10.834180429781886],["▁duties",-10.834963350076565],["TP",-10.834969893870918],["▁window",-10.83523093560128],["▁Mitchell",-10.835361227742691],["▁(2011)",-10.835546831305487],["phil",-10.835577463834886],["▁Nik",-10.835901387266224],["▁Kenya",-10.836225081882347],["▁formula",-10.836385088237249],["▁Borough",-10.836419533466353],["▁Zone",-10.836440646341234],["▁responsibility",-10.836481096316923],["▁thick",-10.83676487549416],["▁technique",-10.836852961998346],["▁homo",-10.837232140362362],["▁Adventure",-10.837408708954712],["ß",-10.837581034326098],["▁journey",-10.83761344124454],["wise",-10.837753302364858],["Demographics",-10.838139118687325],["▁otherwise",-10.838318317613632],["▁gift",-10.838392253046075],["struck",-10.839136659863607],["▁Ski",-10.839223834454364],["▁golf",-10.839390367491129],["SM",-10.840237217300306],["▁concentration",-10.840487907998895],["▁Children",-10.840935974438528],["▁Cinema",-10.841225492645753],["▁poverty",-10.841311550819563],["Ancient",-10.841549690450943],["▁Late",-10.841700998941123],["▁Species",-10.841728548814245],["▁businessman",-10.841991672256988],["SW",-10.842101450724849],["▁(2003)",-10.842959739225499],["1965",-10.843604965083061],["▁flo",-10.843686934475826],["ș",-10.84390211999627],["▁Barbara",-10.843941770689586],["▁flood",-10.843984252745145],["▁Racing",-10.844213533212583],["▁listen",-10.844453836000856],["▁prepared",-10.844505489793697],["▁instrument",-10.84457183498877],["▁intersection",-10.844654281632353],["-and-",-10.844960398883734],["▁Direct",-10.845109000228371],["▁chamber",-10.845206526269756],["▁decrease",-10.845652913595359],["▁Performance",-10.845728204741237],["cli",-10.846097458991329],["▁circle",-10.846256891712274],["▁executed",-10.846544141193052],["fel",-10.847005609140457],["▁Branch",-10.847072873998147],["▁Publications",-10.847175572158333],["▁truck",-10.847462694939072],["▁cable",-10.847612480585433],["▁schedule",-10.847840769036278],["▁immigrant",-10.848048607101624],["2019",-10.848263212812347],["▁Leonard",-10.848285574371287],["▁stopped",-10.848641143862146],["esse",-10.848733491246549],["▁Pradesh",-10.848834013981488],["stroke",-10.84926100855502],["hydr",-10.850313472352347],["1989",-10.850326402926001],["ibi",-10.850456744979853],["▁tape",-10.850887503082099],["▁Richmond",-10.851325206994305],["▁withdraw",-10.851449476260449],["▁Release",-10.851581976267957],["stream",-10.851724189287474],["ility",-10.85216054094319],["ê",-10.85226512313982],["▁rebel",-10.852318037000591],["▁cousin",-10.85286775536895],["▁coverage",-10.853150153996193],["▁instruction",-10.853552587297106],["▁Northwest",-10.853718373306563],["▁adventure",-10.854018557543535],["▁agencies",-10.854032806633581],["▁Schu",-10.854132618993146],["▁tunnel",-10.854337936565983],["▁chemist",-10.854956099445294],["esia",-10.855084613012169],["▁Soul",-10.855163684603298],["▁Gabriel",-10.856261339806599],["odor",-10.856427254973314],["▁Blood",-10.856664623664626],["▁significantly",-10.856799992550647],["▁manner",-10.857348689875256],["ril",-10.85760939786096],["▁heritage",-10.857713285666954],["▁fixed",-10.857969216537958],["▁tube",-10.858298672663526],["▁achieve",-10.85913255559622],["▁weekly",-10.859884364629718],["Don't",-10.860263741034615],["▁institute",-10.860773246160807],["determin",-10.861075782528987],["▁medieval",-10.862245853684616],["▁Jonathan",-10.8625682171773],["▁alter",-10.862637929897188],["▁depend",-10.862746675924294],["taine",-10.863372957530247],["▁1896",-10.863544361617626],["▁unusual",-10.863875224215148],["▁Nevada",-10.86467095180706],["▁Storm",-10.864840132941676],["Educational",-10.864847313102187],["▁Baptist",-10.86490350559034],["▁coastal",-10.864972035743307],["criticized",-10.865001226414405],["▁1895",-10.865302035841193],["▁Bible",-10.865750410268326],["▁locality",-10.865788755316819],["▁RAF",-10.865867847944],["$",-10.866069621222199],["▁Tang",-10.866349176678789],["▁moral",-10.866834870767331],["▁wrestler",-10.867090296756286],["▁argument",-10.867412986228631],["dorf",-10.868800606649076],["▁1897",-10.868842652032756],["▁Small",-10.869008427463518],["▁Bachelor",-10.869550416144328],["diction",-10.869829896049236],["OM",-10.870258937757917],["huge",-10.87043813293653],["assumed",-10.870720835752337],["▁perfect",-10.871704339414391],["▁disappear",-10.871731713685389],["▁Drama",-10.8725514670367],["▁secure",-10.872912597979605],["atsu",-10.873326555815199],["▁revenue",-10.873579265223272],["carrying",-10.873616602365487],["dir",-10.873694819890506],["▁elect",-10.873936800375605],["▁Micro",-10.874256959752822],["▁romantic",-10.874339957548038],["▁popularity",-10.874527028250613],["road",-10.874924256560082],["▁Robin",-10.875472802790679],["▁answer",-10.8759069901252],["▁manufacturing",-10.876031448162063],["▁plus",-10.876174229415524],["▁elevation",-10.876189812836722],["▁Alice",-10.8763491902663],["▁Legend",-10.876468960893744],["convince",-10.876553272993322],["▁continu",-10.876880006895215],["▁Azerbaijan",-10.876973749128759],["▁Amb",-10.87713448231037],["в",-10.877206899544184],["▁Jerusalem",-10.877647365831036],["▁Apple",-10.878113217640802],["▁amateur",-10.878458240309687],["▁resolution",-10.878568710681943],["▁export",-10.87871407236942],["▁genetic",-10.879347500112408],["linked",-10.879468816787652],["▁Sultan",-10.879492710610585],["resh",-10.879747313719959],["▁Nicholas",-10.880121268654579],["▁orbit",-10.880186115464127],["▁Swi",-10.880447867978553],["▁Future",-10.880448487234982],["DC",-10.88069811859705],["▁tourist",-10.880816078050527],["▁variable",-10.880970364139486],["▁ownership",-10.88119285977549],["NT",-10.881836271789782],["▁Liga",-10.882252995215865],["▁patent",-10.882538213240954],["▁(2012)",-10.882801975324574],["▁Grade",-10.883165820231477],["▁DNA",-10.883568440235145],["▁ratio",-10.883826309184665],["▁Kirk",-10.883833587380707],["▁deliver",-10.883937376671513],["▁carrier",-10.884575257568185],["▁Vancouver",-10.885630525134067],["▁processes",-10.885844454529526],["▁Costa",-10.886048183816504],["child",-10.886084117706671],["▁Magic",-10.886579717366489],["▁Nebraska",-10.886593305902272],["affi",-10.888015181214884],["▁error",-10.888114521565775],["▁cook",-10.88860626890081],["equipped",-10.888693041143753],["▁Beck",-10.889361177647702],["▁Technical",-10.889777819292933],["▁interaction",-10.890202197208048],["▁Slav",-10.890955868210037],["▁counties",-10.89098184711467],["1930",-10.891219155021012],["▁Freedom",-10.89156216637798],["▁snow",-10.891803847033229],["▁Clare",-10.891923929079551],["Recipient",-10.892639978598245],[".M.",-10.892898330816218],["▁convert",-10.89290770935456],["CB",-10.892974574591225],["•",-10.89300477360493],["▁1860",-10.893047387314791],["▁Broad",-10.893461999314143],["▁Caribbean",-10.893940388774599],["EP",-10.894828635164336],["▁cup",-10.895470925627968],["▁trace",-10.89550976775993],["yll",-10.895527610528239],["▁scholar",-10.895952068333923],["▁stretch",-10.896421807384133],["▁patrol",-10.896451416334475],["signing",-10.896606501196139],["athlete",-10.896636865945563],["retained",-10.89676760828898],["Video",-10.89736156739368],["▁Number",-10.897511655994107],["▁curve",-10.897544946220618],["▁passage",-10.89798750992916],["▁Nepal",-10.899074282034874],["▁differ",-10.89913844488747],["phal",-10.899396453854777],["▁Collins",-10.900165270000787],["covering",-10.900255670152491],["▁pitcher",-10.900609505902208],["▁Wol",-10.900679198399228],["▁balance",-10.90081497271573],["▁Gaz",-10.900956503322396],["▁stem",-10.901237186708448],["▁Leader",-10.901372554776927],["▁artistic",-10.901395434718877],["▁Flight",-10.901709725402807],["▁Cav",-10.902134418206305],["▁Afghanistan",-10.902642916506103],["▁municipalities",-10.903001436445075],["Television",-10.903063763319595],["▁Draft",-10.903524853176506],["NG",-10.904030695719198],["etz",-10.904080142753854],["▁entertainment",-10.904715810034265],["▁observation",-10.904786358835139],["▁CBS",-10.905090050063132],["▁(2001)",-10.905288643262526],["nata",-10.905720010474505],["▁possession",-10.906605246442465],["▁(2002)",-10.906971435665817],["qualifying",-10.907377032619644],["▁(c.",-10.907896320236086],["bah",-10.908100841264966],["▁Manager",-10.908183903715232],["egi",-10.908525506761881],["▁Palm",-10.908977120857665],["▁Syria",-10.910073617911557],["▁choose",-10.910145003693808],["▁spiritual",-10.910206400760533],["▁1893",-10.910308839850696],["dding",-10.910643525653718],["▁Carol",-10.910760363028675],["▁debt",-10.911155345829663],["▁Abdul",-10.911514955577134],["▁regard",-10.91158065130293],["portrayed",-10.911626677908687],["▁Draw",-10.911948500136399],["▁alcohol",-10.912059666566611],["▁Wang",-10.912460442161779],["▁Harrison",-10.912596463181973],["▁Jerry",-10.912956821803881],["Additionally,",-10.913576844798321],["▁childhood",-10.913616304133868],["AB",-10.914418620054052],["▁happen",-10.914733785544998],["▁Arabia",-10.914806207322677],["break",-10.914962782038737],["▁Oliver",-10.91502135616184],["1988",-10.915064060389492],["script",-10.915438664271527],["▁Slo",-10.915633564515408],["▁Friends",-10.915713501387645],["▁Bryan",-10.91732199021864],["▁Crime",-10.917356252476418],["▁infrastructure",-10.917537878136384],["NS",-10.917564634728029],["▁Symphony",-10.917666545560275],["▁Rangers",-10.91770230684877],["CM",-10.918078925255005],["pie",-10.918440634407927],["▁YouTube",-10.918461719880332],["▁trust",-10.91888711704512],["▁output",-10.919337416984412],["IM",-10.919638176223367],["▁dress",-10.919769459118676],["1963",-10.919960137111099],["▁Hope",-10.920139705707191],["▁survive",-10.920212507256785],["▁earth",-10.920445210677238],["▁Trump",-10.920506429863048],["member",-10.920641266576915],["-sort-value=\"0.",-10.920680720503833],["▁Turner",-10.92072737208359],["▁Bosnia",-10.92082422060924],["▁Burg",-10.921004878759609],["▁strategy",-10.921402308911219],["▁deputy",-10.922342503499916],["▁pipe",-10.922540394145077],["▁noble",-10.922605866821105],["▁graduat",-10.922619764062857],["▁Bristol",-10.922624142481618],["▁remember",-10.923048653639775],["▁Estonia",-10.92345440726453],["rote",-10.923646837102082],["▁1889",-10.923837384503054],["▁serial",-10.92432678104394],["rink",-10.924398622806322],["Diocese",-10.92458850384061],["▁pianist",-10.925052324110274],["▁Craig",-10.925161269959542],["Women",-10.925427523475717],["1962",-10.925777700696848],["▁downtown",-10.926149389856961],["▁electoral",-10.926197135050908],["▁veteran",-10.926273146877142],["New",-10.926540671036824],["Turk",-10.92674213509839],["consisting",-10.926770047087162],["course",
[...]
